{
  "freqs": {
    "[UNK]": 610081,
    "was": 9378,
    "wondering": 187,
    "if": 5836,
    "anyone": 1420,
    "out": 4378,
    "there": 5108,
    "could": 2312,
    "en": 590,
    "##light": 40,
    "##en": 264,
    "me": 4521,
    "on": 13940,
    "this": 11199,
    "car": 848,
    "saw": 407,
    "the": 94968,
    "other": 3724,
    "day": 891,
    ".": 171241,
    "a": 40770,
    "2": 8603,
    "-": 170516,
    "door": 194,
    "sports": 85,
    ",": 116494,
    "looked": 259,
    "to": 52076,
    "be": 13742,
    "from": 7719,
    "late": 220,
    "60s": 12,
    "/": 26062,
    "early": 316,
    "70s": 15,
    "called": 858,
    "doors": 59,
    "were": 4013,
    "really": 1352,
    "small": 582,
    "addition": 231,
    "front": 310,
    "bumper": 28,
    "separate": 157,
    "rest": 378,
    "of": 46044,
    "body": 377,
    "is": 29321,
    "all": 5790,
    "know": 3492,
    "can": 7494,
    "tell": 839,
    "##me": 160,
    "model": 316,
    "name": 957,
    "engine": 225,
    "spec": 180,
    "##s": 9157,
    "years": 1354,
    "production": 89,
    "where": 1610,
    "made": 1205,
    "history": 358,
    "or": 10116,
    "whatever": 319,
    "info": 679,
    "you": 16068,
    "have": 12643,
    "funky": 6,
    "looking": 661,
    "please": 761,
    "e": 1307,
    "mail": 1362,
    "fair": 164,
    "number": 1208,
    "brave": 16,
    "souls": 28,
    "who": 4242,
    "upgraded": 36,
    "their": 3843,
    "clock": 189,
    "os": 192,
    "##ci": 188,
    "##lla": 48,
    "##tor": 106,
    "shared": 108,
    "experiences": 80,
    "for": 18619,
    "poll": 35,
    "send": 788,
    "brief": 61,
    "message": 524,
    "detailing": 9,
    "your": 4976,
    "with": 12354,
    "procedure": 74,
    "speed": 546,
    "attained": 7,
    "rated": 44,
    "add": 344,
    "cards": 270,
    "and": 40305,
    "adapt": 160,
    "##ers": 347,
    "heat": 135,
    "sinks": 8,
    "hour": 107,
    "usage": 96,
    "per": 701,
    "floppy": 207,
    "disk": 632,
    "functionality": 54,
    "800": 379,
    "1": 11475,
    "4": 4921,
    "m": 2669,
    "flop": 54,
    "##pies": 66,
    "are": 12610,
    "especially": 345,
    "requested": 47,
    "will": 6470,
    "sum": 138,
    "##mar": 89,
    "##izing": 77,
    "in": 29401,
    "next": 636,
    "two": 2063,
    "days": 523,
    "so": 4307,
    "network": 253,
    "knowledge": 285,
    "base": 244,
    "done": 761,
    "upgrade": 136,
    "haven": 323,
    "'": 115871,
    "t": 10857,
    "answered": 86,
    "well": 1742,
    "folks": 198,
    "my": 5414,
    "mac": 151,
    "plus": 226,
    "finally": 175,
    "gave": 266,
    "up": 3798,
    "ghost": 17,
    "weekend": 78,
    "after": 1354,
    "starting": 162,
    "life": 752,
    "as": 10366,
    "512": 51,
    "##k": 580,
    "way": 1988,
    "back": 1500,
    "1985": 82,
    "soo": 11,
    "##o": 485,
    "i": 1100,
    "market": 271,
    "new": 1909,
    "machine": 477,
    "bit": 1313,
    "sooner": 27,
    "than": 3235,
    "intended": 183,
    "into": 2285,
    "picking": 33,
    "power": 920,
    "##book": 31,
    "160": 73,
    "maybe": 435,
    "180": 45,
    "bunch": 136,
    "questions": 522,
    "that": 26802,
    "(": 40646,
    "hopefully": 49,
    ")": 39894,
    "somebody": 160,
    "answer": 533,
    ":": 33361,
    "*": 31017,
    "does": 2129,
    "anybody": 337,
    "any": 4151,
    "dirt": 42,
    "when": 3073,
    "round": 193,
    "introductions": 1,
    "expected": 185,
    "?": 22924,
    "d": 1681,
    "heard": 631,
    "185": 27,
    "##c": 786,
    "supposed": 225,
    "make": 1936,
    "an": 7262,
    "appear": 203,
    "##ence": 37,
    "\"": 40142,
    "summer": 156,
    "but": 7650,
    "anymore": 73,
    "it": 19266,
    "since": 1146,
    "don": 3564,
    "access": 504,
    "##lea": 86,
    "had": 3476,
    "more": 3934,
    "has": 5216,
    "rumors": 46,
    "about": 5614,
    "price": 475,
    "drops": 29,
    "line": 923,
    "like": 3821,
    "ones": 356,
    "duo": 7,
    "s": 12258,
    "just": 3319,
    "went": 561,
    "through": 1237,
    "recently": 291,
    "what": 4611,
    "impression": 60,
    "display": 450,
    "probably": 930,
    "swing": 33,
    "got": 1157,
    "rather": 742,
    "120": 138,
    "feel": 463,
    "how": 2409,
    "much": 2034,
    "better": 1139,
    "ye": 68,
    "##a": 445,
    "looks": 282,
    "great": 726,
    "store": 127,
    "wow": 10,
    "good": 2218,
    "sol": 33,
    "##ici": 72,
    "##t": 1346,
    "some": 4323,
    "opinions": 213,
    "people": 3893,
    "use": 3125,
    "its": 1636,
    "worth": 330,
    "taking": 290,
    "size": 478,
    "money": 537,
    "hit": 318,
    "get": 3498,
    "active": 104,
    "realize": 171,
    "real": 796,
    "subjective": 55,
    "question": 1051,
    "ve": 1995,
    "only": 3314,
    "played": 191,
    "around": 1032,
    "machines": 227,
    "computer": 536,
    "br": 46,
    "##ei": 60,
    "##fly": 3,
    "figured": 44,
    "actually": 677,
    "uses": 405,
    "daily": 63,
    "might": 1203,
    "prove": 210,
    "helpful": 109,
    "hell": 244,
    "##cats": 1,
    "perform": 89,
    ";": 15818,
    "thanks": 214,
    "advance": 346,
    "email": 577,
    "ll": 1319,
    "post": 756,
    "summary": 103,
    "news": 860,
    "reading": 346,
    "time": 2894,
    "at": 7538,
    "premium": 31,
    "finals": 28,
    "corner": 85,
    "\\": 12812,
    "##wil": 14,
    "##lis": 17,
    "@": 18974,
    "ec": 79,
    "##n": 608,
    "purdue": 21,
    "ed": 2377,
    "##u": 2662,
    "address": 559,
    "phone": 392,
    "information": 1287,
    "chip": 566,
    "article": 564,
    "<": 15425,
    "n": 758,
    "##3": 1191,
    "##p": 1585,
    "world": 811,
    "st": 452,
    "##d": 1405,
    "com": 1968,
    ">": 83268,
    "by": 7824,
    "tomb": 36,
    "##aker": 2,
    "understanding": 184,
    "errors": 166,
    "basically": 127,
    "known": 474,
    "bugs": 70,
    "warning": 74,
    "system": 1718,
    "software": 769,
    "things": 1216,
    "checked": 96,
    "right": 1739,
    "values": 218,
    "yet": 563,
    "because": 2232,
    "they": 7631,
    "aren": 304,
    "set": 1018,
    "till": 63,
    "launch": 253,
    "such": 1959,
    "##like": 13,
    "fix": 217,
    "code": 601,
    "possibly": 201,
    "introduce": 23,
    "crew": 53,
    "ok": 108,
    "see": 1961,
    "no": 3818,
    "213": 48,
    "before": 1226,
    "lift": 49,
    "##off": 86,
    "ignore": 79,
    "course": 930,
    "term": 305,
    "must": 1294,
    "rigid": 9,
    "##ly": 1357,
    "defined": 149,
    "bill": 161,
    "doubt": 261,
    "she": 697,
    "using": 1376,
    "quote": 183,
    "allegedly": 18,
    "her": 866,
    "read": 1103,
    "presenting": 25,
    "first": 1840,
    "argument": 414,
    "weapons": 270,
    "mass": 158,
    "destruction": 62,
    "commonly": 68,
    "understood": 80,
    "then": 2423,
    "switching": 40,
    "topics": 68,
    "point": 1283,
    "evidently": 12,
    "show": 467,
    "not": 11696,
    "should": 2485,
    "allowed": 216,
    "later": 448,
    "analysis": 173,
    "given": 594,
    "consider": 390,
    "another": 1023,
    "class": 237,
    "few": 1055,
    "responded": 58,
    "request": 322,
    "treatment": 145,
    "astro": 60,
    "##cy": 102,
    "##tom": 14,
    "##as": 124,
    "whom": 160,
    "couldn": 300,
    "thank": 80,
    "directly": 235,
    "bouncing": 18,
    "pro": 413,
    "##bs": 93,
    "thought": 672,
    "publicly": 62,
    "everyone": 380,
    "!": 15652,
    "sure": 1080,
    "glad": 83,
    "accidentally": 18,
    "rn": 8,
    "instead": 392,
    "rm": 34,
    "trying": 646,
    "del": 173,
    "##ete": 68,
    "file": 1476,
    "last": 1151,
    "shows": 197,
    "{": 840,
    "control": 635,
    "##er": 1340,
    "}": 1193,
    "range": 209,
    "indeed": 192,
    "0": 8702,
    "controller": 304,
    "burst": 70,
    "8": 3786,
    "version": 730,
    "exist": 413,
    "too": 1518,
    "mode": 658,
    "16": 1051,
    "wide": 213,
    "fast": 369,
    "32": 562,
    "15": 1083,
    "data": 1142,
    "twice": 117,
    "correct": 406,
    "reach": 132,
    "which": 4466,
    "20": 1094,
    "%": 15055,
    "faster": 224,
    "3": 8321,
    "9": 3145,
    "96": 211,
    "these": 2223,
    "facts": 129,
    "been": 3345,
    "posted": 373,
    "##group": 360,
    "&": 11703,
    "sheet": 69,
    "available": 1226,
    "##ex": 152,
    "aim": 32,
    "stanford": 50,
    "36": 394,
    "44": 347,
    "6": 3677,
    "report": 242,
    "ibm": 70,
    "compare": 107,
    "[": 11632,
    "#": 13473,
    "]": 12906,
    "tx": 37,
    "173": 11,
    "161": 48,
    "may": 2151,
    "still": 1312,
    "problem": 1521,
    "both": 1124,
    "inc": 229,
    "##ons": 131,
    "##ian": 41,
    "documented": 42,
    "sales": 144,
    "##person": 12,
    "said": 1722,
    "maximum": 86,
    "sync": 73,
    "##hr": 72,
    "##ono": 40,
    "##us": 261,
    "seems": 830,
    "interface": 288,
    "think": 2969,
    "driven": 90,
    "true": 840,
    "go": 1436,
    "win": 466,
    "downloaded": 26,
    "several": 698,
    "icons": 31,
    "figure": 243,
    "change": 585,
    "wall": 118,
    "##paper": 17,
    "help": 1132,
    "would": 5988,
    "appreciated": 295,
    "board": 344,
    "over": 1992,
    "year": 1410,
    "work": 1633,
    "due": 351,
    "licensing": 24,
    "owners": 124,
    "compression": 118,
    "technology": 306,
    "writing": 200,
    "memory": 494,
    "lost": 263,
    "reference": 236,
    "wrong": 662,
    "problems": 728,
    "being": 1686,
    "hard": 813,
    "say": 1821,
    "whether": 561,
    "fault": 106,
    "something": 1549,
    "else": 686,
    "however": 447,
    "deco": 114,
    "##mp": 232,
    "##ress": 95,
    "troubled": 7,
    "rec": 424,
    "##omp": 71,
    "without": 1109,
    "icon": 68,
    "usually": 395,
    "re": 2370,
    "##app": 20,
    "##ears": 6,
    "above": 736,
    "mentioned": 296,
    "free": 704,
    "##ware": 146,
    "expansion": 123,
    "utility": 94,
    "compressed": 54,
    "unless": 350,
    "installed": 235,
    "own": 1158,
    "product": 262,
    "now": 1615,
    "unlikely": 89,
    "holes": 73,
    "related": 313,
    "fixed": 129,
    "sad": 71,
    "makes": 533,
    "very": 2179,
    "reluctant": 14,
    "buy": 454,
    "stink": 14,
    "##y": 804,
    "hey": 36,
    "competition": 42,
    "1978": 41,
    "17": 749,
    "paint": 69,
    "bronze": 7,
    "brown": 31,
    "orange": 21,
    "faded": 3,
    "leaks": 12,
    "oil": 185,
    "pops": 25,
    "1st": 204,
    "acc": 102,
    "##el": 130,
    "shop": 85,
    "trans": 153,
    "leak": 22,
    "sold": 189,
    "bike": 342,
    "owner": 109,
    "want": 1728,
    "$": 16300,
    "34": 580,
    "##9": 1124,
    "##5": 886,
    "am": 2134,
    "thinking": 278,
    "nice": 376,
    "stable": 60,
    "mate": 5,
    "ja": 35,
    "call": 724,
    "myself": 330,
    "hon": 19,
    "therefore": 184,
    "irwin": 3,
    "cm": 164,
    "##pt": 144,
    "##rc": 225,
    "lone": 17,
    "##star": 19,
    "org": 220,
    "08": 165,
    "##26": 46,
    "pretty": 493,
    "understand": 472,
    "believe": 1340,
    "between": 1060,
    "case": 1067,
    "establishes": 8,
    "follow": 313,
    "mankind": 45,
    "decide": 152,
    "boundaries": 22,
    "fall": 256,
    "though": 832,
    "believed": 119,
    "required": 267,
    "whereas": 49,
    "ancestors": 15,
    "modern": 152,
    "interpretation": 113,
    "lead": 206,
    "nu": 72,
    "##ances": 11,
    "essence": 43,
    "necessarily": 153,
    "indicate": 78,
    "anything": 925,
    "outside": 281,
    "relationship": 110,
    "although": 341,
    "one": 5691,
    "##ulate": 58,
    "trouble": 204,
    "we": 4855,
    "created": 243,
    "image": 595,
    "means": 664,
    "different": 946,
    "come": 995,
    "conclusion": 169,
    "upset": 48,
    "wants": 255,
    "shaky": 8,
    "foundation": 39,
    "mix": 40,
    "metaphor": 31,
    "una": 111,
    "##sham": 1,
    "##edly": 1,
    "living": 239,
    "example": 797,
    "little": 955,
    "person": 708,
    "his": 2979,
    "recorded": 45,
    "utter": 31,
    "narratives": 3,
    "followers": 69,
    "references": 152,
    "comte": 1,
    "##ora": 30,
    "##ry": 341,
    "historians": 23,
    "aside": 83,
    "second": 710,
    "hand": 549,
    "worse": 178,
    "attempt": 193,
    "de": 484,
    "##bu": 181,
    "##nk": 79,
    "seem": 577,
    "initially": 36,
    "`": 13079,
    "interpret": 71,
    "humanity": 51,
    "guess": 386,
    "comes": 471,
    "inherent": 43,
    "##ness": 286,
    "absolute": 145,
    "moral": 211,
    "undo": 20,
    "##ub": 37,
    "##ta": 220,
    "##bly": 103,
    "multiple": 208,
    "codes": 65,
    "founded": 48,
    "parent": 68,
    "child": 229,
    "never": 1064,
    "swear": 29,
    "assume": 315,
    "simply": 471,
    "told": 575,
    "trooper": 1,
    "pub": 539,
    "bar": 113,
    "children": 546,
    "here": 1628,
    "di": 678,
    "##so": 85,
    "##bey": 11,
    "inappropriate": 27,
    "quite": 645,
    "happy": 187,
    "animals": 109,
    "analogy": 54,
    "hold": 252,
    "water": 269,
    "knows": 286,
    "he": 4686,
    "same": 1697,
    "type": 491,
    "gi": 160,
    "##st": 349,
    "young": 240,
    "considers": 24,
    "directive": 26,
    "until": 567,
    "gets": 326,
    "older": 137,
    "learns": 2,
    "morality": 124,
    "religion": 386,
    "option": 183,
    "redesign": 32,
    "deleted": 259,
    "let": 738,
    "keep": 675,
    "top": 430,
    "options": 175,
    "list": 919,
    "23": 427,
    "edition": 83,
    "reports": 199,
    "panel": 116,
    "proposals": 37,
    "dropped": 71,
    "giant": 21,
    "external": 144,
    "fuel": 107,
    "tanks": 101,
    "used": 1845,
    "launching": 17,
    "space": 809,
    "shuttle": 93,
    "building": 271,
    "station": 184,
    "existing": 154,
    "wings": 35,
    "tail": 44,
    "removed": 102,
    "three": 741,
    "considered": 313,
    "presented": 127,
    "advisory": 12,
    "meeting": 139,
    "yesterday": 111,
    "reported": 193,
    "today": 483,
    "studied": 45,
    "team": 695,
    "teams": 237,
    "supporting": 78,
    "also": 2709,
    "site": 298,
    "locations": 35,
    "helping": 41,
    "respective": 20,
    "activities": 123,
    "features": 172,
    "modular": 13,
    "bus": 346,
    "developed": 186,
    "qualified": 40,
    "provides": 197,
    "propulsion": 35,
    "obtained": 108,
    "arrays": 13,
    "provide": 455,
    "vehicle": 151,
    "flies": 7,
    "arrow": 19,
    "opt": 80,
    "##imi": 76,
    "##ze": 94,
    "micro": 157,
    "##gra": 32,
    "##vity": 11,
    "environment": 189,
    "missions": 75,
    "utilize": 13,
    "##hil": 25,
    "##ce": 230,
    "source": 561,
    "30": 887,
    "tended": 20,
    "capability": 87,
    "opposed": 107,
    "old": 807,
    "sex": 155,
    "##ist": 206,
    "man": 638,
    "achieved": 37,
    "module": 76,
    "modified": 111,
    "docking": 13,
    "ports": 99,
    "added": 189,
    "labs": 11,
    "place": 734,
    "nodes": 13,
    "docked": 3,
    "60": 525,
    "habit": 31,
    "##ability": 32,
    "modules": 33,
    "3rd": 139,
    "habitat": 7,
    "##ion": 225,
    "based": 821,
    "al": 236,
    "##ot": 174,
    "design": 244,
    "love": 330,
    "assumes": 43,
    "lightweight": 7,
    "tank": 106,
    "assembly": 66,
    "flights": 29,
    "computed": 21,
    "51": 335,
    "inclination": 15,
    "orbit": 211,
    "build": 391,
    "occurs": 105,
    "six": 168,
    "phases": 6,
    "reached": 89,
    "transferred": 22,
    "visits": 15,
    "adopted": 33,
    "non": 852,
    "language": 245,
    "deployed": 13,
    "solar": 85,
    "10": 1712,
    "keeping": 122,
    "sometimes": 251,
    "supply": 203,
    "14": 948,
    "2nd": 185,
    "thermal": 27,
    "ra": 173,
    "##dia": 34,
    "finish": 67,
    "24": 790,
    "systems": 495,
    "currently": 265,
    "exception": 57,
    "management": 127,
    "major": 361,
    "changes": 193,
    "##sal": 36,
    "##e": 939,
    "behalf": 34,
    "brother": 85,
    "moving": 150,
    "moved": 124,
    "already": 627,
    "purchased": 84,
    "12": 981,
    "1000": 159,
    "5": 4851,
    "graphics": 447,
    "high": 767,
    "dub": 5,
    "##ing": 2112,
    "deck": 36,
    "tre": 11,
    "##ble": 388,
    "sound": 341,
    "bet": 112,
    "##able": 561,
    "80": 700,
    "25": 983,
    "mag": 66,
    "##ni": 154,
    "##fication": 49,
    "includes": 336,
    "accessories": 20,
    "50": 899,
    "1400": 27,
    "dry": 56,
    "put": 843,
    "head": 360,
    "under": 1204,
    "salon": 2,
    "ask": 553,
    "why": 1190,
    "bro": 30,
    "leather": 39,
    "speeds": 86,
    "cook": 22,
    "7": 4559,
    "##x": 1228,
    "##35": 46,
    "extra": 246,
    "angle": 58,
    "525": 17,
    "##ft": 81,
    "##yd": 2,
    "contact": 319,
    "thru": 79,
    "reply": 248,
    "ex": 619,
    "##ped": 55,
    "##ito": 10,
    "##usly": 11,
    "always": 633,
    "+": 13653,
    "included": 314,
    "lastly": 4,
    "reasonable": 216,
    "happened": 338,
    "citizens": 226,
    "during": 550,
    "prepared": 90,
    "stick": 166,
    "them": 3507,
    "concentration": 27,
    "camp": 42,
    "trial": 149,
    "short": 391,
    "step": 174,
    "gas": 251,
    "##sing": 62,
    "originally": 93,
    "imp": 193,
    "##ris": 27,
    "##on": 302,
    "dream": 55,
    "partly": 23,
    "afford": 83,
    "run": 884,
    "camps": 37,
    "devastation": 3,
    "caused": 162,
    "weren": 94,
    "##sed": 64,
    "generally": 227,
    "died": 190,
    "mal": 42,
    "##nut": 12,
    "##rit": 37,
    "disease": 166,
    "certainly": 379,
    "do": 5336,
    "whenever": 66,
    "works": 665,
    "philosophical": 26,
    "complexity": 23,
    "led": 119,
    "programs": 497,
    "poor": 174,
    "writers": 36,
    "making": 448,
    "bizarre": 26,
    "files": 812,
    "inability": 23,
    "load": 150,
    "images": 323,
    "save": 264,
    "general": 518,
    "interchange": 11,
    "environments": 25,
    "despite": 94,
    "fact": 963,
    "saying": 508,
    "goes": 377,
    "worried": 49,
    "abuse": 108,
    "chalk": 4,
    "immense": 11,
    "unnecessary": 29,
    "format": 446,
    "words": 377,
    "page": 171,
    "capital": 73,
    "##ized": 158,
    "emphasis": 46,
    "mine": 234,
    "sort": 403,
    "success": 110,
    "designed": 259,
    "powerful": 102,
    "flexible": 32,
    "expense": 43,
    "simplicity": 16,
    "takes": 239,
    "amount": 232,
    "effort": 180,
    "handle": 190,
    "specification": 43,
    "able": 745,
    "import": 55,
    "many": 1802,
    "generating": 22,
    "applications": 258,
    "program": 1324,
    "every": 866,
    "won": 603,
    "deal": 385,
    "trapped": 10,
    "neither": 158,
    "agrees": 19,
    "reasoning": 92,
    "asking": 197,
    "kind": 582,
    "rates": 167,
    "single": 406,
    "male": 78,
    "drivers": 352,
    "y": 331,
    "##rs": 281,
    "paying": 98,
    "performance": 262,
    "cars": 276,
    "replies": 101,
    "received": 233,
    "27": 468,
    "close": 310,
    "enough": 848,
    "1992": 383,
    "300": 252,
    "##hp": 15,
    "tickets": 48,
    "accidents": 42,
    "house": 237,
    "taken": 359,
    "defensive": 107,
    "driving": 162,
    "air": 243,
    "##bag": 19,
    "abs": 46,
    "security": 350,
    "alarm": 31,
    "1500": 34,
    "500": 270,
    "dec": 297,
    "##ut": 59,
    "additional": 158,
    "100": 660,
    "000": 832,
    "umbrella": 4,
    "policy": 215,
    "standard": 532,
    "less": 736,
    "bought": 253,
    "company": 297,
    "accident": 80,
    "ticket": 67,
    "11": 873,
    "quoted": 109,
    "helps": 129,
    "=": 40383,
    "45": 565,
    "remembered": 25,
    "correctly": 125,
    "asked": 399,
    "insurance": 196,
    "similar": 456,
    "situation": 331,
    "inquiry": 26,
    "820": 12,
    "mo": 168,
    "turn": 350,
    "down": 1133,
    "520": 21,
    "##urs": 17,
    "higher": 277,
    "rate": 355,
    "couple": 398,
    "friends": 171,
    "w": 507,
    "pay": 375,
    "ins": 194,
    "companies": 182,
    "lucky": 70,
    "dans": 3,
    "jd": 8,
    "gs": 33,
    "38": 506,
    "live": 446,
    "drive": 1036,
    "89": 253,
    "claim": 431,
    "against": 908,
    "times": 568,
    "ne": 182,
    "##gli": 29,
    "##gent": 27,
    "stop": 350,
    "signs": 68,
    "fi": 169,
    "##ddling": 10,
    "radios": 35,
    "violations": 41,
    "18": 667,
    "months": 328,
    "going": 1393,
    "85": 236,
    "55": 505,
    "failure": 81,
    "clear": 394,
    "intersection": 26,
    "damn": 98,
    "light": 341,
    "yellow": 31,
    "35": 415,
    "didn": 1036,
    "record": 250,
    "passive": 26,
    "restraint": 22,
    "##duction": 11,
    "liability": 34,
    "##du": 106,
    "##ct": 193,
    "##ible": 108,
    "comprehensive": 73,
    "collision": 15,
    "roughly": 59,
    "1300": 16,
    "1100": 56,
    "92": 504,
    "u": 575,
    "##ok": 41,
    "##max": 9,
    "##nor": 42,
    "aa": 36,
    "##rd": 65,
    "##var": 10,
    "uc": 131,
    "engineer": 36,
    "play": 595,
    "forecast": 10,
    "calls": 198,
    "thing": 1004,
    "killing": 169,
    "take": 1234,
    "away": 613,
    "ever": 583,
    "gonna": 49,
    "61": 367,
    "beyond": 173,
    "age": 193,
    "group": 701,
    "experience": 372,
    "ago": 565,
    "interesting": 336,
    "owned": 60,
    "decided": 227,
    "gift": 39,
    "exotic": 13,
    "runners": 22,
    "##4": 1107,
    "1987": 74,
    "narrowed": 5,
    "those": 1763,
    "liked": 52,
    "handling": 76,
    "##nob": 3,
    "appeal": 36,
    "almost": 448,
    "personal": 313,
    "luxury": 15,
    "acceleration": 34,
    "ready": 152,
    "give": 900,
    "buying": 153,
    "impulse": 21,
    "agent": 77,
    "office": 193,
    "happen": 316,
    "either": 826,
    "classification": 16,
    "sub": 417,
    "##com": 197,
    "##pac": 4,
    "safe": 183,
    "slight": 47,
    "increase": 183,
    "newer": 73,
    "lower": 208,
    "risk": 163,
    "division": 102,
    "continue": 233,
    "account": 187,
    "double": 159,
    "94": 248,
    "story": 268,
    "again": 786,
    "cover": 287,
    "cancel": 13,
    "doe": 9,
    "##ns": 153,
    "sense": 382,
    "book": 582,
    "says": 676,
    "##ure": 70,
    "reason": 676,
    "##writer": 12,
    "traditional": 79,
    "conservative": 43,
    "eventually": 119,
    "reasons": 235,
    "dealer": 141,
    "salesman": 16,
    "interested": 533,
    "tough": 80,
    "pressure": 159,
    "guy": 250,
    "room": 228,
    "equal": 136,
    "monthly": 48,
    "payments": 18,
    "longer": 300,
    "concluded": 42,
    "probability": 35,
    "auto": 278,
    "theft": 23,
    "|": 3408,
    "~": 1429,
    "entitled": 45,
    "opinion": 288,
    "_": 27038,
    "goldberg": 2,
    "o": 745,
    "##ys": 66,
    "dt": 65,
    "navy": 50,
    "mil": 121,
    "important": 527,
    "26": 389,
    "turned": 193,
    "immediately": 126,
    "460": 11,
    "strictly": 31,
    "stayed": 44,
    "150": 158,
    "pickup": 31,
    "amazing": 53,
    "woke": 9,
    "felt": 121,
    "21": 495,
    "violation": 57,
    "2000": 106,
    "bargain": 12,
    "28": 377,
    "clean": 113,
    "getting": 582,
    "turbo": 48,
    "vs": 357,
    "1986": 81,
    "town": 174,
    "city": 237,
    "##ured": 25,
    "robert": 2,
    "stack": 36,
    "##lab": 35,
    "uci": 36,
    "37": 377,
    "64": 322,
    "202": 84,
    "##8": 1369,
    "license": 148,
    "possible": 807,
    "##ise": 65,
    "##tti": 10,
    "inform": 72,
    "##ix": 48,
    "415": 70,
    "##2": 1170,
    "03": 289,
    "##20": 94,
    "##6": 1517,
    "65": 289,
    "##47": 26,
    "1200": 59,
    "full": 534,
    "knock": 33,
    "wood": 36,
    "difference": 401,
    "personally": 122,
    "best": 869,
    "towns": 31,
    "within": 415,
    "distance": 101,
    "115": 72,
    "##0": 1505,
    "worst": 98,
    "600": 143,
    "43": 326,
    "1990": 209,
    "eclipse": 15,
    "aw": 21,
    "1560": 1,
    "coverage": 102,
    "did": 1572,
    "discount": 36,
    "miles": 190,
    "lived": 159,
    "41": 258,
    "anyway": 296,
    "##uring": 16,
    "93": 630,
    "287": 19,
    "month": 212,
    "total": 249,
    "property": 163,
    "250": 223,
    "glass": 54,
    "towing": 5,
    "39": 278,
    "seriously": 140,
    "ripped": 16,
    "off": 1481,
    "listed": 120,
    "try": 787,
    "calling": 160,
    "dealers": 93,
    "find": 1330,
    "standardized": 8,
    "found": 804,
    "most": 1712,
    "places": 234,
    "ridiculous": 66,
    "final": 215,
    "changed": 234,
    "renewal": 5,
    "maintain": 109,
    "low": 423,
    "careful": 93,
    "^": 12181,
    "amp": 138,
    "##li": 100,
    "##fy": 24,
    "voltage": 109,
    "signal": 152,
    "output": 611,
    "##rm": 64,
    "##oco": 21,
    "##up": 215,
    "##le": 305,
    "prefer": 226,
    "##ably": 96,
    "factor": 122,
    "resulting": 64,
    "fed": 72,
    "easily": 249,
    "acquisition": 11,
    "card": 758,
    "circuits": 65,
    "seen": 673,
    "simple": 393,
    "amplifier": 29,
    "practice": 169,
    "sufficiently": 29,
    "nicely": 34,
    "##les": 50,
    "degrees": 75,
    "accuracy": 36,
    "entry": 461,
    "parameter": 38,
    "syntax": 17,
    "configuration": 98,
    "loaded": 99,
    "boots": 37,
    "unix": 83,
    "running": 562,
    "window": 681,
    "manually": 24,
    "log": 136,
    "##in": 312,
    "tel": 147,
    "##net": 202,
    "session": 127,
    "tried": 448,
    "x": 1429,
    "##hos": 35,
    "failed": 151,
    "implementation": 121,
    "bog": 32,
    "edit": 57,
    "matter": 481,
    "containing": 125,
    "manual": 296,
    "worthless": 42,
    "least": 933,
    "orders": 82,
    "motto": 28,
    "captain": 60,
    "traded": 66,
    "wasn": 292,
    "someone": 939,
    "torn": 25,
    "jersey": 8,
    "claimed": 142,
    "yeah": 61,
    "tis": 13,
    "##ts": 177,
    "lists": 170,
    "hardware": 429,
    "application": 430,
    "packages": 108,
    "engineering": 74,
    "sci": 260,
    "ti": 75,
    "##fi": 288,
    "automation": 3,
    "presentation": 44,
    "copy": 375,
    "catalog": 68,
    "write": 424,
    "tons": 31,
    "q": 66,
    "##ool": 17,
    "stuff": 517,
    "browser": 8,
    "appears": 273,
    "buyer": 30,
    "waste": 113,
    "ensure": 74,
    "continued": 90,
    "subscription": 34,
    "touch": 90,
    "550": 32,
    "950": 55,
    "40": 714,
    "840": 11,
    "fa": 295,
    "toll": 36,
    "ordering": 32,
    "tech": 100,
    "support": 790,
    "box": 295,
    "itself": 357,
    "upper": 60,
    "left": 683,
    "click": 46,
    "sim": 87,
    "##pl": 179,
    "##istic": 102,
    "font": 346,
    "biggest": 75,
    "characters": 105,
    "turning": 67,
    "specific": 349,
    "definitely": 105,
    "venerable": 4,
    "cartridge": 35,
    "drives": 336,
    "solution": 227,
    "loops": 17,
    "involved": 303,
    "blind": 56,
    "writes": 116,
    "worked": 199,
    "loop": 74,
    "voice": 192,
    "input": 291,
    "user": 424,
    "developing": 68,
    "##tation": 133,
    "greatly": 171,
    "appreciate": 202,
    "care": 419,
    "offer": 338,
    "accessible": 28,
    "names": 190,
    "ad": 293,
    "##resses": 7,
    "applicable": 34,
    "vendors": 66,
    "respond": 153,
    "via": 413,
    "sufficient": 117,
    "interest": 275,
    "impressive": 52,
    "avoid": 240,
    "##sle": 38,
    "purchasing": 37,
    "maintaining": 37,
    "k": 230,
    "##ph": 123,
    "##q": 195,
    "virginia": 20,
    "fossil": 19,
    "plants": 43,
    "hotter": 7,
    "usual": 127,
    "boiling": 21,
    "reactor": 19,
    "nuclear": 143,
    "grip": 26,
    "industry": 146,
    "1900": 22,
    "vintage": 12,
    "steam": 41,
    "cold": 132,
    "end": 857,
    "big": 534,
    "cooling": 52,
    "towers": 29,
    "fired": 97,
    "conde": 41,
    "##nse": 16,
    "sized": 41,
    "hot": 214,
    "ambient": 5,
    "cool": 72,
    "official": 153,
    "pollution": 23,
    "ic": 82,
    "river": 35,
    "view": 342,
    "resource": 131,
    "runs": 327,
    "closed": 137,
    "cycle": 60,
    "boilers": 2,
    "pu": 73,
    "##rified": 3,
    "solids": 2,
    "otherwise": 232,
    "cr": 249,
    "##ud": 64,
    "boiler": 10,
    "plumbing": 3,
    "boil": 12,
    "bigger": 77,
    "job": 300,
    "recycled": 3,
    "adamant": 2,
    "environmental": 51,
    "##yr": 28,
    "##of": 96,
    "##oa": 41,
    "##m": 1403,
    "table": 164,
    "service": 352,
    "mind": 444,
    "wish": 241,
    "attack": 250,
    "##ism": 202,
    "half": 298,
    "truth": 353,
    "dangerous": 131,
    "complete": 266,
    "lie": 121,
    "rarely": 42,
    "readily": 44,
    "accepted": 152,
    "while": 1008,
    "subtly": 7,
    "hidden": 67,
    "offered": 93,
    "mas": 11,
    "##que": 25,
    "##rade": 10,
    "angel": 15,
    "loosened": 2,
    "treating": 31,
    "earth": 191,
    "intricate": 9,
    "##i": 402,
    "##work": 23,
    "health": 246,
    "future": 326,
    "generations": 22,
    "treated": 79,
    "respect": 173,
    "happily": 17,
    "leave": 267,
    "error": 323,
    "rejected": 44,
    "style": 144,
    "push": 99,
    "opposite": 75,
    "rubbish": 6,
    "primarily": 93,
    "serve": 93,
    "face": 337,
    "response": 289,
    "proper": 150,
    "generation": 104,
    "showing": 102,
    "disregard": 37,
    "##ful": 199,
    "constitute": 26,
    "becoming": 75,
    "men": 388,
    "spend": 151,
    "putting": 150,
    "foot": 109,
    "mouth": 86,
    "manner": 111,
    "destroy": 85,
    "credibility": 23,
    "expressing": 15,
    "ultimate": 42,
    "entity": 29,
    "creature": 11,
    "creator": 21,
    "beauty": 15,
    "glory": 34,
    "points": 352,
    "greater": 125,
    "tapestry": 2,
    "cords": 8,
    "woven": 1,
    "infinite": 27,
    "depends": 113,
    "priorities": 19,
    "lot": 846,
    "mile": 111,
    "##age": 137,
    "cost": 438,
    "safety": 193,
    "unsafe": 14,
    "eco": 10,
    "##ox": 34,
    "##es": 494,
    "middle": 150,
    "ground": 403,
    "look": 922,
    "seat": 79,
    "##belt": 5,
    "mph": 36,
    "##h": 565,
    "collisions": 8,
    "brick": 11,
    "walls": 40,
    "common": 383,
    "protection": 156,
    "lots": 209,
    "worry": 110,
    "covers": 51,
    "local": 582,
    "stereo": 86,
    "units": 93,
    "serial": 274,
    "registered": 55,
    "warrant": 214,
    "replacements": 14,
    "damage": 125,
    "stands": 87,
    "replaced": 116,
    "deter": 62,
    "##ring": 101,
    "referred": 67,
    "customer": 39,
    "sell": 344,
    "nor": 246,
    "came": 595,
    "pull": 131,
    "##out": 107,
    "sl": 82,
    "##ea": 85,
    "##ve": 234,
    "dish": 44,
    "##ear": 27,
    "##ten": 66,
    "##ed": 1458,
    "acquired": 26,
    "decks": 5,
    "##ify": 63,
    "numbers": 388,
    "catch": 73,
    "##ives": 4,
    "son": 175,
    "teenage": 4,
    "spot": 106,
    "##ty": 200,
    "chin": 10,
    "greasy": 5,
    "nose": 52,
    "him": 1492,
    "wash": 32,
    "##int": 74,
    "##ment": 187,
    "along": 300,
    "diet": 82,
    "doctor": 165,
    "prescription": 12,
    "chemist": 12,
    "counter": 78,
    "ph": 150,
    "##arm": 18,
    "##ac": 128,
    "##ists": 157,
    "ac": 327,
    "##ne": 150,
    "severe": 64,
    "odd": 67,
    "spots": 30,
    "teenager": 4,
    "nothing": 659,
    "serious": 240,
    "father": 136,
    "es": 372,
    "##cala": 13,
    "##te": 399,
    "##sf": 28,
    "##ig": 57,
    "kids": 126,
    "sen": 27,
    "##sti": 117,
    "##tive": 60,
    "appearance": 54,
    "wary": 13,
    "neighbour": 8,
    "wi": 514,
    "mala": 3,
    "##dy": 25,
    "overdose": 2,
    "vitamin": 46,
    "appropriate": 226,
    "sc": 318,
    "##ali": 36,
    "hair": 59,
    "##line": 95,
    "scalp": 11,
    "cradle": 5,
    "cap": 97,
    "pointer": 101,
    "advice": 173,
    "anti": 376,
    "dan": 23,
    "##dr": 35,
    "##uf": 45,
    "##f": 836,
    "sham": 6,
    "##poo": 7,
    "inclined": 21,
    "condition": 277,
    "bury": 24,
    "kid": 55,
    "subject": 398,
    "exploding": 5,
    "television": 60,
    "cause": 455,
    "domestic": 39,
    "past": 339,
    "define": 221,
    "war": 358,
    "se": 187,
    "##ige": 11,
    "constant": 77,
    "attacks": 150,
    "vi": 62,
    "##lli": 13,
    "##ages": 8,
    "count": 192,
    "acts": 93,
    "1948": 31,
    "south": 48,
    "cutting": 44,
    "lines": 370,
    "ki": 47,
    "##bb": 28,
    "##utz": 18,
    "settlements": 11,
    "cut": 294,
    "land": 250,
    "links": 43,
    "population": 267,
    "near": 308,
    "42": 313,
    "members": 282,
    "convoy": 2,
    "slaughtered": 24,
    "route": 50,
    "bombed": 13,
    "trucks": 27,
    "side": 508,
    "road": 219,
    "memo": 10,
    "##riam": 2,
    "killed": 373,
    "isn": 601,
    "attacking": 55,
    "week": 341,
    "launched": 77,
    "rockets": 61,
    "israel": 12,
    "uprising": 22,
    "begin": 153,
    "brings": 57,
    "eyed": 7,
    "appeared": 92,
    "sighted": 13,
    "strange": 95,
    "res": 178,
    "##ao": 11,
    "appointed": 29,
    "himself": 283,
    "ruler": 13,
    "supreme": 23,
    "mention": 211,
    "pointed": 118,
    "mask": 77,
    "hated": 8,
    "effect": 338,
    "##pe": 104,
    "beach": 25,
    "##ball": 29,
    "cracked": 18,
    "boy": 60,
    "versus": 47,
    "##fl": 86,
    "hope": 424,
    "dump": 37,
    "dem": 28,
    "##ps": 184,
    "##ter": 438,
    "campaign": 55,
    "crook": 17,
    "su": 144,
    "##pr": 77,
    "##ised": 30,
    "long": 1062,
    "obviously": 159,
    "ain": 34,
    "bed": 62,
    "wa": 56,
    "##cko": 6,
    "rat": 21,
    "##hole": 20,
    "effective": 188,
    "sending": 119,
    "club": 109,
    "wouldn": 407,
    "magazine": 124,
    "pol": 34,
    "##it": 189,
    "##buro": 1,
    "lacked": 11,
    "pan": 73,
    "##ache": 14,
    "agree": 462,
    "assessment": 20,
    "promotion": 15,
    "providing": 114,
    "bare": 36,
    "far": 886,
    "fulfill": 25,
    "stated": 188,
    "goal": 310,
    "letting": 51,
    "wire": 359,
    "terrorists": 56,
    "drug": 198,
    "restrict": 53,
    "stronger": 43,
    "techniques": 95,
    "targets": 47,
    "presently": 21,
    "strong": 318,
    "encryption": 519,
    "weak": 106,
    "vast": 47,
    "majority": 193,
    "latter": 97,
    "classes": 76,
    "tapped": 8,
    "merged": 5,
    "introduction": 57,
    "enjoying": 12,
    "privacy": 308,
    "rely": 62,
    "express": 44,
    "deny": 92,
    "mere": 43,
    "scheme": 124,
    "government": 1073,
    "preventing": 35,
    "degradation": 12,
    "##pping": 21,
    "capabilities": 78,
    "fulfilled": 22,
    "restriction": 28,
    "crypt": 583,
    "##ography": 139,
    "public": 766,
    "mute": 8,
    "complaints": 47,
    "gross": 25,
    "inadequate": 17,
    "trade": 199,
    "fear": 122,
    "large": 551,
    "hate": 135,
    "even": 2000,
    "gun": 625,
    "assault": 97,
    "weapon": 129,
    "word": 506,
    "automatic": 124,
    "caliber": 25,
    "legal": 335,
    "##ology": 61,
    "suspect": 188,
    "labeled": 23,
    "secrecy": 23,
    "law": 871,
    "ab": 222,
    "##idi": 74,
    "##ng": 200,
    "need": 1608,
    "matters": 90,
    "overturned": 11,
    "courts": 55,
    "ann": 65,
    "##ul": 48,
    "regulation": 35,
    "length": 131,
    "cases": 328,
    "grounds": 73,
    "levy": 1,
    "burden": 39,
    "##some": 11,
    "tax": 232,
    "enforcement": 235,
    "hands": 192,
    "##vo": 121,
    "##ke": 126,
    "likely": 429,
    "clause": 25,
    "anywhere": 130,
    "18th": 14,
    "ruled": 53,
    "prohibit": 44,
    "##ory": 23,
    "statute": 11,
    "unconstitutional": 11,
    "1970": 39,
    "prohibited": 24,
    "drugs": 155,
    "textual": 6,
    "nod": 12,
    "##ro": 186,
    "##gation": 12,
    "willing": 266,
    "wait": 193,
    "##umb": 13,
    "##ag": 25,
    "having": 657,
    "co": 303,
    "pack": 44,
    "##bid": 19,
    "fang": 3,
    "lawyers": 31,
    "recover": 33,
    "damages": 15,
    "##tc": 26,
    "##cu": 95,
    "talk": 374,
    "politics": 125,
    "guns": 324,
    "vincent": 2,
    "cad": 92,
    "gate": 47,
    "##ch": 234,
    "1993": 736,
    "technical": 196,
    "resist": 98,
    "mis": 438,
    "##fire": 19,
    "imagine": 155,
    "doing": 653,
    "combat": 30,
    "shooting": 86,
    "action": 274,
    "cylinder": 44,
    "rotate": 24,
    "hurts": 24,
    "er": 192,
    "##r": 1277,
    "##led": 106,
    "hammer": 39,
    "blocks": 72,
    "transfer": 216,
    "##ties": 59,
    "un": 1161,
    "##ces": 138,
    "##sari": 14,
    "redundant": 4,
    "convenient": 63,
    "magazines": 56,
    "training": 150,
    "function": 271,
    "locked": 38,
    "actions": 177,
    "carry": 233,
    "modes": 109,
    "series": 274,
    "shot": 235,
    "revolver": 57,
    "doesn": 1045,
    "sorts": 62,
    "ammunition": 41,
    "prime": 64,
    "tie": 77,
    "somewhere": 180,
    "seconds": 109,
    "minutes": 182,
    "pound": 30,
    "open": 529,
    "slide": 55,
    "bullets": 29,
    "clearing": 19,
    "paragraph": 88,
    "semi": 139,
    "feed": 77,
    "cleared": 22,
    "fragile": 6,
    "tolerance": 24,
    "parts": 316,
    "fitting": 27,
    "blow": 62,
    "cured": 13,
    "quality": 284,
    "smith": 10,
    "##fu": 32,
    "##nction": 17,
    "rule": 178,
    "fight": 122,
    "occur": 162,
    "category": 58,
    "leaves": 60,
    "opposing": 24,
    "excellent": 187,
    "self": 337,
    "defense": 346,
    "necessary": 308,
    "needed": 324,
    "effectively": 78,
    "arm": 108,
    "cops": 69,
    "notorious": 24,
    "indifferent": 2,
    "firearms": 181,
    "department": 62,
    "train": 44,
    "issue": 532,
    "bother": 104,
    "limited": 218,
    "pick": 211,
    "fits": 62,
    "wearing": 63,
    "em": 296,
    "admit": 132,
    "often": 489,
    "fans": 136,
    "gone": 194,
    "arguing": 62,
    "missing": 152,
    "vital": 26,
    "previous": 206,
    "banned": 36,
    "baseball": 164,
    "racial": 37,
    "biased": 47,
    "basis": 218,
    "thoughts": 73,
    "affected": 54,
    "hiring": 15,
    "practices": 50,
    "criticizing": 10,
    "homosexual": 151,
    "merely": 127,
    "athlete": 3,
    "hire": 27,
    "former": 166,
    "umpire": 13,
    "admitted": 64,
    "assist": 42,
    "protest": 38,
    "game": 773,
    "thinks": 98,
    "suspended": 18,
    "hoping": 63,
    "suspension": 42,
    "##right": 16,
    "lu": 81,
    "##dic": 34,
    "##rous": 26,
    "start": 616,
    "suspend": 9,
    "athletes": 8,
    "der": 69,
    "##oga": 14,
    "##tory": 32,
    "conditions": 116,
    "remaining": 69,
    "honestly": 35,
    "truly": 114,
    "analyze": 23,
    "differences": 126,
    "bring": 218,
    "##ider": 19,
    "350": 77,
    "feature": 107,
    "83": 189,
    "47": 261,
    "##7": 1176,
    "straight": 162,
    "scored": 86,
    "ton": 17,
    "crush": 9,
    "8th": 25,
    "five": 227,
    "9th": 14,
    "pitched": 37,
    "seven": 101,
    "innings": 36,
    "took": 458,
    "part": 1063,
    "mock": 11,
    "##ery": 16,
    "bull": 69,
    "##pen": 82,
    "score": 111,
    "##less": 252,
    "75": 431,
    "lowest": 34,
    "staff": 76,
    "hitter": 80,
    "batting": 32,
    "48": 468,
    "##1": 1317,
    "hitting": 67,
    "highest": 89,
    "267": 33,
    "238": 25,
    "ou": 15,
    "stats": 110,
    "bad": 649,
    "averaging": 4,
    "giving": 198,
    "undoubtedly": 17,
    "offense": 73,
    "relief": 47,
    "pace": 18,
    "successful": 101,
    "games": 525,
    "held": 215,
    "leads": 120,
    "kept": 186,
    "deficit": 48,
    "starters": 31,
    "okay": 72,
    "alright": 8,
    "mark": 109,
    "reactivated": 1,
    "sent": 333,
    "picked": 97,
    "cancelled": 11,
    "signing": 34,
    "younger": 31,
    "handed": 77,
    "##hand": 66,
    "relieve": 20,
    "batter": 23,
    "insist": 55,
    "park": 57,
    "g": 679,
    "platoon": 15,
    "advantage": 139,
    "certain": 419,
    "vulnerable": 24,
    "postseason": 3,
    "seldom": 14,
    "jug": 6,
    "##gle": 21,
    "regular": 177,
    "season": 408,
    "regardless": 90,
    "##ies": 304,
    "tend": 157,
    "precisely": 50,
    "managers": 45,
    "inferior": 24,
    "perhaps": 320,
    "check": 496,
    "honesty": 16,
    "##ler": 90,
    "knowing": 126,
    "charge": 167,
    "fee": 78,
    "##ms": 194,
    "tool": 263,
    "##box": 51,
    "kit": 66,
    "net": 654,
    "harley": 7,
    "red": 274,
    "##neck": 20,
    "violence": 66,
    "wanna": 28,
    "travel": 66,
    "##bi": 28,
    "racers": 3,
    "movies": 35,
    "81": 241,
    "working": 489,
    "project": 213,
    "battery": 98,
    "ideas": 248,
    "benefit": 116,
    "brilliant": 15,
    "##z": 188,
    "winds": 17,
    "##creen": 6,
    "ended": 79,
    "completely": 261,
    "continues": 60,
    "suck": 57,
    "355": 28,
    "217": 36,
    "radius": 68,
    "vision": 54,
    "increases": 55,
    "1808": 14,
    "##tm": 27,
    "cl": 182,
    "ms": 169,
    "336": 23,
    "95": 264,
    "hm": 15,
    "ci": 148,
    "##um": 118,
    "##ference": 11,
    "mystery": 43,
    "grows": 18,
    "extension": 79,
    "segment": 42,
    "allocated": 30,
    "attached": 66,
    "process": 341,
    "crashes": 30,
    "following": 750,
    "invalid": 46,
    "op": 155,
    "##code": 181,
    "133": 73,
    "id": 159,
    "74": 214,
    "stream": 187,
    "checking": 86,
    "sh": 97,
    "##mg": 33,
    "##et": 205,
    "##mat": 35,
    "create": 304,
    "thread": 136,
    "soc": 40,
    "christian": 43,
    "bible": 98,
    "study": 308,
    "amazed": 25,
    "biblical": 34,
    "oppose": 31,
    "present": 301,
    "ceremonial": 33,
    "command": 282,
    "##ments": 60,
    "ten": 136,
    "portion": 75,
    "seventh": 19,
    "mean": 743,
    "##ull": 10,
    "intend": 58,
    "requirements": 96,
    "plain": 169,
    "graf": 6,
    "##ted": 399,
    "commonwealth": 3,
    "updated": 79,
    "200": 267,
    "printer": 203,
    "driver": 354,
    "wonder": 177,
    "distinguish": 38,
    "prevention": 28,
    "medicine": 86,
    "preach": 24,
    "cannot": 557,
    "assuming": 133,
    "rich": 61,
    "terminal": 83,
    "luck": 143,
    "adequately": 16,
    "covered": 123,
    "patients": 168,
    "die": 203,
    "zoo": 12,
    "##logists": 10,
    "refer": 138,
    "fe": 114,
    "##cal": 58,
    "shield": 25,
    "subsequent": 39,
    "military": 329,
    "fame": 18,
    "genocide": 152,
    "million": 297,
    "women": 326,
    "elderly": 19,
    "visit": 76,
    "1919": 32,
    "become": 368,
    "##makers": 8,
    "parties": 107,
    "##port": 30,
    "##uni": 37,
    "serving": 34,
    "lack": 187,
    "##ey": 25,
    "##cend": 21,
    "##ent": 267,
    "1920": 54,
    "wrote": 206,
    "useless": 64,
    "pretend": 34,
    "satisfactory": 17,
    "allies": 24,
    "des": 149,
    "##erving": 26,
    "sympathy": 16,
    "331": 18,
    "341": 14,
    "158": 35,
    "##28": 33,
    "donated": 9,
    "letter": 207,
    "dated": 21,
    "1943": 9,
    "states": 255,
    "volume": 114,
    "desirable": 30,
    "##sc": 177,
    "##rup": 20,
    "##ulous": 19,
    "merchants": 11,
    "##21": 57,
    "162": 27,
    "290": 25,
    "36th": 1,
    "eight": 83,
    "forcibly": 7,
    "ob": 224,
    "##ru": 104,
    "##cting": 20,
    "leaving": 91,
    "homes": 58,
    "village": 81,
    "night": 300,
    "rounding": 9,
    "inhabitants": 49,
    "unknown": 69,
    "destinations": 2,
    "further": 282,
    "statements": 123,
    "succeeded": 25,
    "escaping": 7,
    "wounded": 52,
    "massacre": 137,
    "ruins": 14,
    "openly": 22,
    "murdered": 63,
    "gathered": 38,
    "inhuman": 12,
    "##bar": 77,
    "##ous": 152,
    "committed": 139,
    "52": 197,
    "163": 36,
    "440": 18,
    "our": 1747,
    "withdrawn": 15,
    "loyal": 13,
    "us": 1685,
    "regions": 29,
    "behind": 310,
    "positions": 89,
    "facing": 23,
    "increasing": 54,
    "threat": 108,
    "suppression": 3,
    "cruel": 44,
    "abuses": 32,
    "systematically": 12,
    "##ih": 25,
    "##ila": 24,
    "occupation": 59,
    "regularly": 65,
    "informed": 47,
    "atrocities": 31,
    "gained": 28,
    "authority": 190,
    "failing": 27,
    "restoring": 9,
    "order": 732,
    "##58": 25,
    "##54": 28,
    "##85": 33,
    "noting": 17,
    "passing": 61,
    "yes": 274,
    "protect": 235,
    "privately": 21,
    "leg": 75,
    "##is": 161,
    "##late": 23,
    "needs": 326,
    "designer": 11,
    "met": 119,
    "freely": 60,
    "export": 245,
    "algorithms": 62,
    "destination": 17,
    "country": 389,
    "##aru": 4,
    "legacy": 6,
    "switches": 55,
    "sport": 81,
    "electronics": 70,
    "sets": 125,
    "switch": 221,
    "##tail": 17,
    "rev": 111,
    "##ving": 35,
    "limit": 153,
    "delayed": 23,
    "ups": 36,
    "##hi": 71,
    "briefly": 23,
    "remain": 123,
    "gear": 75,
    "handy": 39,
    "charging": 19,
    "corners": 25,
    "distraction": 10,
    "curve": 34,
    "approaching": 25,
    "throttle": 36,
    "downs": 20,
    "pedal": 38,
    "depressed": 16,
    "position": 361,
    "measure": 103,
    "wonderful": 69,
    "green": 78,
    "audi": 3,
    "senses": 40,
    "smart": 76,
    "deliver": 32,
    "dumb": 36,
    "remember": 456,
    "idea": 623,
    "economical": 15,
    "assumption": 77,
    "each": 974,
    "ridden": 13,
    "ina": 65,
    "##tten": 8,
    "cruising": 4,
    "highway": 33,
    "4th": 67,
    "con": 805,
    "##iva": 45,
    "controlled": 100,
    "scenario": 32,
    "ratio": 58,
    "combinations": 20,
    "stored": 72,
    "assumptions": 51,
    "proved": 56,
    "instant": 21,
    "##aneous": 6,
    "mp": 50,
    "##g": 739,
    "opening": 61,
    "explanation": 97,
    "sits": 18,
    "obvious": 202,
    "sight": 48,
    "squid": 15,
    "tradition": 78,
    "alive": 126,
    "fish": 38,
    "nt": 36,
    "exactly": 357,
    "##dating": 17,
    "##eti": 58,
    "adding": 61,
    "changing": 107,
    "batch": 38,
    "script": 70,
    "host": 136,
    "probe": 122,
    "04": 455,
    "01": 440,
    "upcoming": 22,
    "below": 289,
    "welcome": 118,
    "sheets": 36,
    "schedules": 13,
    "press": 220,
    "kits": 25,
    "ray": 122,
    "astronomy": 28,
    "satellite": 167,
    "area": 440,
    "wavelength": 9,
    "telescope": 23,
    "cameras": 28,
    "imaging": 36,
    "##nti": 19,
    "##llation": 5,
    "proportional": 14,
    "counters": 40,
    "atmosphere": 59,
    "joint": 44,
    "accomplish": 37,
    "exploration": 34,
    "scheduled": 45,
    "aboard": 11,
    "1997": 12,
    "gravity": 45,
    "assists": 22,
    "trajectory": 12,
    "spacecraft": 90,
    "arrive": 25,
    "2004": 5,
    "arrival": 15,
    "performs": 21,
    "maneuvers": 7,
    "achieve": 57,
    "initial": 129,
    "separates": 4,
    "descends": 4,
    "relay": 43,
    "hours": 207,
    "enters": 16,
    "traverse": 3,
    "cloudy": 3,
    "surface": 168,
    "completion": 16,
    "mission": 141,
    "touring": 6,
    "tr": 109,
    "##aj": 13,
    "##ect": 27,
    "##ories": 15,
    "allow": 327,
    "fly": 107,
    "##by": 124,
    "targeted": 14,
    "objectives": 27,
    "##fold": 13,
    "conduct": 67,
    "detailed": 88,
    "studies": 143,
    "rings": 37,
    "magnet": 22,
    "##osphere": 10,
    "satellites": 90,
    "character": 192,
    "##ize": 224,
    "intriguing": 4,
    "aspects": 88,
    "possibility": 132,
    "lakes": 6,
    "liquid": 40,
    "hydro": 10,
    "##carbon": 6,
    "result": 310,
    "photo": 77,
    "##chemical": 4,
    "processes": 50,
    "form": 367,
    "global": 74,
    "sm": 69,
    "##og": 97,
    "layer": 37,
    "rain": 39,
    "onto": 118,
    "onboard": 7,
    "radar": 113,
    "peer": 23,
    "clouds": 13,
    "determine": 153,
    "investigate": 31,
    "chemical": 46,
    "produce": 178,
    "unique": 75,
    "named": 116,
    "1625": 3,
    "1712": 1,
    "director": 105,
    "discovered": 93,
    "atmospheric": 21,
    "physicist": 27,
    "1629": 3,
    "1695": 1,
    "described": 181,
    "nature": 234,
    "06": 233,
    "97": 170,
    "98": 146,
    "99": 193,
    "00": 1323,
    "09": 132,
    "05": 214,
    "22": 443,
    "transit": 9,
    "returned": 105,
    "resolved": 18,
    "asteroid": 10,
    "##fur": 8,
    "##l": 783,
    "stuck": 71,
    "essentially": 105,
    "abandoned": 25,
    "backup": 105,
    "plan": 249,
    "loss": 165,
    "instruments": 34,
    "approximately": 55,
    "70": 406,
    "original": 497,
    "02": 345,
    "90": 423,
    "91": 313,
    "07": 129,
    "29": 299,
    "31": 308,
    "lunar": 117,
    "smaller": 113,
    "third": 340,
    "nation": 135,
    "mapping": 48,
    "mapped": 22,
    "entire": 244,
    "resolution": 126,
    "collecting": 26,
    "map": 89,
    "including": 539,
    "pixel": 99,
    "camera": 66,
    "booster": 26,
    "arriving": 13,
    "martian": 5,
    "68": 223,
    "observing": 20,
    "primary": 101,
    "objective": 188,
    "precise": 24,
    "accurate": 119,
    "observations": 63,
    "sea": 68,
    "level": 405,
    "substantially": 30,
    "ocean": 17,
    "dynamics": 18,
    "transported": 5,
    "poles": 11,
    "carries": 43,
    "particles": 24,
    "fields": 101,
    "experiments": 38,
    "##ometer": 23,
    "ion": 6,
    "electron": 15,
    "collectors": 10,
    "various": 318,
    "energy": 134,
    "ranges": 15,
    "plasma": 13,
    "wave": 79,
    "radio": 205,
    "receivers": 23,
    "etc": 1198,
    "human": 491,
    "built": 326,
    "rocket": 122,
    "##lip": 29,
    "##tic": 85,
    "plane": 90,
    "stole": 25,
    "planet": 81,
    "sliding": 20,
    "north": 59,
    "pole": 30,
    "##uve": 3,
    "bent": 20,
    "path": 124,
    "tilted": 5,
    "pass": 236,
    "ap": 111,
    "##hel": 13,
    "surprisingly": 11,
    "##eli": 20,
    "##bor": 12,
    "##hood": 44,
    "magnetic": 31,
    "radiation": 35,
    "results": 261,
    "257": 20,
    "p": 754,
    "148": 47,
    "detail": 102,
    "articles": 197,
    "note": 319,
    "posting": 602,
    "contributed": 47,
    "ya": 78,
    "##mada": 3,
    "##va": 91,
    "jp": 112,
    "attempting": 51,
    "track": 128,
    "manifest": 29,
    "corrections": 32,
    "updates": 34,
    "spring": 72,
    "field": 235,
    "sky": 54,
    "survey": 46,
    "soft": 65,
    "spectrum": 53,
    "scan": 66,
    "search": 171,
    "variations": 19,
    "emission": 2,
    "sources": 326,
    "white": 230,
    "dwarfs": 2,
    "cat": 117,
    "##sm": 214,
    "##ic": 249,
    "variable": 81,
    "stars": 61,
    "flare": 3,
    "nearby": 47,
    "objects": 134,
    "isolated": 27,
    "neutron": 22,
    "gamma": 19,
    "development": 228,
    "##physical": 3,
    "demonstrate": 47,
    "investigator": 24,
    "jj": 7,
    "##b": 843,
    "beta": 44,
    "lan": 10,
    "gov": 311,
    "wind": 54,
    "ozone": 42,
    "recovered": 25,
    "conducts": 2,
    "scientific": 203,
    "retrieved": 10,
    "1994": 46,
    "ions": 4,
    "gases": 5,
    "surrounding": 34,
    "research": 312,
    "mechanism": 99,
    "structure": 117,
    "astronomical": 16,
    "electromagnetic": 9,
    "waves": 24,
    "1995": 21,
    "crust": 6,
    "construction": 54,
    "moon": 119,
    "interior": 30,
    "observatory": 11,
    "mysteries": 11,
    "fate": 36,
    "universe": 141,
    "orbiting": 19,
    "platforms": 64,
    "science": 287,
    "planetary": 36,
    "evolution": 49,
    "characteristics": 36,
    "context": 233,
    "1999": 13,
    "element": 50,
    "flying": 51,
    "lifetime": 43,
    "observe": 30,
    "comets": 13,
    "primitive": 34,
    "bodies": 109,
    "outer": 35,
    "cosmic": 22,
    "birth": 59,
    "formation": 27,
    "galaxies": 7,
    "planets": 16,
    "distant": 18,
    "infrared": 13,
    "emi": 27,
    "##tting": 10,
    "rover": 5,
    "return": 384,
    "samples": 39,
    "dates": 39,
    "1996": 12,
    "2001": 23,
    "2003": 10,
    "2005": 4,
    "split": 95,
    "components": 92,
    "journey": 19,
    "measurements": 27,
    "star": 91,
    "vapor": 16,
    "intense": 21,
    "towards": 147,
    "reaching": 30,
    "tiny": 40,
    "2016": 1,
    "##ters": 75,
    "sites": 221,
    "projects": 88,
    "plans": 79,
    "electrical": 79,
    "terms": 213,
    "automated": 23,
    "testing": 86,
    "events": 217,
    "verification": 26,
    "test": 366,
    "procedures": 53,
    "##run": 18,
    "regression": 7,
    "sharing": 39,
    "windows": 447,
    "answers": 236,
    "playback": 11,
    "##tens": 12,
    "##tion": 240,
    "lc": 116,
    "mit": 255,
    "##tri": 249,
    "tar": 273,
    "require": 253,
    "servers": 111,
    "vendor": 62,
    "extensions": 46,
    "modify": 68,
    "##fer": 70,
    "##cing": 48,
    "easy": 333,
    "notice": 141,
    "340": 32,
    "versions": 176,
    "internal": 216,
    "portable": 69,
    "cds": 3,
    "trades": 17,
    "automobile": 35,
    "partially": 25,
    "responsible": 158,
    "##ple": 43,
    "innocent": 121,
    "otto": 1,
    "guilty": 96,
    "infinity": 9,
    "mathematical": 57,
    "concept": 144,
    "humans": 120,
    "explain": 241,
    "applies": 77,
    "reality": 156,
    "continuous": 30,
    "concepts": 28,
    "evolved": 15,
    "bran": 8,
    "##stad": 4,
    "walker": 5,
    "h": 398,
    "rs": 49,
    "intern": 12,
    "dom": 14,
    "306": 19,
    "##38": 66,
    "301": 64,
    "dave": 30,
    "192": 68,
    "33": 340,
    "112": 67,
    "49": 271,
    "dock": 15,
    "##master": 18,
    "infamous": 13,
    "scope": 86,
    "expand": 53,
    "##lde": 3,
    "nations": 86,
    "boys": 37,
    "blue": 120,
    "def": 147,
    "##inate": 54,
    "describes": 69,
    "origin": 74,
    "im": 233,
    "ce": 114,
    "##lb": 24,
    "##ration": 36,
    "joy": 71,
    "peace": 204,
    "trip": 111,
    "##ping": 106,
    "peaceful": 31,
    "solutions": 53,
    "lying": 73,
    "sacred": 30,
    "cow": 10,
    "slam": 11,
    "##min": 42,
    "jaw": 7,
    "##bone": 1,
    "ass": 130,
    "kill": 312,
    "reduce": 114,
    "deaths": 87,
    "minor": 122,
    "observation": 55,
    "pure": 65,
    "act": 232,
    "meaning": 228,
    "religious": 300,
    "teaching": 81,
    "inspired": 32,
    "hatred": 46,
    "leaders": 120,
    "stomach": 37,
    "contents": 64,
    "##than": 5,
    "unpleasant": 10,
    "spontaneously": 6,
    "groups": 408,
    "blood": 234,
    "##iest": 10,
    "pre": 471,
    "typically": 84,
    "ideological": 17,
    "social": 146,
    "caste": 5,
    "organize": 15,
    "spread": 86,
    "beliefs": 178,
    "##use": 56,
    "##eo": 19,
    "##logies": 8,
    "persecution": 46,
    "namely": 35,
    "entirely": 160,
    "belief": 244,
    "examples": 116,
    "wars": 63,
    "specifically": 145,
    "fought": 24,
    "choices": 54,
    "flames": 56,
    "heating": 19,
    "bottom": 119,
    "silver": 37,
    "butter": 5,
    "dishes": 9,
    "cia": 8,
    "mattress": 5,
    "maintained": 57,
    "located": 82,
    "352": 11,
    "324": 20,
    "##53": 44,
    "##sh": 81,
    "pa": 37,
    "amherst": 3,
    "clown": 11,
    "chiefs": 6,
    "ring": 63,
    "##leader": 4,
    "bands": 37,
    "destroyed": 90,
    "villages": 124,
    "staged": 18,
    "expecting": 29,
    "1934": 23,
    "73": 209,
    "pages": 140,
    "fighters": 20,
    "sprang": 2,
    "among": 343,
    "struck": 38,
    "terror": 27,
    "hearts": 30,
    "began": 127,
    "guerrilla": 6,
    "forces": 131,
    "operating": 106,
    "coordination": 5,
    "savage": 16,
    "cities": 118,
    "east": 44,
    "mercy": 26,
    "sabotage": 7,
    "army": 126,
    "destroying": 27,
    "roads": 55,
    "bridges": 8,
    "raiding": 2,
    "caravan": 4,
    "ease": 27,
    "volunteer": 29,
    "accompanying": 17,
    "commanders": 8,
    "themselves": 392,
    "compelled": 22,
    "withdraw": 33,
    "fighting": 110,
    "fronts": 8,
    "rear": 101,
    "guard": 40,
    "duties": 23,
    "memoirs": 5,
    "officers": 91,
    "served": 74,
    "filled": 71,
    "accounts": 76,
    "revolt": 26,
    "guerrillas": 3,
    "relatively": 104,
    "standards": 161,
    "observed": 41,
    "areas": 195,
    "du": 79,
    "honored": 9,
    "rep": 258,
    "##rod": 18,
    "##uc": 196,
    "text": 362,
    "produced": 111,
    "documents": 97,
    "asks": 45,
    "views": 125,
    "debate": 88,
    "hundred": 116,
    "threads": 28,
    "charges": 61,
    "spur": 22,
    "##ious": 48,
    "evidence": 538,
    "fascist": 47,
    "existent": 24,
    "scholars": 50,
    "mor": 49,
    "##onia": 2,
    "ensuing": 12,
    "1914": 53,
    "prem": 14,
    "##itated": 7,
    "systematic": 12,
    "centuries": 52,
    "##ilation": 9,
    "murdering": 19,
    "homeland": 45,
    "none": 187,
    "##vers": 47,
    "responding": 47,
    "bullshit": 33,
    "regarded": 35,
    "instance": 144,
    "20th": 33,
    "acted": 20,
    "upon": 310,
    "nearly": 126,
    "thousand": 88,
    "oppressive": 10,
    "culminated": 8,
    "planned": 82,
    "carried": 127,
    "subjects": 54,
    "remainder": 21,
    "lands": 50,
    "empty": 72,
    "survivors": 26,
    "heaven": 116,
    "rejects": 10,
    "occupied": 84,
    "##pet": 58,
    "##rated": 59,
    "predecessors": 10,
    "accessory": 9,
    "crime": 297,
    "admitting": 16,
    "##arat": 20,
    "##ions": 49,
    "assert": 51,
    "event": 234,
    "##ont": 12,
    "##rove": 25,
    "##rti": 41,
    "proven": 87,
    "international": 132,
    "political": 259,
    "anxiously": 3,
    "awaiting": 15,
    "lee": 25,
    "mon": 46,
    "birthday": 18,
    "weeks": 270,
    "blooded": 18,
    "collaboration": 28,
    "fail": 100,
    "challenge": 55,
    "western": 59,
    "1928": 8,
    "pp": 240,
    "268": 31,
    "minority": 104,
    "recalls": 7,
    "##ode": 41,
    "fan": 187,
    "##atic": 63,
    "expelled": 14,
    "tran": 35,
    "##quil": 17,
    "##ity": 329,
    "liberty": 43,
    "fellow": 64,
    "exposed": 40,
    "alike": 30,
    "rap": 27,
    "rulers": 15,
    "brought": 203,
    "foreign": 93,
    "missionary": 9,
    "demonstration": 43,
    "influence": 51,
    "tragedy": 33,
    "combined": 45,
    "aspirations": 8,
    "separation": 43,
    "treason": 10,
    "reaches": 15,
    "fortunate": 9,
    "traitor": 5,
    "##ously": 19,
    "invade": 24,
    "boasted": 6,
    "raised": 103,
    "fifty": 24,
    "civil": 162,
    "burned": 97,
    "##minated": 29,
    "culture": 115,
    "greek": 22,
    "##sp": 191,
    "##uting": 14,
    "joke": 68,
    "scholar": 22,
    "invading": 19,
    "armies": 18,
    "1975": 39,
    "1977": 38,
    "315": 24,
    "316": 43,
    "1915": 42,
    "organized": 101,
    "whose": 202,
    "78": 204,
    "comprised": 14,
    "percent": 130,
    "closest": 30,
    "volunteers": 22,
    "slaughter": 54,
    "garrison": 4,
    "retreat": 24,
    "southern": 37,
    "lake": 16,
    "justify": 80,
    "territorial": 26,
    "ambitions": 7,
    "fulfillment": 20,
    "aims": 8,
    "regard": 97,
    "beginning": 164,
    "decision": 170,
    "revolutionary": 18,
    "organizations": 128,
    "refuse": 54,
    "state": 676,
    "participation": 34,
    "rewarded": 17,
    "independent": 155,
    "carved": 4,
    "territories": 43,
    "soldiers": 174,
    "desert": 31,
    "drove": 48,
    "invasion": 35,
    "eastern": 32,
    "degree": 110,
    "enemy": 41,
    "increased": 117,
    "drastically": 13,
    "gu": 77,
    "##eri": 48,
    "revolutionaries": 9,
    "armed": 113,
    "populations": 11,
    "province": 33,
    "anticipation": 5,
    "1979": 46,
    "314": 13,
    "317": 12,
    "cooperation": 50,
    "president": 77,
    "declaring": 11,
    "countries": 188,
    "hurrying": 3,
    "enter": 110,
    "ranks": 17,
    "glorious": 11,
    "victory": 48,
    "arms": 178,
    "flag": 67,
    "peoples": 31,
    "yo": 70,
    "receive": 175,
    "freedom": 168,
    "suffered": 63,
    "faith": 394,
    "resurrection": 60,
    "155": 41,
    "flooded": 8,
    "c": 540,
    "##zar": 10,
    "strike": 51,
    "confident": 25,
    "248": 30,
    "46": 297,
    "##42": 47,
    "220": 65,
    "morale": 3,
    "hurt": 111,
    "accompanied": 19,
    "sultan": 4,
    "156": 25,
    "380": 26,
    "1953": 12,
    "251": 23,
    "277": 25,
    "vols": 5,
    "1951": 8,
    "214": 51,
    "##40": 85,
    "nos": 19,
    "natives": 10,
    "dead": 336,
    "oldest": 16,
    "centers": 55,
    "ancient": 65,
    "civilization": 22,
    "legion": 5,
    "##pel": 27,
    "shore": 12,
    "preparation": 19,
    "concert": 16,
    "vila": 7,
    "##ye": 14,
    "flood": 19,
    "mid": 111,
    "crowded": 6,
    "crisis": 41,
    "housed": 11,
    "56": 221,
    "127": 60,
    "##22": 56,
    "58": 226,
    "debates": 9,
    "175": 37,
    "321": 28,
    "gives": 224,
    "thunder": 9,
    "pseudo": 45,
    "jokes": 23,
    "cola": 3,
    "##ation": 174,
    "comment": 189,
    "screwed": 42,
    "1941": 10,
    "assembled": 45,
    "doom": 15,
    "formed": 50,
    "battalion": 5,
    "alongside": 5,
    "grown": 25,
    "battalions": 6,
    "leader": 82,
    "butcher": 17,
    "dictator": 10,
    "1918": 32,
    "architect": 9,
    "recognized": 65,
    "##ily": 36,
    "provisional": 3,
    "endorsed": 20,
    "##po": 51,
    "##used": 21,
    "fully": 156,
    "principles": 62,
    "declared": 32,
    "super": 144,
    "race": 131,
    "participants": 38,
    "##mina": 54,
    "conspiracy": 42,
    "encore": 2,
    "stabbed": 14,
    "col": 125,
    "##lu": 98,
    "##ding": 127,
    "dictatorship": 15,
    "granted": 63,
    "##pit": 17,
    "defeat": 30,
    "signed": 73,
    "adjoining": 4,
    "##atics": 17,
    "excluded": 12,
    "quickly": 153,
    "##sar": 56,
    "19": 504,
    "civilian": 78,
    "withdrew": 8,
    "census": 5,
    "shown": 146,
    "##med": 85,
    "mountains": 46,
    "exact": 137,
    "replica": 16,
    "occurred": 71,
    "earlier": 177,
    "pill": 26,
    "west": 43,
    "afforded": 4,
    "scene": 30,
    "squads": 10,
    "soldier": 25,
    "assigned": 27,
    "supervise": 5,
    "##mament": 4,
    "occurring": 9,
    "wired": 23,
    "superiors": 3,
    "troops": 112,
    "discipline": 25,
    "constantly": 46,
    "headquarters": 20,
    "appealed": 7,
    "mess": 64,
    "109": 78,
    "103": 113,
    "143": 46,
    "gangs": 26,
    "##flict": 23,
    "region": 94,
    "verified": 21,
    "supported": 173,
    "reliable": 96,
    "eye": 148,
    "##wi": 49,
    "##tness": 10,
    "confirmed": 48,
    "entering": 57,
    "evacuated": 11,
    "carrying": 102,
    "murders": 35,
    "rape": 53,
    "expressed": 52,
    "aged": 33,
    "street": 111,
    "repeated": 68,
    "methods": 136,
    "urged": 6,
    "intervene": 16,
    "terminate": 5,
    "appalled": 6,
    "horrified": 4,
    "describing": 48,
    "happening": 112,
    "shocking": 7,
    "urgently": 2,
    "294": 14,
    "62": 205,
    "beautiful": 45,
    "cal": 78,
    "##ami": 13,
    "specially": 28,
    "private": 343,
    "buildings": 42,
    "deliberately": 32,
    "burnt": 23,
    "apart": 81,
    "barracks": 5,
    "cavalry": 1,
    "trees": 26,
    "rounded": 10,
    "direction": 137,
    "murder": 135,
    "withdrawal": 17,
    "corpses": 29,
    "thrown": 60,
    "wells": 12,
    "houses": 81,
    "mu": 145,
    "##tila": 12,
    "bay": 50,
    "##one": 67,
    "abdomen": 6,
    "##houses": 2,
    "lungs": 13,
    "liver": 23,
    "girls": 42,
    "hung": 34,
    "kinds": 101,
    "devil": 29,
    "##ish": 58,
    "survive": 46,
    "poverty": 23,
    "insane": 21,
    "hungry": 13,
    "##lt": 42,
    "##ivated": 3,
    "provisions": 17,
    "stores": 39,
    "leveled": 3,
    "stone": 44,
    "submit": 93,
    "deep": 98,
    "grief": 15,
    "regret": 22,
    "witnessed": 26,
    "dimensions": 27,
    "##bution": 8,
    "forum": 62,
    "discussions": 96,
    "shoot": 67,
    "van": 65,
    "##dal": 23,
    "realizes": 10,
    "limits": 71,
    "punishment": 87,
    "fit": 196,
    "harmless": 11,
    "prank": 6,
    "punk": 4,
    "setting": 164,
    "alarms": 14,
    "taunting": 3,
    "ugly": 31,
    "potentially": 31,
    "wet": 38,
    "##ca": 90,
    "fairly": 180,
    "camping": 11,
    "home": 548,
    "heavy": 127,
    "duty": 80,
    "vol": 101,
    "regulator": 11,
    "##v": 380,
    "batteries": 42,
    "alternative": 125,
    "hooked": 22,
    "##vd": 4,
    "110": 130,
    "##vac": 6,
    "convert": 310,
    "vo": 54,
    "la": 84,
    "keeps": 70,
    "trips": 31,
    "installing": 46,
    "drain": 29,
    "valve": 40,
    "bolt": 26,
    "210": 64,
    "plug": 164,
    "mother": 324,
    "##board": 185,
    "shouldn": 151,
    "troubles": 25,
    "slower": 76,
    "recommended": 76,
    "ie": 153,
    "meg": 155,
    "bank": 74,
    "recommend": 124,
    "mixing": 21,
    "rd": 18,
    "##eson": 1,
    "##ia": 88,
    "##im": 77,
    "hal": 28,
    "arbor": 9,
    "mi": 37,
    "313": 29,
    "66": 278,
    "417": 19,
    "395": 20,
    "quick": 139,
    "dirty": 37,
    "current": 591,
    "capacity": 65,
    "traces": 13,
    "boards": 101,
    "strip": 55,
    "wiring": 117,
    "cable": 236,
    "copper": 29,
    "trace": 85,
    "bars": 41,
    "stamped": 11,
    "insert": 71,
    "suppose": 135,
    "becomes": 133,
    "shack": 8,
    "key": 1228,
    "##ti": 143,
    "##fully": 30,
    "register": 55,
    "prevent": 190,
    "swap": 109,
    "phones": 92,
    "friend": 292,
    "garage": 41,
    "sale": 254,
    "secret": 220,
    "keys": 470,
    "became": 161,
    "##sy": 85,
    "##nch": 24,
    "##ron": 71,
    "listen": 112,
    "##bbled": 15,
    "goo": 25,
    "conjecture": 5,
    "secure": 240,
    "master": 91,
    "registering": 13,
    "positively": 15,
    "attention": 138,
    "maintenance": 33,
    "clutches": 1,
    "tires": 91,
    "eats": 11,
    "align": 9,
    "##rut": 12,
    "started": 462,
    "leaking": 7,
    "wipe": 20,
    "motor": 103,
    "timing": 73,
    "belts": 20,
    "signals": 72,
    "rod": 16,
    "bearing": 30,
    "piston": 10,
    "damaging": 17,
    "crank": 21,
    "##shaft": 5,
    "##tam": 43,
    "##inating": 19,
    "overhaul": 5,
    "cam": 48,
    "shaft": 41,
    "shattered": 5,
    "mill": 52,
    "national": 188,
    "87": 164,
    "expensive": 178,
    "screen": 435,
    "rows": 37,
    "enable": 60,
    "individuals": 123,
    "efficiently": 17,
    "responses": 107,
    "variety": 116,
    "lock": 112,
    "period": 453,
    "rendered": 21,
    "locking": 12,
    "ultra": 27,
    "video": 402,
    "segments": 27,
    "adjusting": 10,
    "##xi": 35,
    "##stan": 30,
    "utilities": 81,
    "sy": 209,
    "##ec": 180,
    "default": 234,
    "manager": 228,
    "##sa": 134,
    "##bling": 40,
    "dashboard": 5,
    "minimal": 58,
    "exclusion": 15,
    "locks": 36,
    "mouse": 248,
    "except": 356,
    "##finger": 1,
    "salute": 2,
    "reset": 48,
    "tom": 29,
    "##ham": 9,
    "bin": 135,
    "##ah": 25,
    "cc": 190,
    "brand": 104,
    "##eis": 8,
    "laws": 316,
    "ruling": 32,
    "schools": 69,
    "sunni": 1,
    "##ffa": 2,
    "##ri": 110,
    "muslim": 15,
    "muslims": 20,
    "dar": 22,
    "islam": 12,
    "##osta": 35,
    "persistent": 15,
    "hostility": 16,
    "falls": 43,
    "historically": 18,
    "punished": 31,
    "alone": 204,
    "death": 345,
    "penalty": 110,
    "##ending": 21,
    "novel": 38,
    "precedent": 22,
    "##ith": 17,
    "ind": 149,
    "##cr": 320,
    "##nant": 7,
    "##ling": 140,
    "penalties": 44,
    "domain": 123,
    "reward": 34,
    "thrust": 37,
    "fat": 64,
    "##wa": 43,
    "author": 248,
    "assisted": 17,
    "publication": 71,
    "encompass": 8,
    "lesser": 20,
    "diplomatic": 14,
    "relations": 47,
    "broke": 78,
    "stressed": 12,
    "condemnation": 18,
    "removal": 22,
    "circulation": 9,
    "preliminary": 15,
    "resolving": 6,
    "banning": 20,
    "main": 323,
    "books": 300,
    "followed": 143,
    "iss": 9,
    "##uance": 5,
    "media": 213,
    "blitz": 1,
    "knight": 4,
    "guarding": 3,
    "secular": 63,
    "democracy": 42,
    "mocking": 3,
    "foolish": 33,
    "concerns": 56,
    "crazy": 63,
    "milk": 25,
    "controversy": 14,
    "boost": 36,
    "everywhere": 57,
    "demonstrators": 5,
    "protesting": 11,
    "momentarily": 5,
    "concerned": 159,
    "climbed": 7,
    "horse": 37,
    "once": 472,
    "defend": 97,
    "rights": 406,
    "issued": 65,
    "contribute": 44,
    "##iti": 30,
    "##mi": 73,
    "##zation": 43,
    "remains": 76,
    "##ep": 68,
    "##end": 67,
    "##ant": 118,
    "publishers": 6,
    "encompasses": 4,
    "progress": 53,
    "levels": 127,
    "watched": 56,
    "confrontation": 13,
    "banners": 5,
    "fire": 331,
    "watch": 174,
    "unable": 87,
    "coming": 301,
    "apocalypse": 7,
    "predict": 55,
    "release": 214,
    "rational": 110,
    "biennial": 2,
    "conference": 134,
    "opportunity": 98,
    "persons": 93,
    "digital": 132,
    "processing": 149,
    "pattern": 55,
    "recognition": 32,
    "contemporary": 15,
    "developments": 18,
    "exchange": 81,
    "establish": 65,
    "contacts": 52,
    "share": 241,
    "details": 284,
    "others": 687,
    "invited": 38,
    "speakers": 38,
    "specialised": 1,
    "presentations": 26,
    "concentrate": 28,
    "logic": 178,
    "sought": 30,
    "proceedings": 44,
    "review": 120,
    "consist": 24,
    "extended": 76,
    "abstract": 29,
    "750": 80,
    "doubled": 11,
    "spaced": 8,
    "paper": 210,
    "papers": 116,
    "illustrations": 4,
    "copies": 162,
    "211": 36,
    "25th": 19,
    "notified": 6,
    "27th": 13,
    "15th": 12,
    "dinner": 23,
    "arranged": 29,
    "harbour": 3,
    "varied": 14,
    "landmarks": 3,
    "cruises": 1,
    "tours": 9,
    "min": 53,
    "walking": 50,
    "ranging": 20,
    "college": 75,
    "facilities": 66,
    "supplied": 53,
    "30th": 10,
    "280": 51,
    "member": 172,
    "accommodation": 1,
    "##cl": 157,
    "##ose": 32,
    "che": 35,
    "##ques": 5,
    "330": 24,
    "239": 15,
    "##cta": 51,
    "ee": 85,
    "ut": 130,
    "au": 168,
    "##de": 156,
    "peers": 8,
    "16th": 14,
    "##19": 31,
    "272": 18,
    "directory": 341,
    "yours": 101,
    "gruff": 1,
    "characteristic": 24,
    "inline": 10,
    "balance": 51,
    "shafts": 11,
    "toyota": 6,
    "bra": 21,
    "flash": 32,
    "styling": 6,
    "automatically": 86,
    "cross": 228,
    "consideration": 92,
    "recommendation": 13,
    "larger": 129,
    "liter": 27,
    "thumb": 37,
    "halfway": 8,
    "decent": 123,
    "noise": 102,
    "aware": 161,
    "notes": 83,
    "basic": 215,
    "recommendations": 38,
    "noted": 123,
    "violate": 42,
    "##edance": 20,
    "reflections": 8,
    "chasing": 9,
    "##loading": 11,
    "hitch": 6,
    "encountered": 24,
    "port": 286,
    "gotten": 125,
    "ct": 49,
    "##rl": 34,
    "##test": 18,
    "app": 286,
    "static": 53,
    "accessed": 22,
    "draw": 184,
    "menu": 132,
    "section": 356,
    "pieces": 71,
    "fine": 364,
    "##cha": 47,
    "coded": 14,
    "fc": 8,
    "##nt": 218,
    "differ": 47,
    "collection": 106,
    "depend": 67,
    "object": 204,
    "derived": 48,
    "addressed": 49,
    "##ype": 26,
    "compiler": 84,
    "attempts": 87,
    "reads": 54,
    "tri": 86,
    "##ang": 22,
    "##ulates": 18,
    "##vel": 20,
    "##izes": 32,
    "##tr": 43,
    "##udes": 13,
    "generic": 40,
    "3d": 46,
    "f": 420,
    "algorithm": 260,
    "arbitrary": 54,
    "poly": 112,
    "##gonal": 1,
    "shape": 92,
    "convex": 14,
    "hull": 11,
    "##au": 34,
    "##nay": 1,
    "bart": 3,
    "##man": 173,
    "##made": 3,
    "variation": 22,
    "height": 91,
    "##fields": 1,
    "b": 470,
    "picture": 159,
    "preview": 40,
    "##field": 35,
    "black": 264,
    "backside": 1,
    "mirror": 73,
    "compound": 104,
    "union": 16,
    "scale": 129,
    "texture": 18,
    "translate": 20,
    "center": 183,
    "upwards": 4,
    "thicker": 7,
    "placement": 11,
    "256": 203,
    "plays": 61,
    "##uld": 8,
    "helmet": 87,
    "cage": 53,
    "wore": 8,
    "thirteen": 4,
    "experiment": 63,
    "##51": 75,
    "family": 270,
    "##pi": 104,
    "##lier": 6,
    "assemble": 32,
    "processor": 108,
    "260": 45,
    "th": 85,
    "pin": 217,
    "outs": 38,
    "##hema": 20,
    "##tics": 27,
    "##or": 268,
    "tan": 29,
    "chips": 286,
    "rt": 62,
    "##he": 68,
    "prop": 151,
    "##re": 380,
    "##ita": 43,
    "##pon": 50,
    "##fo": 94,
    "fig": 8,
    "imagination": 30,
    "1939": 14,
    "historical": 99,
    "forgotten": 30,
    "concealed": 47,
    "wiped": 16,
    "##est": 129,
    "definite": 37,
    "proof": 170,
    "published": 217,
    "1938": 9,
    "1944": 14,
    "implies": 48,
    "declaration": 19,
    "proves": 34,
    "documentary": 28,
    "heap": 13,
    "##mon": 26,
    "##ition": 21,
    "economic": 135,
    "thus": 220,
    "partners": 38,
    "whole": 557,
    "awaited": 5,
    "##fell": 4,
    "refreshing": 11,
    "cycles": 34,
    "hog": 17,
    "derivatives": 6,
    "buffer": 141,
    "dynamic": 44,
    "ram": 68,
    "ref": 147,
    "##resh": 47,
    "banging": 4,
    "##while": 29,
    "crashing": 15,
    "##vin": 19,
    "package": 498,
    "crash": 66,
    "consistently": 30,
    "reproduce": 18,
    "closing": 33,
    "boot": 143,
    "background": 157,
    "##25": 85,
    "ran": 157,
    "weekends": 6,
    "123": 51,
    "edge": 125,
    "spa": 42,
    "##rate": 28,
    "par": 117,
    "##card": 26,
    "##boot": 44,
    "button": 108,
    "alt": 200,
    "fl": 54,
    "##ak": 30,
    "##ucible": 5,
    "spp": 5,
    "##ace": 39,
    "annoying": 52,
    "diagnostic": 28,
    "tools": 199,
    "manage": 46,
    "##di": 94,
    "users": 333,
    "hits": 60,
    "##fin": 36,
    "melt": 13,
    "hole": 112,
    "pod": 13,
    "tricky": 21,
    "##car": 18,
    "dog": 143,
    "##ggles": 5,
    "225": 52,
    "13": 670,
    "alerted": 1,
    "services": 134,
    "weight": 145,
    "demographics": 8,
    "letters": 88,
    "closure": 18,
    "commission": 15,
    "86": 307,
    "constituencies": 5,
    "chairman": 7,
    "charged": 38,
    "developers": 37,
    "ignored": 55,
    "particularly": 179,
    "prior": 108,
    "personnel": 47,
    "executive": 35,
    "suggested": 111,
    "concern": 77,
    "plausible": 29,
    "intentionally": 27,
    "fore": 70,
    "remove": 115,
    "convincing": 43,
    "demographic": 10,
    "approval": 39,
    "installations": 27,
    "significant": 151,
    "impact": 105,
    "community": 204,
    "cumulative": 3,
    "percentage": 78,
    "reminded": 18,
    "supports": 198,
    "thesis": 17,
    "substantial": 46,
    "role": 149,
    "1960s": 13,
    "480": 40,
    "approved": 70,
    "include": 544,
    "four": 339,
    "dial": 96,
    "##backs": 28,
    "buttons": 42,
    "##dgets": 130,
    "##back": 66,
    "routines": 111,
    "flow": 76,
    "neatly": 9,
    "status": 127,
    "actual": 174,
    "coding": 29,
    "physical": 202,
    "direct": 161,
    "##ents": 25,
    "beings": 60,
    "wives": 22,
    "sisters": 15,
    "daughters": 17,
    "beg": 40,
    "##at": 74,
    "sons": 30,
    "capture": 43,
    "formats": 138,
    "twelve": 21,
    "selling": 137,
    "publishing": 14,
    "v": 313,
    "125": 94,
    "195": 25,
    "documentation": 132,
    "approach": 210,
    "latest": 170,
    "circulating": 8,
    "cheaper": 117,
    "alternatives": 44,
    "59": 222,
    "291": 15,
    "disc": 199,
    "##lai": 60,
    "hp": 107,
    "##cc": 173,
    "##01": 318,
    "motorcycles": 62,
    "##pre": 66,
    "##cia": 39,
    "##tes": 80,
    "##mers": 21,
    "apply": 186,
    "84": 189,
    "traps": 18,
    "according": 192,
    "227": 41,
    "##dome": 25,
    "450": 47,
    "650": 56,
    "77": 218,
    "##ciation": 5,
    "holding": 90,
    "value": 412,
    "knocks": 5,
    "released": 129,
    "wife": 185,
    "##eca": 5,
    "##13": 77,
    "##har": 28,
    "corp": 14,
    "arrest": 43,
    "sometime": 41,
    "neutral": 143,
    "reporters": 24,
    "assertion": 70,
    "fabrication": 18,
    "ii": 17,
    "document": 141,
    "##pic": 21,
    "piece": 154,
    "teach": 72,
    "##tra": 138,
    "accusation": 12,
    "liar": 56,
    "apologize": 43,
    "hang": 41,
    "functions": 202,
    "intuitive": 16,
    "fashion": 44,
    "strides": 4,
    "54": 249,
    "##60": 113,
    "setup": 121,
    "repetitive": 14,
    "##forms": 8,
    "complex": 117,
    "measuring": 16,
    "equivalent": 119,
    "sampling": 34,
    "slowly": 41,
    "delay": 45,
    "trigger": 48,
    "sweep": 27,
    "massage": 18,
    "##con": 156,
    "##ception": 17,
    "sample": 116,
    "significance": 36,
    "##form": 44,
    "transient": 11,
    "variables": 37,
    "useful": 268,
    "analog": 62,
    "storage": 78,
    "comparison": 101,
    "205": 59,
    "730": 25,
    "117": 79,
    "##30": 140,
    "ing": 86,
    "##une": 130,
    "hello": 5,
    "##itors": 18,
    "inside": 227,
    "##os": 182,
    "pad": 66,
    "oxide": 6,
    "breakdown": 17,
    "reinforcement": 5,
    "boxes": 104,
    "##balance": 14,
    "jack": 50,
    "balanced": 41,
    "transformers": 10,
    "yourself": 272,
    "music": 85,
    "sells": 58,
    "hear": 323,
    "generated": 81,
    "cables": 48,
    "component": 46,
    "inputs": 44,
    "sorry": 140,
    "genoa": 2,
    "##mb": 59,
    "costs": 185,
    "pair": 80,
    "married": 73,
    "##block": 5,
    "permanent": 65,
    "marriage": 84,
    "certificate": 4,
    "force": 306,
    "break": 244,
    "excuse": 103,
    "prom": 47,
    "poster": 96,
    "purposes": 133,
    "##ib": 76,
    "possibilities": 32,
    "volta": 1,
    "##meter": 11,
    "connect": 115,
    "collect": 45,
    "communications": 170,
    "devices": 213,
    "parallel": 106,
    "nah": 3,
    "##ering": 31,
    "eta": 5,
    "finest": 8,
    "costly": 15,
    "divide": 35,
    "##ors": 71,
    "cheap": 216,
    "cd": 81,
    "rom": 28,
    "device": 282,
    "everything": 440,
    "slots": 63,
    "slot": 109,
    "hasn": 114,
    "smiley": 20,
    "##pro": 114,
    "##sor": 76,
    "smarter": 2,
    "holiday": 8,
    "floating": 34,
    "happens": 205,
    "##mer": 76,
    "relevant": 121,
    "honest": 80,
    "learned": 97,
    "contrary": 84,
    "verse": 58,
    "capable": 134,
    "talking": 352,
    "muscle": 39,
    "pain": 208,
    "arthritis": 5,
    "disagree": 136,
    "cares": 48,
    "commercial": 242,
    "geo": 59,
    "##vern": 7,
    "university": 60,
    "##gh": 34,
    "##way": 38,
    "tells": 133,
    "##ride": 22,
    "##ire": 36,
    "##bell": 4,
    "##ishment": 6,
    "accept": 280,
    "choice": 236,
    "location": 102,
    "##w": 494,
    "tv": 53,
    "mw": 26,
    "##co": 120,
    "##oper": 17,
    "##ative": 45,
    "shadow": 34,
    "block": 187,
    "sunlight": 15,
    "expect": 309,
    "heart": 164,
    "quit": 49,
    "reader": 53,
    "business": 302,
    "trash": 56,
    "improper": 17,
    "messages": 170,
    "placed": 101,
    "##hei": 185,
    "realizing": 13,
    "apologized": 10,
    "snoop": 12,
    "pray": 62,
    "bash": 29,
    "heads": 111,
    "revolution": 39,
    "quo": 17,
    "blunt": 9,
    "reject": 73,
    "female": 50,
    "wealth": 28,
    "contributions": 43,
    "society": 217,
    "kitchen": 22,
    "forward": 185,
    "slave": 73,
    "mental": 46,
    "exists": 220,
    "aspect": 50,
    "est": 36,
    "##abi": 4,
    "##shed": 11,
    "church": 244,
    "##yp": 317,
    "##oc": 114,
    "##ric": 30,
    "praise": 27,
    "raise": 83,
    "comfortable": 45,
    "anytime": 19,
    "soon": 322,
    "##js": 19,
    "technique": 71,
    "##tee": 56,
    "ka": 57,
    "##rr": 53,
    "instructors": 9,
    "rider": 44,
    "whichever": 15,
    "wanted": 378,
    "shifting": 19,
    "operator": 43,
    "experienced": 71,
    "extremely": 106,
    "tension": 39,
    "screw": 91,
    "steady": 18,
    "lean": 28,
    "##rest": 29,
    "riding": 106,
    "shift": 78,
    "lo": 79,
    "behold": 7,
    "sans": 5,
    "touching": 12,
    "normally": 119,
    "associated": 125,
    "totally": 152,
    "unconscious": 6,
    "normal": 286,
    "circumstances": 75,
    "stretch": 45,
    "argue": 136,
    "properly": 156,
    "manipulate": 22,
    "72": 231,
    "recent": 220,
    "offers": 172,
    "para": 93,
    "##rase": 46,
    "loved": 39,
    "eternal": 155,
    "doctrine": 92,
    "intends": 17,
    "af": 65,
    "##firm": 21,
    "substitution": 18,
    "forensic": 10,
    "penal": 13,
    "speaking": 105,
    "pursuing": 27,
    "essays": 4,
    "essay": 7,
    "##lty": 20,
    "##bra": 15,
    "##se": 202,
    "enjoy": 72,
    "overall": 85,
    "motives": 25,
    "##sio": 2,
    "##ino": 14,
    "ace": 18,
    "savior": 9,
    "fantastic": 16,
    "ev": 23,
    "##ver": 68,
    "dreamed": 5,
    "reconcile": 17,
    "apparent": 66,
    "contradiction": 71,
    "minds": 68,
    "ignores": 12,
    "nervous": 20,
    "threatened": 43,
    "presents": 21,
    "fade": 14,
    "encounters": 9,
    "formerly": 46,
    "dogs": 55,
    "##itte": 8,
    "scared": 29,
    "aggressive": 26,
    "staying": 28,
    "sitting": 90,
    "cleaning": 32,
    "backed": 40,
    "hike": 7,
    "afraid": 115,
    "##unt": 32,
    "taught": 77,
    "sweaty": 2,
    "holster": 10,
    "trail": 11,
    "dust": 43,
    "advisors": 5,
    "grunt": 6,
    "heresy": 23,
    "woods": 15,
    "scrutiny": 19,
    "solve": 88,
    "solitude": 1,
    "prominently": 4,
    "hiding": 34,
    "##mm": 81,
    "hip": 16,
    "mixed": 43,
    "pouch": 7,
    "canteen": 1,
    "knives": 31,
    "compass": 6,
    "chance": 236,
    "visible": 97,
    "quietly": 17,
    "planning": 76,
    "##ivating": 3,
    "bringing": 39,
    "childish": 11,
    "##kes": 36,
    "wheeler": 2,
    "##ase": 19,
    "written": 371,
    "windshield": 13,
    "biker": 30,
    "participate": 60,
    "discussion": 351,
    "topic": 110,
    "insignificant": 9,
    "statement": 318,
    "rare": 61,
    "wear": 63,
    "aviator": 2,
    "sunglasses": 5,
    "bi": 118,
    "lenses": 19,
    "wrap": 51,
    "##around": 27,
    "crap": 82,
    "eyes": 138,
    "lets": 62,
    "##ept": 72,
    "jacket": 36,
    "sp": 258,
    "##lat": 64,
    "##tered": 5,
    "guys": 160,
    "helmets": 12,
    "beard": 2,
    "tight": 41,
    "shirts": 10,
    "mer": 34,
    "##rily": 24,
    "bikes": 97,
    "understands": 9,
    "##body": 1,
    "##tering": 5,
    "fun": 147,
    "bug": 127,
    "cassette": 20,
    "z": 192,
    "##16": 51,
    "favor": 85,
    "protein": 21,
    "barely": 30,
    "adequate": 44,
    "salary": 25,
    "schedule": 71,
    "sleep": 87,
    "##fusion": 20,
    "##tte": 15,
    "unpredictable": 8,
    "randomly": 15,
    "anxiety": 10,
    "##voking": 17,
    "##pres": 31,
    "glances": 2,
    "lowered": 9,
    "eyebrows": 1,
    "##real": 15,
    "promises": 35,
    "rapid": 22,
    "consisting": 12,
    "##bre": 9,
    "##wer": 30,
    "ale": 7,
    "##tze": 4,
    "##ls": 84,
    "hail": 6,
    "weather": 58,
    "warm": 35,
    "inch": 62,
    "disks": 179,
    "registration": 68,
    "shrink": 20,
    "##wr": 36,
    "opened": 72,
    "verify": 42,
    "ordered": 100,
    "##ited": 12,
    "participated": 31,
    "##op": 102,
    "idiot": 47,
    "causes": 141,
    "havoc": 6,
    "neighbors": 97,
    "##placed": 7,
    "nationalist": 14,
    "##vor": 11,
    "agenda": 49,
    "ana": 32,
    "##nic": 16,
    "accordingly": 7,
    "mountainous": 7,
    "enclave": 10,
    "lies": 91,
    "border": 99,
    "whatsoever": 45,
    "connected": 133,
    "geographical": 14,
    "historic": 14,
    "artistic": 1,
    "literary": 7,
    "heritage": 18,
    "render": 78,
    "claims": 228,
    "prep": 46,
    "##ost": 66,
    "##ero": 28,
    "lunatic": 25,
    "demand": 93,
    "heirs": 6,
    "recognize": 118,
    "material": 212,
    "##eak": 20,
    "victims": 78,
    "governments": 91,
    "officially": 39,
    "awareness": 22,
    "necessity": 30,
    "solidarity": 6,
    "efforts": 108,
    "pursue": 27,
    "century": 117,
    "positive": 127,
    "spiral": 5,
    "gripping": 1,
    "republics": 4,
    "impetus": 6,
    "hundreds": 88,
    "rack": 24,
    "fleeing": 12,
    "thousands": 145,
    "feared": 21,
    "attackers": 10,
    "defending": 44,
    "terrified": 6,
    "refugees": 41,
    "carving": 3,
    "echoed": 6,
    "arrived": 65,
    "husband": 57,
    "daughter": 109,
    "ear": 33,
    "sliced": 5,
    "fled": 35,
    "separately": 48,
    "gr": 141,
    "##uel": 11,
    "terrain": 12,
    "wounds": 15,
    "##gue": 14,
    "buried": 36,
    "cemetery": 7,
    "burial": 9,
    "chest": 32,
    "blank": 52,
    "hospital": 93,
    "carnage": 4,
    "140": 73,
    "escaped": 26,
    "bullet": 34,
    "injuries": 62,
    "stab": 10,
    "friday": 3,
    "fell": 70,
    "amounts": 54,
    "launcher": 54,
    "entertainer": 1,
    "hurting": 11,
    "players": 361,
    "athletic": 4,
    "paid": 146,
    "salaries": 8,
    "career": 99,
    "decline": 17,
    "exceptions": 31,
    "studio": 9,
    "organization": 190,
    "cs": 539,
    "waiting": 128,
    "##hra": 14,
    "verses": 51,
    "homosexuality": 78,
    "shoved": 3,
    "throat": 21,
    "requires": 203,
    "familiar": 95,
    "behaviour": 52,
    "believing": 66,
    "scriptures": 33,
    "grips": 6,
    "diagnosed": 33,
    "##mic": 19,
    "indicates": 82,
    "##cre": 42,
    "specialty": 9,
    "##mia": 15,
    "channels": 47,
    "400": 166,
    "##mc": 33,
    "foods": 54,
    "supplements": 12,
    "excess": 27,
    "honey": 6,
    "sugar": 34,
    "bread": 32,
    "cereal": 23,
    "grains": 4,
    "practitioner": 10,
    "compatibility": 30,
    "chemistry": 27,
    "bats": 14,
    "finished": 74,
    "79": 196,
    "comments": 238,
    "suggestions": 158,
    "410": 25,
    "252": 29,
    "375": 30,
    "da": 44,
    "##ulton": 1,
    "101": 179,
    "333": 63,
    "875": 17,
    "82": 229,
    "grace": 78,
    "88": 212,
    "421": 10,
    "boston": 3,
    "bell": 33,
    "71": 267,
    "gala": 3,
    "##rra": 17,
    "##ga": 86,
    "pena": 3,
    "ze": 15,
    "##ile": 36,
    "560": 24,
    "mitchell": 1,
    "lansing": 1,
    "67": 176,
    "##ght": 18,
    "##der": 156,
    "##wal": 2,
    "##nan": 6,
    "##dez": 1,
    "martinez": 1,
    "69": 178,
    "bag": 55,
    "##well": 18,
    "hayes": 2,
    "##you": 9,
    "407": 18,
    "##ou": 36,
    "##igan": 7,
    "##yk": 3,
    "##stra": 12,
    "57": 241,
    "405": 21,
    "bonds": 11,
    "680": 142,
    "##ine": 70,
    "plant": 62,
    "##ier": 61,
    "286": 110,
    "gonzalez": 2,
    "296": 21,
    "anthony": 5,
    "320": 60,
    "cole": 2,
    "318": 15,
    "sanders": 2,
    "357": 22,
    "berry": 4,
    "273": 30,
    "303": 43,
    "343": 11,
    "jeff": 11,
    "##eries": 3,
    "269": 11,
    "vans": 7,
    "312": 48,
    "490": 7,
    "butler": 2,
    "##iss": 12,
    "##om": 53,
    "king": 48,
    "53": 199,
    "308": 19,
    "##wyn": 1,
    "##ced": 13,
    "murray": 1,
    "521": 5,
    "gil": 4,
    "##key": 14,
    "bon": 14,
    "##illa": 9,
    "292": 43,
    "370": 18,
    "walters": 1,
    "501": 12,
    "wilson": 10,
    "323": 19,
    "344": 20,
    "weiss": 1,
    "261": 22,
    "243": 21,
    "justice": 98,
    "207": 37,
    "351": 26,
    "##mith": 13,
    "310": 27,
    "inca": 25,
    "##vi": 28,
    "##glia": 2,
    "470": 11,
    "275": 43,
    "327": 34,
    "hu": 38,
    "##nd": 99,
    "##ley": 19,
    "##sul": 14,
    "benjamin": 1,
    "gan": 9,
    "345": 33,
    "356": 14,
    "pitcher": 58,
    "moran": 1,
    "##dini": 1,
    "240": 112,
    "360": 49,
    "##den": 23,
    "sa": 36,
    "##bo": 74,
    "226": 28,
    "63": 213,
    "##wari": 1,
    "435": 11,
    "412": 30,
    "253": 43,
    "##laus": 2,
    "276": 20,
    "thompson": 4,
    "278": 25,
    "##ini": 44,
    "259": 20,
    "barber": 7,
    "##ie": 197,
    "cord": 58,
    "sheffield": 2,
    "241": 22,
    "##rro": 15,
    "williams": 1,
    "mc": 67,
    "##gr": 47,
    "##iff": 7,
    "385": 12,
    "390": 11,
    "##rard": 1,
    "381": 11,
    "304": 24,
    "76": 250,
    "182": 41,
    "santiago": 1,
    "clayton": 1,
    "piazza": 1,
    "##ach": 22,
    "larkin": 2,
    "281": 16,
    "garcia": 2,
    "319": 10,
    "326": 12,
    "coleman": 3,
    "kent": 4,
    "190": 27,
    "roberts": 1,
    "236": 17,
    "lewis": 1,
    "354": 28,
    "finley": 1,
    "clark": 2,
    "219": 32,
    "le": 53,
    "339": 13,
    "221": 47,
    "311": 15,
    "mcgee": 1,
    "335": 10,
    "199": 39,
    "334": 14,
    "oliver": 2,
    "208": 27,
    "gardner": 1,
    "332": 12,
    "reed": 8,
    "105": 115,
    "ho": 131,
    "##llins": 2,
    "106": 106,
    "107": 70,
    "davis": 3,
    "325": 35,
    "188": 23,
    "108": 71,
    "pendleton": 1,
    "322": 9,
    "212": 62,
    "297": 3,
    "strawberry": 5,
    "111": 146,
    "##gio": 11,
    "179": 22,
    "113": 59,
    "##adan": 2,
    "114": 65,
    "##gno": 34,
    "##zzi": 7,
    "299": 13,
    "martin": 8,
    "295": 10,
    "167": 35,
    "##chet": 5,
    "222": 49,
    "tau": 9,
    "##ben": 18,
    "##see": 18,
    "118": 54,
    "bo": 53,
    "##lick": 1,
    "119": 52,
    "pose": 21,
    "258": 18,
    "##fr": 58,
    "121": 51,
    "johnson": 4,
    "274": 18,
    "136": 45,
    "122": 57,
    "kelly": 3,
    "270": 33,
    "nixon": 1,
    "124": 47,
    "255": 54,
    "231": 34,
    "126": 42,
    "bu": 169,
    "##ech": 9,
    "154": 67,
    "##ford": 8,
    "128": 277,
    "olson": 5,
    "224": 26,
    "129": 99,
    "viz": 4,
    "130": 136,
    "sanchez": 1,
    "131": 45,
    "duncan": 1,
    "132": 71,
    "198": 33,
    "197": 11,
    "176": 21,
    "235": 24,
    "134": 49,
    "183": 15,
    "135": 60,
    "chamberlain": 1,
    "164": 19,
    "138": 40,
    "159": 28,
    "139": 35,
    "##don": 23,
    "##ado": 5,
    "felix": 2,
    "172": 32,
    "141": 49,
    "##py": 122,
    "142": 56,
    "jordan": 5,
    "##hill": 3,
    "144": 93,
    "145": 798,
    "ship": 75,
    "174": 23,
    "146": 58,
    "147": 106,
    "ben": 26,
    "##avi": 11,
    "##des": 46,
    "wilkins": 2,
    "151": 37,
    "steals": 4,
    "steal": 41,
    "stolen": 63,
    "bmw": 6,
    "##ash": 6,
    "apartment": 124,
    "carp": 8,
    "##ort": 58,
    "bee": 51,
    "stealing": 24,
    "parked": 11,
    "neighbor": 69,
    "wheeling": 1,
    "practically": 23,
    "relative": 82,
    "easier": 149,
    "555": 24,
    "##55": 58,
    "##59": 28,
    "288": 21,
    "186": 17,
    "104": 99,
    "234": 22,
    "279": 13,
    "##56": 19,
    "152": 55,
    "960": 51,
    "doctors": 80,
    "squeak": 5,
    "treatments": 27,
    "patient": 74,
    "buck": 19,
    "surprised": 105,
    "medical": 181,
    "significantly": 82,
    "inflated": 18,
    "qu": 107,
    "##ack": 50,
    "color": 604,
    "focus": 86,
    "profession": 11,
    "dev": 68,
    "##oting": 4,
    "unbelievable": 9,
    "licenses": 25,
    "desperate": 20,
    "posts": 241,
    "band": 97,
    "##ied": 27,
    "reckless": 13,
    "discussing": 73,
    "controversial": 14,
    "civilized": 17,
    "somehow": 117,
    "magical": 12,
    "readers": 103,
    "##hip": 45,
    "roll": 50,
    "backs": 26,
    "pee": 10,
    "obedience": 29,
    "school": 242,
    "throw": 117,
    "##lous": 9,
    "lacking": 31,
    "precision": 39,
    "sole": 43,
    "##fus": 87,
    "##cate": 58,
    "issues": 262,
    "##nate": 20,
    "sign": 150,
    "##ncy": 27,
    "compete": 49,
    "scary": 24,
    "med": 96,
    "gods": 62,
    "anal": 35,
    "psychotic": 3,
    "dia": 69,
    "##ses": 67,
    "suggest": 241,
    "theories": 46,
    "yeast": 47,
    "theory": 214,
    "moderate": 48,
    "suggestion": 73,
    "##am": 99,
    "##pm": 66,
    "minute": 104,
    "invaded": 20,
    "liberated": 7,
    "strategic": 13,
    "eh": 51,
    "missiles": 15,
    "##not": 21,
    "autonomous": 5,
    "believes": 83,
    "ave": 15,
    "##rted": 4,
    "##avs": 1,
    "##ssi": 68,
    "##dents": 8,
    "nik": 11,
    "tyrant": 15,
    "heel": 11,
    "ideals": 13,
    "conflicts": 35,
    "dealing": 74,
    "legitimate": 129,
    "##itate": 16,
    "resort": 50,
    "rank": 15,
    "##ong": 15,
    "stand": 224,
    "freedoms": 21,
    "soap": 12,
    "apostle": 11,
    "##men": 111,
    "apostles": 28,
    "designated": 29,
    "venture": 27,
    "leasing": 4,
    "pads": 24,
    "gnu": 20,
    "plot": 77,
    "valued": 10,
    "vectors": 9,
    "plotting": 29,
    "arrows": 4,
    "##heads": 8,
    "journal": 31,
    "announced": 137,
    "##eous": 9,
    "composed": 15,
    "rocks": 38,
    "ice": 141,
    "confirm": 32,
    "##ifying": 17,
    "tenant": 7,
    "farmers": 6,
    "legally": 58,
    "prices": 121,
    "sellers": 6,
    "caught": 109,
    "sake": 54,
    "unity": 22,
    "angry": 38,
    "illegal": 158,
    "purpose": 299,
    "jobs": 216,
    "immigrants": 11,
    "contest": 95,
    "operations": 108,
    "discussed": 108,
    "electric": 62,
    "periodically": 24,
    "archive": 213,
    "archived": 21,
    "date": 228,
    "##36": 32,
    "frequently": 103,
    "translation": 101,
    "provided": 200,
    "##je": 17,
    "gotham": 9,
    "##city": 25,
    "j": 204,
    "nasa": 131,
    "vertical": 35,
    "rise": 72,
    "phase": 68,
    "attitude": 130,
    "commanded": 15,
    "assure": 29,
    "tower": 59,
    "clearance": 15,
    "tilt": 21,
    "maneuver": 17,
    "orient": 10,
    "generate": 91,
    "negative": 86,
    "alpha": 24,
    "alleviate": 17,
    "structural": 14,
    "loading": 39,
    "advantages": 37,
    "gain": 91,
    "decreased": 19,
    "improved": 67,
    "angles": 18,
    "horizon": 12,
    "gaining": 16,
    "##rang": 16,
    "velocity": 39,
    "target": 88,
    "stage": 101,
    "couch": 7,
    "jar": 18,
    "##gon": 118,
    "clears": 7,
    "rolling": 14,
    "passage": 79,
    "chord": 8,
    "imaginary": 12,
    "leading": 93,
    "trailing": 4,
    "slightly": 136,
    "downward": 7,
    "toward": 138,
    "belly": 9,
    "delicate": 8,
    "allows": 186,
    "complicated": 67,
    "flight": 94,
    "execute": 47,
    "improves": 7,
    "ability": 195,
    "antennae": 5,
    "mandatory": 30,
    "pilot": 27,
    "engines": 62,
    "vector": 27,
    "quantity": 32,
    "horizontal": 36,
    "attain": 17,
    "begs": 6,
    "oriented": 61,
    "##overs": 4,
    "##rad": 13,
    "##dles": 1,
    "flame": 133,
    "trenches": 5,
    "exhaust": 66,
    "effects": 139,
    "daytime": 5,
    "gray": 72,
    "garbage": 49,
    "fluffy": 3,
    "buddy": 15,
    "axes": 25,
    "pitch": 62,
    "performed": 88,
    "controls": 85,
    "orbital": 54,
    "##ater": 6,
    "##nio": 6,
    "##ad": 94,
    "math": 104,
    "combining": 10,
    "rotation": 45,
    "matrices": 5,
    "array": 33,
    "broadcast": 64,
    "stationed": 11,
    "increasingly": 26,
    "difficult": 236,
    "special": 293,
    "viewers": 26,
    "operators": 32,
    "conferences": 23,
    "briefing": 33,
    "officials": 104,
    "begun": 32,
    "secondary": 42,
    "##bro": 13,
    "##cast": 13,
    "audio": 103,
    "165": 24,
    "850": 24,
    "282": 18,
    "590": 13,
    "transmit": 47,
    "frequencies": 34,
    "supplying": 11,
    "bulletin": 22,
    "##45": 42,
    "item": 89,
    "courtesy": 41,
    "##oft": 13,
    "##70": 58,
    "perch": 4,
    "##lor": 27,
    "##ate": 142,
    "ox": 53,
    "##zer": 25,
    "burn": 63,
    "catalyst": 3,
    "##ril": 21,
    "acid": 69,
    "##ryl": 1,
    "##oni": 29,
    "rubber": 50,
    "cu": 201,
    "aluminum": 54,
    "ep": 65,
    "rum": 18,
    "##our": 26,
    "macintosh": 5,
    "quarter": 40,
    "cpu": 25,
    "connecting": 24,
    "rumored": 12,
    "compatible": 161,
    "models": 168,
    "hearing": 80,
    "##sol": 24,
    "##oh": 19,
    "verb": 22,
    "virtually": 69,
    "##esh": 6,
    "restricted": 46,
    "classic": 39,
    "carriers": 27,
    "existence": 248,
    "decay": 11,
    "court": 233,
    "recording": 27,
    "testify": 19,
    "wealthy": 15,
    "ranch": 7,
    "priest": 39,
    "shepherd": 9,
    "pagan": 46,
    "cup": 53,
    "##be": 72,
    "##are": 23,
    "fishermen": 3,
    "testimony": 54,
    "agents": 118,
    "priests": 49,
    "lasts": 7,
    "listening": 68,
    "witnesses": 48,
    "##ifier": 20,
    "##mist": 32,
    "##ake": 46,
    "##nl": 15,
    "reveal": 41,
    "revealed": 63,
    "perspective": 75,
    "##imo": 14,
    "##nies": 14,
    "identical": 91,
    "dare": 28,
    "witness": 45,
    "harmon": 12,
    "##iously": 10,
    "stare": 5,
    "gazing": 3,
    "seeming": 6,
    "telling": 129,
    "te": 122,
    "expert": 67,
    "referenced": 13,
    "confused": 69,
    "##ddled": 1,
    "genuinely": 10,
    "curious": 90,
    "liberal": 64,
    "evangelical": 21,
    "perennial": 4,
    "##ntly": 12,
    "explore": 20,
    "##sper": 10,
    "##sion": 49,
    "passed": 173,
    "##cturing": 3,
    "christ": 8,
    "##an": 60,
    "atheist": 306,
    "considering": 148,
    "threatening": 32,
    "baby": 45,
    "diverted": 4,
    "lebanese": 3,
    "rivers": 11,
    "lebanon": 1,
    "comfort": 27,
    "widows": 2,
    "beaten": 30,
    "enacted": 11,
    "edited": 36,
    "##post": 41,
    "pleased": 29,
    "laser": 76,
    "##cript": 76,
    "printers": 49,
    "##udge": 10,
    "desk": 45,
    "##jet": 34,
    "bubble": 15,
    "compares": 8,
    "workshop": 6,
    "episcopal": 7,
    "student": 118,
    "gathering": 21,
    "testament": 10,
    "satan": 10,
    "pun": 42,
    "advocate": 29,
    "##we": 45,
    "fallen": 32,
    "lucifer": 3,
    "mist": 27,
    "##ran": 45,
    "##sl": 82,
    "morning": 157,
    "james": 10,
    "isaiah": 1,
    "babylonian": 1,
    "monarch": 4,
    "sun": 218,
    "louis": 4,
    "xiv": 1,
    "milton": 3,
    "paradise": 19,
    "invented": 34,
    "sketch": 13,
    "##iness": 19,
    "hurry": 15,
    "eat": 123,
    "lunch": 36,
    "concord": 7,
    "##ance": 96,
    "##verse": 12,
    "lou": 25,
    "##chu": 17,
    "##res": 71,
    "hardly": 87,
    "blade": 10,
    "perfect": 193,
    "instruction": 51,
    "award": 49,
    "mad": 37,
    "##und": 43,
    "telephone": 135,
    "incorrect": 65,
    "attempted": 48,
    "learn": 212,
    "refused": 52,
    "responsibility": 128,
    "spoke": 78,
    "ahead": 133,
    "advise": 17,
    "tuned": 25,
    "sho": 20,
    "##wave": 15,
    "##set": 66,
    "##pp": 87,
    "##eu": 5,
    "##ich": 37,
    "contains": 211,
    "sexual": 93,
    "median": 16,
    "dramatically": 23,
    "shame": 108,
    "gay": 153,
    "requirement": 53,
    "together": 318,
    "obsession": 10,
    "statistics": 77,
    "incredibly": 44,
    "flawed": 19,
    "##elle": 4,
    "##ger": 54,
    "accomplished": 41,
    "clue": 50,
    "impose": 25,
    "requiring": 46,
    "rent": 31,
    "associate": 17,
    "morals": 36,
    "##igo": 4,
    "##nal": 30,
    "##tify": 13,
    "misunderstanding": 20,
    "##md": 35,
    "kim": 7,
    "r": 393,
    "closely": 78,
    "replied": 50,
    "##mpt": 24,
    "capitals": 3,
    "description": 124,
    "chosen": 83,
    "climate": 7,
    "tremendous": 29,
    "##aran": 11,
    "##tin": 18,
    "san": 20,
    "##rium": 2,
    "sporadic": 3,
    "##ally": 127,
    "sur": 52,
    "##nce": 102,
    "clinic": 34,
    "cha": 118,
    "intellect": 84,
    "ge": 108,
    "ds": 107,
    "pitt": 89,
    "surrender": 100,
    "dr": 99,
    "cache": 143,
    "saved": 123,
    "silicon": 20,
    "estate": 12,
    "contract": 77,
    "prevents": 30,
    "implementing": 21,
    "nobody": 114,
    "clone": 53,
    "1988": 178,
    "player": 230,
    "ui": 108,
    "tin": 34,
    "##tus": 37,
    "suffer": 71,
    "##uro": 48,
    "##ient": 53,
    "literature": 82,
    "carefully": 85,
    "conclusions": 66,
    "chronic": 42,
    "cure": 56,
    "experimental": 50,
    "helped": 84,
    "##dot": 28,
    "##al": 373,
    "massive": 51,
    "loud": 44,
    "blocking": 19,
    "onset": 13,
    "aba": 3,
    "##rba": 13,
    "association": 32,
    "concentrating": 7,
    "unnoticed": 3,
    "antique": 4,
    "chase": 19,
    "police": 342,
    "animal": 56,
    "elephant": 1,
    "bureaucracy": 9,
    "feels": 63,
    "sai": 5,
    "##mir": 4,
    "primate": 9,
    "za": 43,
    "##od": 54,
    "mps": 9,
    "ohio": 33,
    "hs": 17,
    "##nde": 22,
    "spd": 9,
    "dyer": 6,
    "209": 22,
    "##cb": 7,
    "factory": 44,
    "##27": 31,
    "portal": 17,
    "therapy": 43,
    "hyper": 30,
    "##act": 49,
    "##ivity": 31,
    "aggressively": 11,
    "eliminating": 14,
    "artificial": 37,
    "coloring": 7,
    "flavor": 26,
    "sensitive": 63,
    "chemicals": 24,
    "connection": 148,
    "seizures": 26,
    "natural": 154,
    "improvement": 67,
    "intellectual": 50,
    "skills": 57,
    "parents": 114,
    "enthusiastic": 9,
    "lap": 11,
    "ur": 46,
    "aka": 20,
    "harvard": 43,
    "rays": 32,
    "##sd": 35,
    "lin": 20,
    "m2": 4,
    "reaction": 84,
    "junk": 64,
    "food": 246,
    "behavior": 123,
    "calm": 35,
    "neat": 52,
    "eating": 65,
    "coated": 13,
    "allergic": 32,
    "coating": 8,
    "immediate": 50,
    "hay": 6,
    "fever": 24,
    "##chy": 18,
    "##gies": 18,
    "weird": 56,
    "nuts": 43,
    "mushrooms": 7,
    "##rino": 6,
    "##logist": 31,
    "##ave": 21,
    "sigh": 13,
    "##bies": 8,
    "steer": 25,
    "confusing": 43,
    "ride": 127,
    "traction": 14,
    "policies": 92,
    "railway": 5,
    "locomotives": 2,
    "doubts": 19,
    "brake": 65,
    "applied": 88,
    "describe": 91,
    "tyre": 3,
    "braking": 30,
    "suggesting": 36,
    "700": 121,
    "install": 131,
    "lid": 13,
    "mounted": 47,
    "plastic": 86,
    "precautions": 10,
    "monitor": 317,
    "pulling": 49,
    "inter": 228,
    "##lock": 31,
    "tab": 42,
    "simultaneously": 31,
    "posterior": 6,
    "extends": 7,
    "hook": 78,
    "horseshoe": 2,
    "shaped": 29,
    "flat": 85,
    "ribbon": 24,
    "connector": 139,
    "squeezed": 9,
    "activity": 107,
    "mount": 41,
    "cylindrical": 5,
    "phillips": 4,
    "drop": 141,
    "gum": 13,
    "##my": 11,
    "glue": 9,
    "##drive": 21,
    "medial": 1,
    "sockets": 33,
    "square": 64,
    "firmly": 27,
    "upright": 10,
    "placing": 18,
    "anterior": 2,
    "clicks": 15,
    "ends": 67,
    "hi": 65,
    "hd": 10,
    "##gate": 28,
    "cdc": 5,
    "##si": 93,
    "sw": 75,
    "select": 94,
    "dos": 74,
    "reserve": 30,
    "correction": 26,
    "requests": 135,
    "movie": 60,
    "pop": 98,
    "##ites": 12,
    "consulting": 16,
    "assignment": 7,
    "##50": 53,
    "ba": 84,
    "laptop": 29,
    "remote": 147,
    "wherever": 21,
    "settle": 29,
    "gladly": 17,
    "##usa": 32,
    "meantime": 20,
    "plenty": 74,
    "bite": 16,
    "citing": 8,
    "justified": 54,
    "crab": 3,
    "consumer": 38,
    "toy": 10,
    "zip": 129,
    "wu": 85,
    "##ar": 161,
    "##chi": 62,
    "ft": 502,
    "indiana": 46,
    "packets": 17,
    "typical": 118,
    "sizes": 28,
    "bits": 266,
    "scaled": 13,
    "ar": 272,
    "##bit": 120,
    "##rar": 15,
    "implemented": 80,
    "##cie": 48,
    "trillion": 18,
    "billion": 144,
    "##th": 181,
    "bankrupt": 8,
    "ethics": 16,
    "healthcare": 1,
    "industries": 29,
    "fraud": 24,
    "costing": 16,
    "delivering": 10,
    "marginal": 29,
    "aft": 3,
    "apple": 84,
    "##talk": 9,
    "##hari": 1,
    "##ctor": 40,
    "turns": 96,
    "prompt": 51,
    "cop": 104,
    "rams": 2,
    "4000": 45,
    "##non": 7,
    "##ret": 35,
    "et": 159,
    "##na": 51,
    "ch": 108,
    "circuit": 162,
    "momentary": 3,
    "##ive": 184,
    "constructed": 20,
    "##uts": 11,
    "transfers": 32,
    "grounded": 42,
    "duration": 18,
    "adjusted": 23,
    "electronically": 24,
    "optical": 33,
    "iso": 27,
    "consists": 52,
    "##cel": 12,
    "lamp": 29,
    "packaged": 10,
    "tube": 74,
    "cell": 57,
    "resistance": 84,
    "lowers": 2,
    "mixer": 18,
    "223": 42,
    "leap": 35,
    "depression": 20,
    "##cuit": 9,
    "emotional": 37,
    "relationships": 16,
    "escape": 74,
    "bond": 18,
    "commitment": 56,
    "devotion": 12,
    "checks": 45,
    "shotgun": 37,
    "rifles": 26,
    "follows": 134,
    "##rom": 25,
    "spare": 64,
    "consulted": 23,
    "1991": 208,
    "firearm": 94,
    "sticking": 30,
    "diesel": 16,
    "traced": 20,
    "honor": 53,
    "serves": 51,
    "interview": 42,
    "charismatic": 5,
    "art": 173,
    "##iculate": 16,
    "intelligent": 48,
    "demonstrates": 27,
    "leadership": 72,
    "qualities": 15,
    "draft": 130,
    "moderator": 29,
    "screens": 44,
    "heath": 6,
    "content": 93,
    "intro": 36,
    "gifts": 26,
    "##eil": 1,
    "##ked": 29,
    "fiat": 2,
    "lives": 205,
    "practical": 88,
    "guide": 90,
    "mortals": 6,
    "countless": 11,
    "perished": 9,
    "deeds": 34,
    "utterly": 29,
    "surely": 81,
    "muster": 6,
    "ul": 32,
    "##mate": 21,
    "comforting": 7,
    "definitions": 44,
    "illusion": 21,
    "conclude": 55,
    "spirit": 64,
    "distinctly": 9,
    "imply": 75,
    "intent": 81,
    "goals": 155,
    "##ved": 58,
    "yer": 11,
    "monk": 6,
    "nirvana": 1,
    "learning": 86,
    "mysterious": 11,
    "##mo": 122,
    "##rta": 7,
    "##il": 79,
    "mostly": 174,
    "crack": 71,
    "2a": 8,
    "eternity": 24,
    "dull": 24,
    "choose": 165,
    "communicating": 5,
    "chooses": 21,
    "incompatible": 35,
    "classical": 17,
    "approaches": 47,
    "protocol": 82,
    "incomplete": 23,
    "succeeds": 9,
    "interrupt": 65,
    "communication": 77,
    "download": 43,
    "grabs": 9,
    "loose": 43,
    "1645": 9,
    "internally": 17,
    "1655": 40,
    "situations": 80,
    "shut": 109,
    "##rial": 13,
    "coaches": 13,
    "ir": 86,
    "##rel": 38,
    "##eve": 25,
    "comparing": 42,
    "goaltender": 35,
    "##outs": 49,
    "coach": 74,
    "deciding": 14,
    "deeper": 21,
    "stat": 108,
    "masterpiece": 6,
    "judge": 137,
    "tested": 98,
    "scoring": 109,
    "chances": 76,
    "mistake": 103,
    "judging": 31,
    "interviews": 24,
    "oh": 89,
    "everybody": 110,
    "walked": 49,
    "random": 163,
    "##graphs": 9,
    "photos": 25,
    "method": 204,
    "guards": 14,
    "pictures": 110,
    "##graph": 17,
    "buddies": 4,
    "pardon": 13,
    "tugging": 1,
    "dismay": 6,
    "sack": 15,
    "##cloth": 2,
    "ashes": 10,
    "pretending": 6,
    "perpetual": 8,
    "motion": 56,
    "sounded": 21,
    "phrase": 76,
    "sounds": 193,
    "somewhat": 131,
    "##position": 10,
    "elect": 20,
    "critic": 17,
    "technological": 24,
    "feasibility": 10,
    "separating": 11,
    "risks": 47,
    "throwing": 52,
    "physics": 72,
    "burning": 73,
    "recovery": 35,
    "ounce": 11,
    "pounds": 44,
    "grams": 11,
    "kilograms": 8,
    "metric": 18,
    "hmm": 19,
    "##imated": 4,
    "balls": 41,
    "arrogance": 36,
    "##fine": 12,
    "answering": 34,
    "ill": 79,
    "fundamental": 129,
    "converse": 10,
    "nec": 51,
    "##ess": 63,
    "##ari": 57,
    "##lly": 36,
    "false": 166,
    "##ump": 18,
    "theology": 47,
    "impossible": 156,
    "meanings": 18,
    "library": 221,
    "operates": 20,
    "theological": 27,
    "##cles": 5,
    "##iol": 8,
    "##ogical": 9,
    "contra": 84,
    "##dict": 85,
    "vice": 66,
    "versa": 29,
    "arrogant": 47,
    "established": 125,
    "guided": 7,
    "core": 97,
    "differing": 15,
    "feet": 135,
    "tall": 30,
    "weighs": 7,
    "bel": 67,
    "nine": 59,
    "mistaken": 40,
    "difficulty": 43,
    "illustrate": 13,
    "ways": 227,
    "pe": 72,
    "expressions": 11,
    "bitterly": 5,
    "##sms": 10,
    "ecumenical": 3,
    "conceal": 20,
    "agreement": 72,
    "equally": 68,
    "valid": 176,
    "##cation": 23,
    "expression": 40,
    "stripped": 15,
    "##ota": 12,
    "##tate": 13,
    "##par": 54,
    "##encies": 4,
    "stacked": 5,
    "##ock": 39,
    "client": 144,
    "capita": 10,
    "##dates": 5,
    "homicide": 105,
    "tenth": 20,
    "paperwork": 17,
    "citation": 11,
    "showed": 126,
    "miss": 73,
    "dispute": 37,
    "##lar": 54,
    "cultures": 16,
    "quan": 58,
    "accidental": 28,
    "handgun": 139,
    "licensed": 43,
    "dictionary": 45,
    "arguments": 182,
    "sober": 8,
    "coordinated": 11,
    "mistakes": 62,
    "crystal": 29,
    "guests": 11,
    "motif": 42,
    "wine": 16,
    "glasses": 12,
    "##note": 9,
    "palm": 12,
    "##top": 16,
    "marketing": 43,
    "digit": 80,
    "##isation": 22,
    "var": 26,
    "acceptable": 103,
    "sec": 112,
    "##bis": 51,
    "subunit": 2,
    "dunn": 14,
    "##load": 73,
    "varying": 18,
    "max": 95,
    "640": 69,
    "depths": 7,
    "accelerated": 24,
    "frequent": 35,
    "corrected": 37,
    "patch": 98,
    "apps": 66,
    "mono": 113,
    "sodium": 8,
    "##tama": 20,
    "suggests": 60,
    "##urities": 2,
    "bean": 2,
    "##ented": 41,
    "cheese": 12,
    "contain": 106,
    "exclusively": 34,
    "mighty": 15,
    "##dder": 1,
    "shortly": 30,
    "afterwards": 24,
    "producing": 42,
    "##fa": 57,
    "##ele": 23,
    "##ming": 45,
    "profit": 79,
    "platform": 44,
    "nightmare": 9,
    "programmers": 29,
    "temptation": 11,
    "essential": 70,
    "supplement": 23,
    "##bia": 17,
    "concerning": 90,
    "trained": 37,
    "seals": 23,
    "funds": 110,
    "##words": 12,
    "taxpayers": 12,
    "##igate": 7,
    "offensive": 91,
    "alien": 25,
    "monument": 5,
    "dedicated": 44,
    "##uating": 10,
    "continual": 8,
    "amiga": 29,
    "blindly": 17,
    "physically": 44,
    "seeing": 140,
    "acknowledge": 48,
    "illusions": 4,
    "lately": 34,
    "newspaper": 67,
    "tastes": 11,
    "healthy": 59,
    "taste": 58,
    "trust": 181,
    "ourselves": 89,
    "loves": 28,
    "extent": 68,
    "commands": 96,
    "exercises": 24,
    "##cer": 58,
    "##cise": 33,
    "praying": 24,
    "grow": 45,
    "defiance": 2,
    "abortion": 63,
    "sang": 5,
    "anthem": 4,
    "opener": 10,
    "experts": 90,
    "unlawful": 18,
    "officer": 82,
    "statutory": 3,
    "provision": 18,
    "obtaining": 26,
    "li": 289,
    "##ense": 20,
    "permit": 69,
    "instructions": 94,
    "pants": 31,
    "ordinance": 13,
    "impending": 8,
    "barrel": 30,
    "shortened": 5,
    "##bine": 4,
    "famous": 60,
    "mayor": 12,
    "stroll": 3,
    "majestic": 3,
    "arise": 25,
    "hall": 39,
    "##owed": 6,
    "territory": 71,
    "marks": 38,
    "sacrifices": 14,
    "##her": 85,
    "##ald": 1,
    "achievements": 6,
    "races": 22,
    "creed": 9,
    "##ifice": 7,
    "devoted": 33,
    "contentious": 5,
    "ordeal": 6,
    "sect": 34,
    "##arian": 6,
    "##eptive": 8,
    "guise": 7,
    "begins": 51,
    "propaganda": 53,
    "financed": 11,
    "##ss": 74,
    "taxpayer": 4,
    "interests": 83,
    "adherents": 4,
    "revision": 41,
    "semitic": 13,
    "##wash": 18,
    "disappointed": 16,
    "title": 225,
    "sights": 6,
    "##ee": 59,
    "retro": 13,
    "poetic": 4,
    "differently": 46,
    "homework": 9,
    "ta": 52,
    "##cit": 25,
    "exhibiting": 4,
    "casual": 22,
    "##tism": 16,
    "agreed": 76,
    "speech": 111,
    "flip": 20,
    "sentence": 85,
    "##if": 117,
    "criticism": 42,
    "outta": 7,
    "culturally": 4,
    "regarding": 173,
    "individual": 268,
    "restrictions": 62,
    "searches": 21,
    "urban": 25,
    "economy": 96,
    "ethnic": 85,
    "composition": 13,
    "disappears": 17,
    "minorities": 50,
    "##dom": 23,
    "##ina": 30,
    "##tly": 38,
    "whites": 48,
    "##icle": 2,
    "distortion": 30,
    "attacker": 24,
    "civilians": 109,
    "defence": 36,
    "represent": 75,
    "crimes": 103,
    "prevented": 45,
    "cite": 42,
    "estimate": 34,
    "figures": 80,
    "defences": 3,
    "involve": 62,
    "acting": 48,
    "resulted": 28,
    "violent": 82,
    "veto": 20,
    "proposal": 132,
    "governmental": 22,
    "wisdom": 53,
    "mora": 8,
    "##torium": 5,
    "specialist": 12,
    "manufacturers": 110,
    "exempt": 21,
    "suspicion": 15,
    "craft": 49,
    "trick": 65,
    "stalls": 3,
    "talks": 98,
    "psycho": 23,
    "##active": 13,
    "takeoff": 6,
    "discuss": 123,
    "##press": 73,
    "cyclic": 6,
    "##psy": 13,
    "##cho": 23,
    "forth": 71,
    "##gen": 42,
    "##erate": 54,
    "ps": 125,
    "cy": 79,
    "##pher": 59,
    "unrelated": 12,
    "##su": 156,
    "##ibe": 43,
    "nope": 4,
    "meaningful": 35,
    "wanting": 37,
    "na": 54,
    "##gging": 24,
    "boss": 33,
    "trivial": 51,
    "perfectly": 103,
    "move": 305,
    "challenging": 11,
    "playing": 175,
    "settings": 78,
    "dad": 21,
    "playoffs": 90,
    "nonetheless": 11,
    "strategy": 54,
    "decides": 32,
    "rid": 106,
    "seats": 47,
    "sections": 74,
    "##rag": 22,
    "choosing": 38,
    "##time": 67,
    "print": 319,
    "1755": 2,
    "##eg": 72,
    "##its": 25,
    "yankee": 3,
    "sam": 26,
    "l": 211,
    "mom": 18,
    "bob": 32,
    "vest": 9,
    "##erman": 3,
    "genius": 12,
    "spelled": 13,
    "hint": 35,
    "po": 101,
    "##bl": 51,
    "combo": 11,
    "benefits": 73,
    "instability": 5,
    "woo": 15,
    "labels": 22,
    "que": 34,
    "amongst": 26,
    "simplified": 6,
    "feeling": 106,
    "prophecy": 68,
    "tends": 64,
    "across": 215,
    "cheers": 21,
    "tribunal": 3,
    "forced": 90,
    "substitute": 26,
    "pixels": 53,
    "disappear": 34,
    "intermittent": 12,
    "particular": 394,
    "##ings": 36,
    "610": 44,
    "charm": 12,
    "restart": 21,
    "desktop": 63,
    "jerk": 37,
    "170": 47,
    "noisy": 20,
    "highly": 160,
    "affordable": 14,
    "pm": 83,
    "##etz": 20,
    "##nar": 9,
    "shear": 30,
    "##son": 56,
    "cellular": 66,
    "pioneering": 4,
    "attach": 27,
    "acoustic": 4,
    "stray": 12,
    "##piece": 6,
    "sealed": 31,
    "attachment": 9,
    "blocked": 15,
    "generator": 40,
    "##ffle": 16,
    "hints": 58,
    "##cratic": 13,
    "badly": 50,
    "tape": 272,
    "magic": 53,
    "cookie": 12,
    "##ip": 74,
    "implement": 62,
    "##lita": 4,
    "##tions": 49,
    "agencies": 183,
    "conversation": 78,
    "mole": 34,
    "##sters": 21,
    "meanwhile": 4,
    "##iring": 5,
    "database": 105,
    "conducting": 27,
    "performing": 33,
    "administering": 4,
    "evaluating": 14,
    "analyzed": 10,
    "differentiate": 5,
    "quasi": 7,
    "researcher": 11,
    "biological": 29,
    "mice": 37,
    "sk": 46,
    "##ew": 78,
    "ignorant": 70,
    "respects": 20,
    "##id": 83,
    "quotes": 86,
    "cod": 16,
    "##ified": 49,
    "texts": 39,
    "authors": 99,
    "ages": 21,
    "assumed": 65,
    "knew": 225,
    "overwhelming": 23,
    "shed": 26,
    "receiver": 54,
    "disciple": 12,
    "##gum": 8,
    "relies": 14,
    "gospel": 46,
    "##iter": 16,
    "societies": 18,
    "speak": 176,
    "believers": 47,
    "repairs": 20,
    "##ettes": 12,
    "##ette": 24,
    "##gy": 34,
    "jim": 19,
    "strauss": 2,
    "reg": 30,
    "##ual": 36,
    "chunks": 10,
    "plaque": 9,
    "##vas": 11,
    "##cular": 4,
    "compromise": 93,
    "lifting": 32,
    "eighth": 20,
    "graders": 13,
    "##hala": 8,
    "##nts": 36,
    "fresh": 36,
    "##ener": 14,
    "annual": 51,
    "finds": 36,
    "statistical": 35,
    "marijuana": 22,
    "cocaine": 17,
    "danger": 58,
    "losing": 59,
    "reducing": 35,
    "naive": 31,
    "adolescence": 1,
    "chief": 48,
    "sponsored": 36,
    "seniors": 6,
    "continuing": 46,
    "decade": 39,
    "students": 76,
    "polled": 4,
    "alcohol": 44,
    "cigarettes": 14,
    "10th": 25,
    "12th": 8,
    "declined": 21,
    "1982": 106,
    "illness": 33,
    "fewer": 53,
    "focusing": 14,
    "goodness": 13,
    "cruise": 24,
    "missile": 17,
    "outcome": 42,
    "entered": 59,
    "virtual": 98,
    "loads": 25,
    "bat": 62,
    "editor": 109,
    "##over": 20,
    "forgot": 64,
    "absolutely": 131,
    "online": 45,
    "multi": 256,
    "replacement": 81,
    "rao": 7,
    "bottle": 34,
    "threw": 60,
    "##runner": 11,
    "sha": 72,
    "##bby": 2,
    "rookie": 46,
    "controllers": 29,
    "serials": 1,
    "jumper": 125,
    "affecting": 19,
    "##hd": 9,
    "manages": 17,
    "1630": 1,
    "bonus": 9,
    "root": 137,
    "numerous": 68,
    "avail": 33,
    "coe": 49,
    "wit": 17,
    "depending": 95,
    "##lers": 3,
    "##nge": 22,
    "preferred": 45,
    "iron": 27,
    "archives": 56,
    "miracle": 33,
    "inner": 43,
    "workings": 6,
    "prayers": 37,
    "len": 36,
    "chop": 16,
    "suit": 56,
    "woman": 192,
    "mach": 21,
    "urge": 23,
    "channel": 114,
    "forbid": 27,
    "consequences": 59,
    "suppress": 25,
    "libertarian": 63,
    "voted": 40,
    "##olis": 24,
    "conscience": 21,
    "forbade": 4,
    "##uate": 16,
    "sanctioned": 6,
    "slavery": 22,
    "stay": 170,
    "improving": 21,
    "spending": 74,
    "improve": 94,
    "infrastructure": 36,
    "naval": 42,
    "bases": 58,
    "##ur": 90,
    "##hing": 24,
    "decommissioned": 1,
    "airports": 9,
    "airport": 15,
    "##all": 24,
    "pork": 21,
    "##ony": 114,
    "airfields": 2,
    "purchases": 10,
    "debt": 32,
    "pockets": 18,
    "shallow": 10,
    "herself": 32,
    "broadcasting": 13,
    "wal": 4,
    "breaks": 42,
    "cows": 10,
    "habits": 15,
    "clothing": 33,
    "pr": 65,
    "mater": 6,
    "nude": 3,
    "coat": 28,
    "coats": 5,
    "##tal": 58,
    "wears": 9,
    "clothes": 33,
    "dressed": 13,
    "wallet": 15,
    "pocket": 32,
    "coven": 1,
    "unlock": 16,
    "necks": 4,
    "yelling": 12,
    "lbs": 21,
    "inches": 49,
    "forceful": 2,
    "revenue": 23,
    "meant": 162,
    "pirates": 13,
    "bot": 11,
    "##ched": 20,
    "picks": 24,
    "fia": 10,
    "##sco": 30,
    "prize": 38,
    "earnings": 3,
    "purse": 6,
    "divided": 35,
    "winners": 60,
    "sep": 59,
    "##ope": 3,
    "vacation": 24,
    "eligible": 17,
    "##oge": 8,
    "##class": 19,
    "forget": 166,
    "##ides": 3,
    "resolutions": 28,
    "clash": 6,
    "pilgrims": 3,
    "1981": 51,
    "riots": 21,
    "1989": 134,
    "1972": 38,
    "1974": 42,
    "kills": 23,
    "1976": 34,
    "slaves": 30,
    "disaster": 35,
    "destroys": 10,
    "##rac": 48,
    "worship": 109,
    "mob": 41,
    "riot": 26,
    "wheel": 93,
    "climb": 6,
    "link": 98,
    "clients": 112,
    "bt": 27,
    "advertising": 57,
    "colors": 173,
    "##att": 20,
    "mig": 40,
    "##raine": 36,
    "arguably": 13,
    "##logic": 11,
    "##rg": 34,
    "##ua": 41,
    "##rano": 4,
    "aura": 15,
    "intrinsic": 27,
    "##ial": 107,
    "##uron": 4,
    "spreading": 17,
    "vascular": 2,
    "causing": 72,
    "va": 126,
    "##che": 44,
    "fu": 62,
    "##asurable": 11,
    "brain": 121,
    "mafia": 3,
    "unlike": 57,
    "absurd": 46,
    "absence": 36,
    "taut": 9,
    "##olo": 19,
    "##gic": 13,
    "treats": 18,
    "treat": 78,
    "headache": 48,
    "colleagues": 22,
    "##rou": 48,
    "##nging": 4,
    "fill": 82,
    "keyboard": 245,
    "layout": 45,
    "stretches": 10,
    "thirsty": 8,
    "caf": 12,
    "##fe": 36,
    "holder": 21,
    "elevation": 3,
    "##rem": 36,
    "##umber": 2,
    "copyright": 82,
    "amin": 1,
    "##ha": 62,
    "pi": 126,
    "doc": 102,
    "raw": 47,
    "ding": 13,
    "##eb": 15,
    "printing": 64,
    "occasional": 29,
    "diagram": 20,
    "##ck": 38,
    "##31": 41,
    "quicker": 15,
    "##wo": 41,
    "##lf": 22,
    "mt": 49,
    "silly": 70,
    "pointing": 48,
    "transmission": 86,
    "scrambled": 3,
    "underground": 24,
    "##32": 68,
    "##ice": 43,
    "corresponding": 46,
    "usable": 24,
    "fancy": 50,
    "wrapped": 19,
    "berkeley": 71,
    "packet": 20,
    "scenes": 23,
    "landing": 42,
    "pulled": 72,
    "gates": 13,
    "stress": 39,
    "advanced": 62,
    "types": 190,
    "struggles": 7,
    "abbreviation": 13,
    "rag": 7,
    "stared": 4,
    "##had": 17,
    "computers": 108,
    "##uen": 87,
    "##fs": 36,
    "metallic": 15,
    "brass": 9,
    "steel": 35,
    "stein": 6,
    "washington": 27,
    "##ster": 39,
    "bites": 7,
    "##to": 147,
    "##ll": 44,
    "identification": 52,
    "##em": 157,
    "##ptive": 12,
    "soul": 83,
    "superior": 57,
    "##ification": 35,
    "previously": 90,
    "persona": 9,
    "##ges": 27,
    "##ologist": 15,
    "embarrassment": 9,
    "dismissing": 5,
    "dismiss": 20,
    "philosophy": 68,
    "weaknesses": 18,
    "expresses": 7,
    "masses": 30,
    "winning": 99,
    "discover": 33,
    "opponent": 41,
    "unaware": 17,
    "##matic": 33,
    "graduates": 6,
    "ethernet": 27,
    "##shi": 8,
    "##ba": 59,
    "##ulation": 41,
    "##ma": 410,
    "##rso": 85,
    "wasting": 28,
    "playoff": 65,
    "colonists": 4,
    "tap": 56,
    "coffee": 22,
    "pour": 16,
    "##hyl": 6,
    "##ene": 14,
    "##col": 20,
    "##free": 6,
    "##han": 25,
    "##ol": 62,
    "sweet": 29,
    "guts": 15,
    "god": 201,
    "managed": 90,
    "feat": 11,
    "noticed": 148,
    "instituted": 12,
    "##gist": 17,
    "##ered": 35,
    "claiming": 82,
    "cautious": 8,
    "heated": 8,
    "stock": 96,
    "##pile": 100,
    "recall": 154,
    "smoke": 125,
    "powder": 14,
    "temperatures": 18,
    "une": 59,
    "##burn": 6,
    "fireworks": 2,
    "##rio": 14,
    "relics": 1,
    "##gren": 2,
    "##ades": 1,
    "##script": 11,
    "identify": 63,
    "huh": 37,
    "##head": 42,
    "backyard": 4,
    "unfortunately": 50,
    "enterprise": 16,
    "fide": 5,
    "provocative": 8,
    "junction": 12,
    "smooth": 46,
    "triple": 41,
    "##amp": 44,
    "octopus": 13,
    "symbolism": 4,
    "commerce": 7,
    "blame": 74,
    "##zoo": 8,
    "##away": 13,
    "##per": 191,
    "##ience": 33,
    "pathetic": 15,
    "rightful": 11,
    "unhappy": 20,
    "motorcycle": 90,
    "sr": 44,
    "appreciation": 5,
    "el": 82,
    "##ab": 46,
    "##oration": 2,
    "excerpt": 9,
    "featured": 11,
    "empire": 17,
    "roles": 12,
    "430": 19,
    "bishops": 16,
    "meetings": 33,
    "fare": 9,
    "affairs": 37,
    "interfered": 8,
    "exiled": 3,
    "interference": 60,
    "451": 12,
    "unfair": 26,
    "accused": 34,
    "teachings": 63,
    "##phy": 25,
    "##sit": 42,
    "maintains": 24,
    "divine": 75,
    "portrayed": 5,
    "divinity": 14,
    "united": 9,
    "##rna": 16,
    "reiterated": 12,
    "ming": 4,
    "confusion": 43,
    "alteration": 4,
    "liturgy": 28,
    "moment": 140,
    "twin": 27,
    "##kling": 3,
    "misunderstood": 11,
    "5th": 38,
    "exile": 10,
    "isolate": 7,
    "remained": 36,
    "strict": 49,
    "ste": 58,
    "##fast": 5,
    "refusal": 17,
    "politically": 29,
    "influenced": 16,
    "mandate": 30,
    "semantic": 8,
    "apt": 12,
    "successor": 9,
    "semantics": 9,
    "terminology": 19,
    "importance": 71,
    "movement": 104,
    "founders": 10,
    "council": 16,
    "dialogues": 2,
    "aiming": 5,
    "##sey": 5,
    "condemned": 20,
    "##itan": 14,
    "apology": 12,
    "explains": 35,
    "##tical": 44,
    "extremes": 8,
    "descended": 7,
    "supposedly": 63,
    "descendants": 9,
    "sheltered": 9,
    "adopt": 30,
    "##sies": 8,
    "representatives": 43,
    "bucks": 35,
    "##00": 492,
    "accelerator": 75,
    "quad": 22,
    "##ra": 120,
    "laps": 12,
    "pen": 83,
    "##tium": 5,
    "##tro": 88,
    "##ller": 22,
    "chi": 45,
    "##rp": 49,
    "equality": 6,
    "##hir": 16,
    "terminals": 49,
    "##sca": 58,
    "strings": 47,
    "verdict": 26,
    "determined": 81,
    "guilt": 29,
    "innocence": 11,
    "harder": 57,
    "##pate": 21,
    "sacrificed": 10,
    "##vert": 82,
    "##antly": 25,
    "45th": 5,
    "tapes": 67,
    "##bal": 11,
    "merits": 18,
    "##pus": 19,
    "update": 67,
    "longest": 11,
    "critical": 82,
    "remarkable": 18,
    "zero": 78,
    "councils": 2,
    "enormous": 41,
    "quantities": 16,
    "volumes": 13,
    "tracts": 8,
    "denies": 24,
    "considerably": 33,
    "compelling": 15,
    "harmony": 13,
    "gospels": 19,
    "1750": 2,
    "distribution": 173,
    "server": 554,
    "##aries": 85,
    "mike": 28,
    "hopper": 8,
    "##ome": 57,
    "##osis": 21,
    "surgeon": 9,
    "carolina": 1,
    "triangle": 12,
    "raleigh": 1,
    "durham": 1,
    "chapel": 1,
    "hill": 23,
    "##rift": 3,
    "astronaut": 27,
    "shelf": 29,
    "compensate": 14,
    "guidance": 18,
    "afterward": 12,
    "contamination": 13,
    "inaccessible": 6,
    "stays": 22,
    "tug": 3,
    "suited": 15,
    "develop": 137,
    "prospect": 23,
    "hockey": 251,
    "scouts": 4,
    "inclusion": 16,
    "shi": 10,
    "##rri": 32,
    "##ff": 172,
    "##rite": 20,
    "##24": 86,
    "##eh": 11,
    "ag": 106,
    "subset": 24,
    "probable": 34,
    "arises": 16,
    "facto": 22,
    "obtain": 152,
    "##dm": 97,
    "##issa": 3,
    "interception": 8,
    "intercepted": 11,
    "arch": 28,
    "##iving": 25,
    "consent": 26,
    "interpreted": 42,
    "analogous": 11,
    "technically": 28,
    "feasible": 35,
    "avenues": 7,
    "trump": 3,
    "investigation": 79,
    "sadly": 12,
    "jury": 34,
    "caution": 18,
    "##ary": 52,
    "tale": 16,
    "projecting": 4,
    "sf": 28,
    "stories": 92,
    "starts": 119,
    "slippery": 11,
    "slope": 15,
    "##ghi": 1,
    "repository": 14,
    "streets": 37,
    "banks": 46,
    "teller": 1,
    "covering": 47,
    "cubic": 12,
    "thorough": 24,
    "curt": 11,
    "##ailed": 3,
    "walk": 89,
    "lane": 42,
    "tracking": 37,
    "conscious": 22,
    "speeding": 24,
    "detector": 65,
    "elm": 6,
    "politicians": 34,
    "exemption": 7,
    "corporations": 16,
    "industrial": 43,
    "espionage": 17,
    "preservation": 14,
    "cbn": 14,
    "##sk": 7,
    "cb": 34,
    "warped": 11,
    "##ku": 20,
    "graduated": 6,
    "condo": 25,
    "900": 109,
    "##11": 439,
    "##10": 323,
    "cabinets": 2,
    "carpet": 12,
    "excluding": 21,
    "bath": 33,
    "converting": 40,
    "central": 57,
    "landscaping": 2,
    "pool": 58,
    "tennis": 13,
    "refrigerator": 5,
    "ceiling": 17,
    "curtains": 7,
    "mantle": 5,
    "basement": 26,
    "und": 147,
    "##ign": 17,
    "##ated": 89,
    "parking": 39,
    "bliss": 9,
    "##own": 11,
    "arrange": 18,
    "ca": 267,
    "om": 87,
    "##mission": 9,
    "agency": 106,
    "null": 38,
    "french": 13,
    "counting": 29,
    "ron": 8,
    "roth": 4,
    "rose": 24,
    "vertebrae": 4,
    "sac": 31,
    "##rum": 13,
    "applying": 28,
    "bone": 34,
    "endless": 15,
    "##ral": 19,
    "spine": 25,
    "solid": 116,
    "##mba": 10,
    "##rized": 7,
    "variant": 20,
    "adjust": 39,
    "flows": 10,
    "##ium": 11,
    "toe": 9,
    "ate": 25,
    "complain": 65,
    "unreasonable": 24,
    "##lp": 27,
    "##nee": 3,
    "affect": 67,
    "queer": 9,
    "roger": 5,
    "presence": 94,
    "parade": 5,
    "organizers": 11,
    "responsibilities": 24,
    "regards": 34,
    "stupid": 172,
    "##leg": 15,
    "ignorance": 70,
    "civic": 4,
    "comprehend": 17,
    "howard": 3,
    "##feld": 5,
    "##ser": 52,
    "wed": 3,
    "cleveland": 12,
    "stadium": 22,
    "average": 242,
    "congress": 97,
    "suitable": 61,
    "andrew": 46,
    "sneak": 14,
    "transport": 33,
    "filter": 52,
    "##cide": 15,
    "##red": 89,
    "spent": 161,
    "merging": 6,
    "hampered": 6,
    "ours": 33,
    "syn": 22,
    "##opsis": 3,
    "mechanical": 41,
    "aid": 93,
    "flex": 14,
    "tub": 13,
    "aqua": 9,
    "##naut": 5,
    "breathing": 21,
    "breathe": 7,
    "expanded": 33,
    "displaying": 35,
    "traffic": 167,
    "slow": 184,
    "##tag": 5,
    "invariably": 8,
    "poses": 13,
    "##km": 24,
    "immensely": 6,
    "saga": 6,
    "##do": 55,
    "##llar": 3,
    "prefix": 20,
    "##un": 60,
    "launches": 48,
    "realistic": 28,
    "ambitious": 8,
    "sustained": 19,
    "dominates": 4,
    "amusing": 21,
    "frustration": 9,
    "challenged": 18,
    "cultural": 69,
    "linguistic": 6,
    "manipulation": 54,
    "ideology": 16,
    "conquer": 10,
    "exploitation": 2,
    "repression": 9,
    "pays": 26,
    "wage": 25,
    "tone": 60,
    "1983": 77,
    "1984": 64,
    "hunting": 27,
    "clubs": 20,
    "##sb": 28,
    "waivers": 9,
    "gamble": 3,
    "wang": 2,
    "conflict": 108,
    "peripheral": 23,
    "pc": 99,
    "conservatives": 13,
    "##200": 21,
    "colour": 61,
    "flipping": 7,
    "animation": 65,
    "task": 93,
    "aerial": 6,
    "photographs": 24,
    "##pol": 43,
    "density": 38,
    "crowd": 97,
    "derive": 14,
    "##imating": 12,
    "troop": 5,
    "strength": 64,
    "##ological": 16,
    "budgets": 13,
    "alternate": 25,
    "nights": 31,
    "realise": 14,
    "enhance": 26,
    "reactions": 34,
    "promote": 53,
    "communicate": 29,
    "cells": 67,
    "specialized": 17,
    "organism": 23,
    "photographic": 5,
    "photography": 24,
    "interact": 18,
    "organisms": 17,
    "popular": 123,
    "tissues": 3,
    "nerves": 18,
    "fishes": 4,
    "clearly": 217,
    "manipulating": 10,
    "healing": 22,
    "broken": 116,
    "bones": 25,
    "furry": 1,
    "sentimental": 4,
    "fool": 57,
    "youth": 42,
    "ought": 73,
    "combustion": 14,
    "twenty": 40,
    "foul": 31,
    "ball": 159,
    "valuable": 59,
    "scores": 56,
    "wins": 73,
    "irrational": 29,
    "hometown": 2,
    "professor": 34,
    "unit": 251,
    "surveyed": 5,
    "scanner": 63,
    "scanning": 14,
    "editing": 26,
    "tad": 16,
    "scans": 10,
    "##ther": 36,
    "desired": 51,
    "##ices": 9,
    "##ane": 23,
    "scanned": 26,
    "excused": 5,
    "varies": 24,
    "budget": 121,
    "wise": 66,
    "si": 106,
    "cuts": 34,
    "bow": 16,
    "snake": 9,
    "legs": 50,
    "supernatural": 27,
    "kicked": 21,
    "fruit": 47,
    "powers": 55,
    "operate": 69,
    "surplus": 12,
    "reputed": 2,
    "viewing": 50,
    "##ental": 27,
    "constitutional": 42,
    "amendment": 67,
    "enjoys": 11,
    "raising": 11,
    "taxes": 97,
    "forcing": 36,
    "##oss": 13,
    "##ibility": 28,
    "freeze": 23,
    "confidence": 32,
    "gauge": 23,
    "consumption": 24,
    "##sin": 28,
    "##cent": 34,
    "prizes": 10,
    "aerospace": 22,
    "financial": 45,
    "rei": 20,
    "##urse": 8,
    "transatlantic": 1,
    "ultimately": 33,
    "strongly": 86,
    "##sight": 7,
    "stake": 14,
    "##asi": 28,
    "skin": 70,
    "miserable": 11,
    "##mple": 8,
    "luke": 8,
    "##war": 22,
    "ri": 47,
    "##ging": 67,
    "##water": 28,
    "softened": 2,
    "washing": 9,
    "mineral": 8,
    "io": 95,
    "##dine": 4,
    "restaurants": 18,
    "equipment": 178,
    "grease": 7,
    "meat": 38,
    "##uss": 17,
    "dip": 27,
    "spray": 14,
    "##aks": 4,
    "cloth": 18,
    "por": 4,
    "##phi": 49,
    "##lic": 19,
    "##ens": 62,
    "limp": 4,
    "##yne": 5,
    "convinced": 76,
    "whitehead": 4,
    "misery": 8,
    "pry": 4,
    "infections": 35,
    "naturally": 39,
    "infection": 48,
    "cosmetic": 8,
    "incredible": 22,
    "defect": 11,
    "1913": 7,
    "minus": 27,
    "##lio": 16,
    "explaining": 39,
    "emphasizing": 5,
    "proceeding": 14,
    "formulation": 8,
    "prof": 36,
    "stem": 9,
    "##jo": 21,
    "##ined": 4,
    "fountain": 7,
    "##iv": 35,
    "##isi": 31,
    "forms": 78,
    "coherent": 12,
    "proceeds": 21,
    "separated": 31,
    "##rid": 14,
    "apex": 3,
    "reckon": 16,
    "procession": 8,
    "emphasize": 20,
    "##emi": 20,
    "##nent": 12,
    "##go": 106,
    "theologians": 14,
    "employ": 26,
    "born": 135,
    "principally": 3,
    "interval": 15,
    "jointly": 19,
    "##hore": 2,
    "##otte": 12,
    "proceed": 30,
    "quota": 41,
    "adoption": 11,
    "forbidden": 11,
    "compose": 5,
    "confession": 11,
    "condemning": 16,
    "##gement": 6,
    "radically": 14,
    "denied": 49,
    "additions": 21,
    "affirmed": 11,
    "fuller": 3,
    "explanations": 33,
    "den": 112,
    "##rating": 15,
    "disputed": 16,
    "faithful": 31,
    "conform": 42,
    "abundant": 11,
    "425": 17,
    "shall": 223,
    "announce": 45,
    "##ela": 10,
    "substance": 63,
    "synthesis": 9,
    "midst": 13,
    "existed": 54,
    "silent": 32,
    "acknowledged": 24,
    "cited": 43,
    "confess": 24,
    "besides": 66,
    "hence": 61,
    "libraries": 92,
    "compiled": 71,
    "upgrading": 28,
    "brains": 30,
    "##torm": 3,
    "grew": 32,
    "developer": 23,
    "raises": 24,
    "horses": 18,
    "inflation": 8,
    "mortgage": 6,
    "invest": 19,
    "currency": 15,
    "##ulator": 29,
    "apparently": 148,
    "##sha": 13,
    "readings": 16,
    "cart": 21,
    "##lid": 10,
    "##ge": 118,
    "##his": 17,
    "knee": 24,
    "surgery": 44,
    "##pu": 78,
    "##nched": 8,
    "1945": 9,
    "1778": 1,
    "envelope": 32,
    "116": 50,
    "1846": 2,
    "102": 247,
    "postage": 23,
    "##games": 1,
    "1980": 71,
    "hardcover": 12,
    "285": 31,
    "payment": 24,
    "shipping": 216,
    "7th": 43,
    "collin": 1,
    "sphere": 41,
    "##lane": 3,
    "circle": 56,
    "perpendicular": 14,
    "bis": 8,
    "meet": 128,
    "centre": 28,
    "##qui": 89,
    "##dis": 100,
    "##tan": 40,
    "diameter": 32,
    "coincide": 9,
    "rv": 15,
    "##kat": 6,
    "3000": 54,
    "rpm": 22,
    "pipes": 31,
    "##vable": 32,
    "##bai": 8,
    "ju": 28,
    "##mbo": 10,
    "jet": 18,
    "yards": 11,
    "threshold": 21,
    "permits": 39,
    "mutually": 10,
    "exclusive": 33,
    "lend": 18,
    "notion": 65,
    "estimates": 29,
    "partition": 28,
    "reduces": 22,
    "prey": 21,
    "phenomenon": 23,
    "sat": 84,
    "explained": 87,
    "analyzing": 4,
    "minded": 40,
    "##ific": 13,
    "razor": 2,
    "##for": 30,
    "##ard": 30,
    "simpler": 24,
    "scientists": 80,
    "diversity": 10,
    "##bot": 6,
    "##omy": 12,
    "frontal": 5,
    "lobe": 6,
    "straighten": 11,
    "grandparents": 14,
    "criminal": 164,
    "cousins": 4,
    "##tera": 24,
    "timeless": 4,
    "desire": 79,
    "struggle": 45,
    "##ution": 18,
    "unite": 12,
    "visual": 162,
    "##ization": 172,
    "beam": 28,
    "##moral": 59,
    "##tish": 6,
    "##gam": 6,
    "elaborate": 26,
    "kane": 2,
    "##ast": 30,
    "bears": 18,
    "treasure": 10,
    "sanctuary": 5,
    "bear": 137,
    "provoked": 3,
    "##vy": 2,
    "visitors": 5,
    "explosion": 25,
    "##anger": 10,
    "phil": 33,
    "##oso": 13,
    "wilderness": 5,
    "fund": 78,
    "kevin": 10,
    "##las": 23,
    "##emy": 4,
    "likes": 32,
    "sob": 6,
    "outright": 25,
    "##ege": 22,
    "ownership": 56,
    "sensible": 19,
    "owns": 33,
    "pillar": 3,
    "bleeding": 11,
    "##lok": 1,
    "bun": 25,
    "sd": 25,
    "##roy": 6,
    "##rin": 16,
    "howl": 6,
    "##and": 17,
    "europa": 2,
    "eng": 29,
    "gt": 13,
    "##ef": 47,
    "emory": 2,
    "athena": 12,
    "ai": 48,
    "##sun": 19,
    "##ov": 12,
    "toad": 26,
    "pg": 39,
    "corn": 46,
    "implicated": 16,
    "potent": 10,
    "##iate": 22,
    "seizure": 27,
    "disorder": 18,
    "obe": 11,
    "coma": 14,
    "##tose": 6,
    "grand": 37,
    "attending": 15,
    "festival": 7,
    "pumped": 8,
    "seemed": 119,
    "intact": 24,
    "kern": 2,
    "##als": 15,
    "tempted": 17,
    "acute": 22,
    "afl": 6,
    "##ato": 7,
    "##xin": 10,
    "##15": 51,
    "amateur": 28,
    "electronic": 144,
    "finding": 102,
    "displays": 91,
    "priced": 29,
    "##mt": 23,
    "distributors": 10,
    "offering": 37,
    "##cula": 32,
    "##tors": 50,
    "retailer": 3,
    "buys": 11,
    "wholesale": 12,
    "labor": 62,
    "packaging": 32,
    "transportation": 22,
    "obliged": 12,
    "carbon": 17,
    "##stone": 3,
    "suffering": 76,
    "continuation": 9,
    "##iver": 16,
    "sentiment": 8,
    "condemn": 31,
    "ordinary": 70,
    "hide": 67,
    "torture": 46,
    "##bel": 25,
    "guessing": 23,
    "realized": 65,
    "abruptly": 8,
    "truck": 70,
    "tags": 1,
    "tag": 15,
    "rides": 28,
    "luggage": 4,
    "positioning": 13,
    "brakes": 41,
    "arts": 15,
    "paperback": 14,
    "lent": 10,
    "##fulness": 11,
    "##no": 69,
    "##eter": 26,
    "##minate": 14,
    "unsure": 8,
    "##hen": 21,
    "##tle": 15,
    "##cs": 61,
    "signature": 57,
    "scripture": 55,
    "revelation": 66,
    "conflicting": 16,
    "fake": 33,
    "logical": 110,
    "cave": 18,
    "mathew": 7,
    "addressing": 47,
    "connections": 54,
    "##ground": 32,
    "specifies": 19,
    "nasty": 39,
    "##wt": 9,
    "##gis": 15,
    "pri": 30,
    "##vil": 3,
    "turkey": 7,
    "##scribe": 77,
    "grape": 7,
    "nsw": 3,
    "syndrome": 39,
    "##mot": 7,
    "##lia": 50,
    "situ": 6,
    "##iec": 1,
    "##tas": 23,
    "organs": 13,
    "partial": 22,
    "lateral": 4,
    "##rity": 16,
    "##dro": 7,
    "##som": 11,
    "recess": 6,
    "##dit": 19,
    "##ii": 15,
    "pediatric": 13,
    "genetic": 40,
    "##ics": 44,
    "monitors": 92,
    "julia": 1,
    "reflect": 37,
    "ip": 34,
    "##ld": 69,
    "ha": 130,
    "trademark": 10,
    "saving": 48,
    "##dt": 7,
    "flu": 41,
    "##rry": 8,
    "##tar": 34,
    "phantom": 7,
    "mic": 13,
    "##boards": 16,
    "##sable": 39,
    "stations": 36,
    "electricity": 26,
    "conventional": 52,
    "coal": 12,
    "resultant": 5,
    "turbines": 4,
    "##ond": 25,
    "##wang": 2,
    "mentor": 7,
    "purchase": 127,
    "shots": 123,
    "cream": 13,
    "swiss": 1,
    "watching": 94,
    "leaning": 26,
    "searching": 43,
    "irrelevant": 61,
    "mir": 6,
    "tactic": 15,
    "##qu": 10,
    "parameters": 55,
    "compiling": 17,
    "outputs": 23,
    "##gni": 26,
    "##za": 20,
    "projectile": 17,
    "traveling": 15,
    "lethal": 27,
    "muzzle": 3,
    "proximity": 6,
    "victim": 58,
    "lawful": 29,
    "graves": 8,
    "deadly": 29,
    "incident": 68,
    "stopped": 128,
    "##ail": 28,
    "aggregate": 5,
    "decimal": 12,
    "##mas": 26,
    "tony": 9,
    "ss": 40,
    "sb": 16,
    "##wk": 7,
    "nj": 6,
    "ama": 12,
    "##zes": 12,
    "administration": 131,
    "initiated": 18,
    "horror": 17,
    "presidency": 4,
    "fai": 7,
    "lay": 89,
    "##ieving": 6,
    "programming": 150,
    "drag": 61,
    "cult": 90,
    "##mes": 29,
    "nc": 112,
    "ni": 158,
    "confuse": 34,
    "ness": 12,
    "chicken": 17,
    "egg": 13,
    "luckily": 5,
    "xv": 62,
    "ld": 40,
    "##cm": 21,
    "fails": 71,
    "returns": 73,
    "poked": 3,
    "karen": 1,
    "neck": 39,
    "rein": 45,
    "receiving": 68,
    "associations": 10,
    "education": 148,
    "sand": 20,
    "##tine": 55,
    "tired": 46,
    "##mps": 6,
    "##ting": 265,
    "##ired": 5,
    "characterization": 12,
    "##amps": 10,
    "margin": 28,
    "157": 29,
    "##stick": 43,
    "doug": 8,
    "detect": 82,
    "monitoring": 33,
    "detecting": 17,
    "pulse": 20,
    "mv": 17,
    "dim": 33,
    "##sma": 5,
    "##iom": 13,
    "row": 62,
    "smallest": 22,
    "supplies": 28,
    "replace": 137,
    "##isto": 27,
    "league": 213,
    "designing": 33,
    "appealing": 10,
    "tips": 28,
    "##ying": 7,
    "gratitude": 5,
    "winter": 40,
    "##rse": 7,
    "##rk": 14,
    "shell": 159,
    "grateful": 31,
    "strain": 13,
    "flicker": 8,
    "720": 20,
    "protected": 87,
    "thoroughly": 28,
    "draining": 3,
    "mechanic": 20,
    "aide": 11,
    "gasp": 7,
    "appointment": 17,
    "##zo": 21,
    "##zos": 7,
    "senators": 17,
    "ending": 38,
    "##ius": 9,
    "##tre": 50,
    "corporate": 27,
    "aligned": 7,
    "boeing": 15,
    "##entes": 1,
    "tourism": 5,
    "pat": 11,
    "sees": 46,
    "studying": 24,
    "pronounced": 10,
    "##oro": 19,
    "##sis": 43,
    "whereby": 14,
    "##thus": 3,
    "hop": 35,
    "someday": 21,
    "incentive": 17,
    "operational": 27,
    "gps": 3,
    "navigation": 14,
    "##mun": 77,
    "##ica": 39,
    "##ication": 15,
    "sectors": 27,
    "technologies": 55,
    "invested": 6,
    "condor": 1,
    "maj": 1,
    "##ella": 6,
    "importantly": 18,
    "lowering": 6,
    "##eal": 9,
    "filed": 32,
    "jump": 66,
    "##media": 10,
    "arena": 37,
    "senator": 5,
    "##gina": 23,
    "penis": 10,
    "ratings": 23,
    "outrageous": 15,
    "idiots": 21,
    "funny": 71,
    "entertain": 10,
    "closer": 84,
    "sustain": 13,
    "greg": 5,
    "puck": 120,
    "web": 5,
    "##pin": 18,
    "attend": 30,
    "aggravated": 10,
    "disbelief": 13,
    "conversion": 75,
    "punish": 41,
    "jurist": 1,
    "trend": 33,
    "insisted": 19,
    "unveiled": 3,
    "downtown": 15,
    "logo": 35,
    "penguin": 3,
    "scarf": 7,
    "artist": 15,
    "painted": 12,
    "thumped": 1,
    "join": 83,
    "tutor": 49,
    "##ials": 14,
    "##cp": 5,
    "##44": 63,
    "##33": 51,
    "##ural": 12,
    "priesthood": 18,
    "resumed": 6,
    "trading": 29,
    "captains": 6,
    "awarded": 19,
    "inherited": 9,
    "leaf": 5,
    "retired": 28,
    "streak": 15,
    "reverse": 77,
    "skate": 37,
    "fascinating": 19,
    "franchise": 27,
    "ancestry": 8,
    "tracing": 28,
    "involvement": 37,
    "eun": 2,
    "##uch": 14,
    "chapter": 69,
    "earliest": 18,
    "conversions": 9,
    "treasurer": 4,
    "queen": 7,
    "indicated": 43,
    "bless": 16,
    "grant": 91,
    "forgiveness": 17,
    "permission": 84,
    "american": 22,
    "appalachian": 1,
    "1800": 12,
    "1820": 3,
    "america": 9,
    "ignoring": 41,
    "whaling": 5,
    "coincidentally": 3,
    "mega": 77,
    "##ton": 26,
    "##nes": 9,
    "minerals": 7,
    "arrangement": 24,
    "rene": 4,
    "query": 31,
    "parishes": 8,
    "coincidence": 16,
    "pastor": 23,
    "emeritus": 3,
    "directed": 70,
    "introduced": 50,
    "ban": 93,
    "##ality": 5,
    "parish": 19,
    "helium": 7,
    "balloons": 8,
    "distributed": 112,
    "risen": 28,
    "kidd": 7,
    "attended": 24,
    "generous": 17,
    "extreme": 68,
    "sedan": 22,
    "##hips": 6,
    "manufacturer": 66,
    "##stand": 25,
    "articulated": 5,
    "shells": 14,
    "strands": 3,
    "##riders": 1,
    "professionals": 30,
    "frozen": 14,
    "favorite": 84,
    "fright": 11,
    "thin": 36,
    "##cut": 32,
    "thick": 24,
    "rope": 11,
    "shielded": 14,
    "adjustable": 14,
    "sq": 63,
    "##uis": 27,
    "cutter": 8,
    "jaws": 2,
    "bets": 5,
    "thief": 16,
    "grind": 11,
    "durable": 5,
    "yield": 19,
    "disturbing": 24,
    "filing": 13,
    "##crow": 249,
    "bytes": 149,
    "##ume": 19,
    "magnitude": 31,
    "calculation": 18,
    "gig": 11,
    "##aby": 8,
    "databases": 42,
    "clip": 150,
    "safeguard": 34,
    "stumbling": 3,
    "convenience": 29,
    "retrieval": 10,
    "##lusion": 4,
    "prayer": 47,
    "##notes": 9,
    "realism": 1,
    "conversations": 75,
    "awful": 88,
    "intelligence": 83,
    "evil": 161,
    "spying": 12,
    "operation": 159,
    "friendly": 48,
    "secrets": 27,
    "##yst": 104,
    "##aine": 8,
    "fraction": 34,
    "unauthorized": 26,
    "teachers": 29,
    "lump": 15,
    "##ever": 19,
    "spite": 27,
    "growth": 67,
    "forever": 53,
    "inevitable": 28,
    "bureau": 27,
    "subordinate": 7,
    "wr": 29,
    "yu": 18,
    "onions": 2,
    "startup": 52,
    "doubles": 18,
    "##ded": 53,
    "minimize": 22,
    "anonymous": 416,
    "successfully": 46,
    "##utter": 16,
    "idle": 26,
    "bothered": 36,
    "##tia": 57,
    "prince": 15,
    "parted": 6,
    "estimated": 34,
    "##para": 14,
    "authorities": 114,
    "fisherman": 3,
    "livelihood": 5,
    "waters": 14,
    "chariot": 2,
    "##eers": 1,
    "casualties": 23,
    "provider": 13,
    "bound": 63,
    "##rant": 38,
    "intel": 24,
    "##gb": 13,
    "##ffi": 29,
    "guessed": 21,
    "bb": 27,
    "greeting": 8,
    "233": 30,
    "oxford": 5,
    "uk": 197,
    "krishna": 1,
    "##ject": 50,
    "gut": 32,
    "muscular": 4,
    "pinch": 31,
    "absorb": 15,
    "differs": 12,
    "injection": 30,
    "sides": 89,
    "irritation": 7,
    "##cture": 19,
    "##rata": 4,
    "injected": 11,
    "bandage": 5,
    "##rte": 7,
    "diabetes": 19,
    "1600": 15,
    "##14": 81,
    "membership": 69,
    "party": 161,
    "storing": 11,
    "pleasure": 22,
    "compassion": 18,
    "enjoyed": 18,
    "seek": 73,
    "ff": 22,
    "##dly": 18,
    "righteous": 55,
    "disciples": 58,
    "overcome": 19,
    "fiery": 4,
    "sulfur": 9,
    "indication": 44,
    "beast": 28,
    "tormented": 4,
    "wicked": 19,
    "grave": 42,
    "advocating": 17,
    "passages": 66,
    "extinction": 3,
    "speaks": 43,
    "convince": 92,
    "commented": 19,
    "damned": 25,
    "resurrected": 8,
    "literal": 24,
    "angels": 33,
    "judgement": 73,
    "##ement": 22,
    "cursed": 3,
    "prophet": 81,
    "torment": 10,
    "entities": 30,
    "similarly": 27,
    "contrast": 48,
    "explicitly": 61,
    "presumably": 50,
    "frame": 133,
    "##adi": 6,
    "sinn": 42,
    "##truct": 42,
    "counsel": 16,
    "doubtful": 8,
    "sorrow": 4,
    "patiently": 5,
    "forgive": 31,
    "injury": 81,
    "bore": 13,
    "##ishing": 1,
    "neglected": 10,
    "##48": 74,
    "lorenzo": 1,
    "similarity": 13,
    "displacement": 9,
    "coupe": 9,
    "vinyl": 11,
    "album": 7,
    "calculating": 5,
    "##zier": 6,
    "horn": 31,
    "engaging": 18,
    "clutch": 54,
    "accelerating": 9,
    "bright": 36,
    "potential": 151,
    "hazard": 17,
    "attracting": 4,
    "##dote": 13,
    "constitutes": 17,
    "toronto": 26,
    "uncover": 8,
    "flaws": 22,
    "dependent": 47,
    "sophisticated": 35,
    "generates": 26,
    "##34": 31,
    "premises": 32,
    "triumph": 11,
    "##mine": 16,
    "##ones": 23,
    "fledged": 4,
    "bundled": 22,
    "pitches": 11,
    "bold": 29,
    "overs": 38,
    "disturbed": 6,
    "theme": 24,
    "##ease": 29,
    "bench": 62,
    "sit": 77,
    "crucial": 27,
    "emotion": 12,
    "accepts": 22,
    "saves": 77,
    "sudden": 33,
    "wrestled": 3,
    "decisions": 94,
    "##lo": 95,
    "yanked": 4,
    "resume": 17,
    "satisfy": 33,
    "hunger": 6,
    "popcorn": 2,
    "starter": 31,
    "wondered": 29,
    "insisting": 9,
    "##bbed": 5,
    "emerged": 9,
    "elite": 14,
    "satisfied": 41,
    "blaming": 16,
    "losses": 27,
    "remark": 117,
    "stung": 6,
    "struggled": 7,
    "slump": 12,
    "roster": 28,
    "string": 158,
    "##nia": 31,
    "shoulder": 32,
    "expectations": 25,
    "perfection": 13,
    "poorly": 28,
    "knocked": 30,
    "barry": 2,
    "counted": 32,
    "drew": 11,
    "rating": 43,
    "averaged": 8,
    "aired": 7,
    "willis": 7,
    "monde": 1,
    "##ev": 38,
    "programme": 8,
    "##cked": 9,
    "pleas": 7,
    "ava": 16,
    "francais": 1,
    "accord": 16,
    "##hun": 11,
    "hydrogen": 15,
    "cleaner": 24,
    "efficient": 40,
    "transition": 22,
    "underway": 16,
    "shortage": 4,
    "##ager": 8,
    "resources": 169,
    "gem": 8,
    "volcano": 8,
    "torch": 9,
    "cleansing": 18,
    "adam": 23,
    "das": 27,
    "distinction": 41,
    "##iq": 25,
    "##uit": 57,
    "forgiven": 13,
    "sin": 287,
    "blessed": 22,
    "unto": 52,
    "##ute": 32,
    "sins": 72,
    "##gi": 35,
    "##ven": 62,
    "millions": 77,
    "billions": 20,
    "##wise": 20,
    "cf": 26,
    "speculation": 41,
    "throne": 12,
    "judgments": 9,
    "divisions": 12,
    "ala": 25,
    "##alis": 8,
    "solo": 7,
    "projection": 16,
    "puts": 54,
    "pitching": 95,
    "##balls": 12,
    "fatal": 40,
    "adult": 48,
    "dose": 25,
    "##lent": 13,
    "dil": 25,
    "pupils": 4,
    "cardiac": 3,
    "##rh": 42,
    "##yt": 29,
    "##hmi": 5,
    "contend": 27,
    "moves": 51,
    "estimation": 6,
    "##gur": 77,
    "assistance": 74,
    "##ow": 37,
    "##fb": 7,
    "##uous": 26,
    "federal": 178,
    "stripping": 11,
    "considerable": 33,
    "stamp": 14,
    "react": 28,
    "abused": 24,
    "extraordinary": 15,
    "legislation": 68,
    "legislature": 3,
    "interfering": 12,
    "gal": 18,
    "ems": 6,
    "wes": 5,
    "tam": 38,
    "wake": 26,
    "lifestyle": 25,
    "header": 113,
    "facility": 57,
    "##ati": 48,
    "digest": 40,
    "index": 88,
    "listings": 7,
    "subscribers": 9,
    "addresses": 112,
    "stroke": 25,
    "##rok": 2,
    "fr": 90,
    "formula": 51,
    "vary": 65,
    "raid": 33,
    "notation": 12,
    "lamb": 16,
    "goose": 6,
    "stepping": 10,
    "gentle": 12,
    "inference": 22,
    "nevertheless": 13,
    "constructing": 10,
    "universally": 14,
    "proposition": 45,
    "raining": 11,
    "asserted": 14,
    "everyday": 23,
    "stages": 26,
    "accepting": 38,
    "phrases": 16,
    "viewed": 41,
    "int": 292,
    "##date": 24,
    "suspicious": 17,
    "denoted": 5,
    "premise": 41,
    "beginnings": 6,
    "isolation": 18,
    "recognizing": 12,
    "shower": 11,
    "reasonably": 68,
    "conditional": 8,
    "suffers": 10,
    "causal": 12,
    "establishing": 23,
    "##ductive": 11,
    "##clusive": 24,
    "rigorous": 15,
    "holds": 68,
    "implication": 28,
    "insects": 5,
    "##lice": 12,
    "dolphins": 5,
    "symbol": 35,
    "denotes": 9,
    "respectively": 34,
    "arrives": 11,
    "lengthy": 21,
    "linguistics": 3,
    "pit": 45,
    "##falls": 6,
    "avoided": 30,
    "##acies": 17,
    "##acy": 65,
    "faulty": 13,
    "examined": 39,
    "resorts": 7,
    "acceptance": 33,
    "summarized": 8,
    "ample": 10,
    "literally": 57,
    "asserting": 15,
    "practised": 4,
    "murderers": 14,
    "cast": 42,
    "##jure": 13,
    "elsewhere": 69,
    "##ums": 21,
    "##tial": 6,
    "argues": 8,
    "shoes": 20,
    "abusive": 20,
    "##iste": 23,
    "rejecting": 22,
    "discrimination": 37,
    "adversary": 5,
    "selfish": 36,
    "poisoning": 10,
    "argued": 43,
    "principle": 82,
    "##athy": 15,
    "psychic": 6,
    "phenomena": 17,
    "certainty": 31,
    "appeals": 16,
    "pity": 14,
    "axe": 42,
    "orphan": 3,
    "commit": 69,
    "characterized": 19,
    "fools": 24,
    "##ulum": 3,
    "admiration": 4,
    "linguist": 6,
    "questionable": 23,
    "##lica": 14,
    "dislike": 24,
    "mechanically": 5,
    "rules": 315,
    "examining": 19,
    "representative": 38,
    "sweeping": 16,
    "hasty": 4,
    "identifies": 8,
    "prayed": 7,
    "disappeared": 28,
    "collapsed": 11,
    "hoc": 8,
    "asserts": 10,
    "factors": 71,
    "wishes": 35,
    "lose": 138,
    "blackmail": 7,
    "circular": 26,
    "employees": 36,
    "beating": 54,
    "##oses": 4,
    "examination": 30,
    "ruin": 12,
    "privatization": 9,
    "##acious": 15,
    "##ouse": 5,
    "emotions": 20,
    "favourable": 4,
    "##table": 49,
    "ambiguous": 13,
    "careless": 6,
    "##gram": 36,
    "##ras": 23,
    "altering": 8,
    "emphasized": 9,
    "bicycle": 25,
    "items": 127,
    "petrol": 4,
    "environmentally": 7,
    "buses": 24,
    "varieties": 10,
    "tree": 56,
    "ant": 14,
    "harmful": 21,
    "heroin": 5,
    "addict": 19,
    "welfare": 29,
    "specify": 76,
    "examine": 57,
    "criterion": 9,
    "##rt": 56,
    "##umen": 3,
    "employs": 6,
    "repetition": 5,
    "demands": 36,
    "##tur": 20,
    "drawn": 49,
    "concrete": 30,
    "straw": 28,
    "attacked": 73,
    "demolished": 6,
    "mentioning": 24,
    "breaking": 55,
    "odi": 1,
    "liberation": 5,
    "##gol": 4,
    "squad": 9,
    "tongue": 16,
    "cheek": 9,
    "consecutive": 14,
    "families": 57,
    "golf": 12,
    "attitudes": 23,
    "participating": 24,
    "##anza": 1,
    "fringe": 16,
    "professional": 86,
    "##tiv": 18,
    "exhibition": 12,
    "promoted": 12,
    "purely": 43,
    "loses": 18,
    "##pot": 33,
    "contradictory": 34,
    "definition": 159,
    "governed": 13,
    "##ios": 12,
    "fortunately": 5,
    "linger": 2,
    "transmitted": 41,
    "sexually": 13,
    "gen": 30,
    "##ital": 10,
    "trousers": 4,
    "rolled": 20,
    "##wn": 17,
    "441": 23,
    "930": 22,
    "grass": 22,
    "rebuilt": 19,
    "lawn": 13,
    "repair": 59,
    "stops": 51,
    "##sov": 1,
    "practicing": 21,
    "audience": 37,
    "##aga": 30,
    "##ndi": 13,
    "##sts": 13,
    "newspapers": 43,
    "##standing": 7,
    "adjective": 13,
    "titles": 33,
    "sentenced": 10,
    "imprisonment": 16,
    "##lou": 1,
    "descent": 18,
    "duly": 5,
    "elected": 35,
    "deprived": 15,
    "##bari": 7,
    "vis": 34,
    "agreements": 18,
    "denial": 36,
    "oppression": 15,
    "democratic": 50,
    "##ki": 21,
    "charitable": 5,
    "trusts": 3,
    "ceased": 13,
    "fascism": 6,
    "appoint": 11,
    "##ctive": 12,
    "convention": 21,
    "reflects": 13,
    "guarantee": 79,
    "monuments": 2,
    "churches": 58,
    "complementary": 2,
    "pondered": 3,
    "silence": 29,
    "critics": 10,
    "assimilation": 7,
    "forestry": 4,
    "island": 41,
    "kilometers": 12,
    "native": 28,
    "employer": 39,
    "depart": 7,
    "investigating": 20,
    "plight": 7,
    "findings": 45,
    "titled": 17,
    "convent": 1,
    "cemeteries": 1,
    "tombstone": 1,
    "##zed": 73,
    "##zers": 14,
    "lessons": 14,
    "frontier": 11,
    "dwell": 5,
    "expose": 40,
    "armored": 34,
    "vehicles": 64,
    "accordance": 13,
    "reductions": 9,
    "##tat": 13,
    "measures": 66,
    "aimed": 49,
    "##aging": 9,
    "reduction": 34,
    "behaviors": 14,
    "rug": 9,
    "mosque": 14,
    "dragged": 23,
    "travellers": 3,
    "descend": 8,
    "husbands": 9,
    "fathers": 21,
    "brothers": 42,
    "violated": 30,
    "##cious": 11,
    "battle": 68,
    "lawyer": 49,
    "garden": 11,
    "garments": 4,
    "servant": 21,
    "gather": 32,
    "battered": 5,
    "blows": 19,
    "butt": 46,
    "firing": 51,
    "eleven": 14,
    "bridge": 16,
    "oath": 14,
    "commandant": 3,
    "maker": 14,
    "arrested": 25,
    "shoe": 10,
    "##maker": 20,
    "tailor": 5,
    "cobb": 9,
    "amino": 14,
    "dig": 55,
    "bait": 21,
    "byte": 91,
    "intensity": 22,
    "##gor": 22,
    "##ht": 31,
    "##ym": 45,
    "captured": 30,
    "##urity": 6,
    "devi": 32,
    "##ates": 24,
    "norm": 16,
    "uno": 32,
    "##ffen": 2,
    "backing": 28,
    "viewpoint": 40,
    "insult": 30,
    "terrorism": 48,
    "1930": 8,
    "1940": 16,
    "branch": 33,
    "militant": 5,
    "practiced": 20,
    "terrorist": 61,
    "contributing": 15,
    "exodus": 8,
    "frightened": 9,
    "piss": 14,
    "cartoon": 6,
    "vocal": 9,
    "establishment": 42,
    "expanding": 15,
    "dominance": 14,
    "actively": 40,
    "domination": 13,
    "ache": 11,
    "##ities": 53,
    "##eld": 18,
    "zionist": 6,
    "desires": 20,
    "jun": 1,
    "identity": 70,
    "##ray": 12,
    "surprise": 64,
    "billboard": 21,
    "brightness": 24,
    "twilight": 4,
    "mini": 71,
    "##scu": 23,
    "faces": 47,
    "tribes": 14,
    "nowhere": 36,
    "marked": 44,
    "printed": 67,
    "bye": 8,
    "daze": 1,
    "##ara": 7,
    "wanda": 1,
    "wai": 35,
    "nz": 28,
    "sing": 13,
    "intention": 36,
    "customers": 50,
    "##lau": 20,
    "bays": 9,
    "certified": 17,
    "profile": 21,
    "withstand": 11,
    "authored": 13,
    "rifle": 30,
    "rally": 27,
    "secluded": 5,
    "courtyard": 25,
    "##house": 10,
    "sparse": 8,
    "speaker": 64,
    "whereupon": 2,
    "proud": 41,
    "remind": 35,
    "holders": 11,
    "election": 37,
    "busy": 52,
    "handing": 18,
    "bills": 37,
    "hearings": 18,
    "warned": 28,
    "committee": 99,
    "hadn": 53,
    "delegation": 14,
    "alma": 6,
    "resident": 25,
    "prison": 51,
    "seeking": 39,
    "squash": 11,
    "lobby": 17,
    "pissed": 25,
    "district": 25,
    "reporter": 27,
    "gunners": 6,
    "reflective": 7,
    "shades": 3,
    "seated": 3,
    "reserved": 29,
    "atrium": 1,
    "entrance": 23,
    "constraints": 19,
    "##rf": 11,
    "residents": 43,
    "sponsor": 15,
    "##iger": 2,
    "gallery": 3,
    "naughty": 4,
    "wander": 3,
    "repeat": 88,
    "##ture": 11,
    "politician": 10,
    "##mouth": 2,
    "criminals": 153,
    "executed": 48,
    "##ees": 21,
    "proposed": 139,
    "##cin": 12,
    "restraining": 13,
    "conviction": 36,
    "testified": 15,
    "patron": 6,
    "convicted": 30,
    "disgusting": 22,
    "##hine": 28,
    "renewable": 5,
    "ineligible": 2,
    "swallow": 11,
    "vague": 30,
    "catching": 9,
    "##lon": 22,
    "goddamn": 8,
    "chairs": 14,
    "sharp": 36,
    "##chal": 3,
    "##len": 11,
    "##ged": 70,
    "embarrassing": 9,
    "confined": 13,
    "jam": 21,
    "yelled": 5,
    "disconnected": 7,
    "upstairs": 20,
    "charter": 25,
    "missed": 111,
    "complained": 15,
    "revoked": 7,
    "judges": 68,
    "lightning": 14,
    "sessions": 20,
    "countered": 6,
    "junior": 12,
    "respected": 25,
    "##qua": 37,
    "match": 112,
    "gunner": 2,
    "citizenship": 26,
    "expired": 11,
    "privilege": 9,
    "hanging": 50,
    "joking": 12,
    "favored": 11,
    "teacher": 38,
    "spilling": 4,
    "tears": 14,
    "legislators": 8,
    "anger": 42,
    "grill": 5,
    "##ned": 33,
    "possessed": 22,
    "hunters": 7,
    "wandered": 3,
    "boundary": 17,
    "warden": 1,
    "eli": 24,
    "##tist": 9,
    "comply": 20,
    "resembled": 4,
    "marching": 11,
    "##claiming": 8,
    "##75": 29,
    "1732": 1,
    "municipality": 3,
    "1731": 1,
    "municipal": 2,
    "discretion": 12,
    "unison": 4,
    "screwing": 11,
    "blew": 35,
    "archaic": 5,
    "records": 78,
    "##jou": 4,
    "##rned": 7,
    "978": 8,
    "1659": 2,
    "wong": 2,
    "##da": 95,
    "pic": 36,
    "vote": 128,
    "awards": 23,
    "standings": 38,
    "pitchers": 36,
    "voting": 33,
    "candidate": 32,
    "338": 14,
    "293": 17,
    "137": 46,
    "309": 9,
    "242": 21,
    "187": 18,
    "265": 19,
    "span": 27,
    "177": 22,
    "206": 49,
    "194": 15,
    "196": 26,
    "166": 11,
    "193": 14,
    "168": 22,
    "178": 20,
    "choke": 21,
    "huge": 117,
    "quoting": 23,
    "fra": 46,
    "##mming": 3,
    "shadows": 11,
    "ripple": 4,
    "explode": 13,
    "bounce": 24,
    "maps": 44,
    "brush": 12,
    "animated": 13,
    "backdrop": 3,
    "backgrounds": 12,
    "retail": 23,
    "328": 16,
    "creative": 43,
    "##movable": 14,
    "weights": 9,
    "airplane": 15,
    "sacrifice": 30,
    "crow": 6,
    "##fall": 55,
    "##mology": 5,
    "justification": 52,
    "fictional": 6,
    "##sume": 35,
    "contained": 61,
    "flawless": 14,
    "hypothetical": 16,
    "writings": 40,
    "compared": 141,
    "doctrines": 40,
    "implicit": 34,
    "lasted": 19,
    "##icated": 16,
    "##sas": 13,
    "breached": 1,
    "rim": 12,
    "haste": 3,
    "cooperate": 20,
    "##nac": 7,
    "cooper": 10,
    "##ating": 62,
    "horde": 5,
    "overrun": 10,
    "nintendo": 1,
    "genesis": 1,
    "interfaces": 36,
    "nora": 2,
    "unlimited": 22,
    "cheat": 21,
    "copying": 24,
    "carts": 9,
    "selected": 91,
    "selection": 83,
    "finger": 91,
    "warp": 13,
    "frustrating": 16,
    "##18": 43,
    "demos": 16,
    "encourage": 52,
    "piracy": 5,
    "endorsement": 15,
    "products": 183,
    "drum": 16,
    "pulses": 11,
    "sensor": 44,
    "axle": 12,
    "converted": 77,
    "eras": 6,
    "disco": 31,
    "##nne": 19,
    "sentiments": 7,
    "releases": 44,
    "validity": 21,
    "lance": 12,
    "hartman": 5,
    "austin": 10,
    "##pa": 96,
    "##dp": 34,
    "pipe": 58,
    "##charged": 9,
    "intake": 29,
    "tract": 24,
    "differential": 29,
    "chamber": 25,
    "allowing": 90,
    "vacuum": 36,
    "temperature": 75,
    "tuning": 15,
    "pursuit": 15,
    "almighty": 6,
    "horsepower": 14,
    "##market": 16,
    "louder": 10,
    "dominating": 5,
    "flowing": 14,
    "filters": 33,
    "substituted": 6,
    "pump": 28,
    "dilemma": 9,
    "diverse": 20,
    "defining": 26,
    "##lation": 11,
    "fifteenth": 9,
    "administer": 8,
    "##nostic": 27,
    "extend": 43,
    "suits": 25,
    "enables": 17,
    "philosophers": 9,
    "specified": 73,
    "depth": 87,
    "##80": 53,
    "highlighted": 7,
    "##cted": 35,
    "faint": 15,
    "##tangle": 30,
    "shade": 18,
    "killer": 19,
    "##gger": 34,
    "##wire": 10,
    "largely": 57,
    "##rea": 80,
    "##dable": 13,
    "ga": 83,
    "##rb": 28,
    "disrupted": 2,
    "displayed": 46,
    "disrupt": 12,
    "safer": 28,
    "contention": 24,
    "ting": 5,
    "1950": 18,
    "fiction": 34,
    "writer": 42,
    "hideous": 8,
    "startled": 7,
    "engineers": 41,
    "##atable": 26,
    "contractual": 4,
    "##uge": 14,
    "gallon": 10,
    "schemes": 31,
    "carrier": 21,
    "##grade": 14,
    "digitally": 6,
    "susceptible": 9,
    "amplitude": 10,
    "mod": 76,
    "##ulated": 33,
    "##cts": 14,
    "verbal": 20,
    "##hea": 34,
    "##ction": 52,
    "pointless": 20,
    "jed": 4,
    "##ux": 19,
    "usc": 8,
    "expects": 20,
    "##90": 57,
    "brian": 14,
    "mead": 5,
    "absent": 18,
    "inception": 4,
    "feminine": 3,
    "deity": 36,
    "masculine": 3,
    "household": 18,
    "gender": 17,
    "sore": 19,
    "theo": 22,
    "cash": 69,
    "announcement": 64,
    "##smo": 19,
    "corps": 16,
    "passengers": 13,
    "astronauts": 18,
    "lottery": 3,
    "citizen": 76,
    "vastly": 15,
    "exceeds": 22,
    "##ning": 43,
    "lineup": 27,
    "involves": 49,
    "pencil": 9,
    "winner": 58,
    "##ight": 9,
    "radial": 11,
    "ke": 32,
    "##rat": 35,
    "hack": 20,
    "applicants": 6,
    "credit": 100,
    "hired": 25,
    "##olic": 2,
    "hobby": 25,
    "pilots": 20,
    "consultant": 7,
    "motivated": 39,
    "motivation": 43,
    "candidates": 38,
    "sector": 80,
    "evaluation": 35,
    "demonstrated": 46,
    "investigations": 19,
    "routine": 62,
    "payload": 62,
    "deployment": 9,
    "laboratories": 13,
    "sciences": 14,
    "materials": 54,
    "manufacturing": 29,
    "servicing": 4,
    "staging": 4,
    "orbits": 24,
    "commander": 9,
    "specialists": 19,
    "occasion": 16,
    "controlling": 31,
    "utilizing": 12,
    "mani": 8,
    "##hic": 42,
    "##ular": 25,
    "##sum": 32,
    "conducted": 48,
    "minimum": 68,
    "accredited": 5,
    "institution": 22,
    "mathematics": 19,
    "progressively": 5,
    "doctoral": 5,
    "academic": 64,
    "##uity": 24,
    "##cor": 25,
    "measured": 41,
    "aircraft": 60,
    "curriculum": 4,
    "bachelor": 1,
    "qualifying": 6,
    "770": 18,
    "retained": 8,
    "annually": 10,
    "screening": 5,
    "supervisors": 2,
    "contacted": 19,
    "##sse": 15,
    "selections": 12,
    "undergo": 8,
    "ongoing": 24,
    "formal": 58,
    "proficiency": 4,
    "manpower": 3,
    "tour": 19,
    "affirmative": 9,
    "encouraged": 39,
    "scales": 12,
    "grades": 13,
    "sick": 101,
    "retirement": 8,
    "guru": 19,
    "noises": 8,
    "quiet": 54,
    "##wat": 10,
    "preceding": 13,
    "credits": 7,
    "taped": 14,
    "borrow": 15,
    "beer": 22,
    "cong": 23,
    "00pm": 13,
    "artwork": 10,
    "outlined": 11,
    "confronting": 2,
    "opportunities": 37,
    "demonstrations": 9,
    "demonstrating": 13,
    "interactive": 60,
    "##scope": 9,
    "nominees": 2,
    "offices": 30,
    "##43": 29,
    "##29": 35,
    "polite": 24,
    "##ical": 69,
    "descriptive": 10,
    "benign": 12,
    "##tian": 14,
    "##vis": 29,
    "##ogen": 3,
    "happier": 11,
    "instrumental": 3,
    "plea": 10,
    "worthy": 44,
    "creates": 41,
    "##dget": 296,
    "##pped": 18,
    "void": 56,
    "##la": 60,
    "##aa": 19,
    "##ote": 18,
    "exit": 79,
    "consistent": 105,
    "##wood": 12,
    "colorado": 46,
    "av": 27,
    "settlers": 7,
    "obstacle": 3,
    "##vent": 47,
    "shelter": 11,
    "warmth": 3,
    "il": 32,
    "tres": 4,
    "##pass": 17,
    "##escence": 2,
    "##stellar": 9,
    "debris": 13,
    "bounty": 4,
    "crawled": 9,
    "##rdial": 2,
    "##oz": 9,
    "produces": 64,
    "deer": 15,
    "crossing": 20,
    "neighboring": 16,
    "##oi": 3,
    "cher": 7,
    "evenly": 6,
    "villagers": 7,
    "crops": 2,
    "anthropologist": 3,
    "difficulties": 20,
    "arising": 9,
    "possessions": 7,
    "mug": 9,
    "##ho": 26,
    "##ove": 10,
    "lung": 12,
    "##ram": 13,
    "dense": 15,
    "##ision": 9,
    "clarify": 27,
    "##ulus": 7,
    "breakthrough": 16,
    "##analysis": 32,
    "cipher": 177,
    "chain": 79,
    "##anal": 19,
    "exploit": 22,
    "##uli": 11,
    "##ill": 23,
    "##ws": 58,
    "mb": 28,
    "limitation": 20,
    "1742": 1,
    "transcript": 14,
    "recruitment": 5,
    "bombers": 4,
    "artillery": 16,
    "variants": 10,
    "tear": 60,
    "evacuation": 5,
    "interrogation": 13,
    "bombardment": 7,
    "bombing": 41,
    "bal": 18,
    "downing": 1,
    "airline": 14,
    "copied": 28,
    "independence": 23,
    "wasted": 20,
    "##ue": 44,
    "fiddle": 7,
    "spheres": 5,
    "##dio": 16,
    "##org": 14,
    "##het": 30,
    "theta": 22,
    "node": 10,
    "##np": 4,
    "pt": 71,
    "##vid": 8,
    "##12": 76,
    "##23": 74,
    "mouths": 9,
    "blindness": 8,
    "lust": 12,
    "terrible": 63,
    "sickness": 10,
    "healed": 14,
    "diseases": 63,
    "cancer": 77,
    "##bil": 20,
    "##itating": 11,
    "linked": 73,
    "##oned": 3,
    "penn": 5,
    "consequence": 20,
    "spitting": 3,
    "fears": 15,
    "##ob": 24,
    "##ias": 4,
    "socially": 6,
    "unacceptable": 18,
    "##pers": 28,
    "heal": 13,
    "##cca": 12,
    "##ssion": 23,
    "rash": 19,
    "attributes": 31,
    "intervention": 43,
    "singer": 4,
    "song": 24,
    "titan": 3,
    "ts": 30,
    "802": 20,
    "extras": 10,
    "scratch": 31,
    "dot": 56,
    "matrix": 22,
    "disguise": 9,
    "italics": 4,
    "510": 20,
    "##gg": 30,
    "kepler": 2,
    "beat": 141,
    "28th": 21,
    "14th": 14,
    "unrest": 13,
    "injured": 54,
    "uneasy": 6,
    "entrusted": 5,
    "policeman": 7,
    "tense": 9,
    "29th": 7,
    "hid": 12,
    "passport": 10,
    "socks": 7,
    "suddenly": 76,
    "rub": 17,
    "squared": 3,
    "waving": 16,
    "standing": 94,
    "sidewalks": 2,
    "stones": 31,
    "##unce": 13,
    "nut": 43,
    "##duk": 2,
    "##uk": 8,
    "pronunciation": 3,
    "slash": 22,
    "lit": 24,
    "gleaming": 5,
    "nationality": 19,
    "ashamed": 14,
    "metal": 91,
    "##iner": 1,
    "skeleton": 4,
    "##cas": 8,
    "hatch": 14,
    "pistol": 28,
    "##oning": 10,
    "bandits": 16,
    "joined": 30,
    "shouting": 52,
    "##phone": 18,
    "##phones": 9,
    "##tric": 17,
    "edges": 41,
    "innovations": 3,
    "exceptional": 10,
    "overlooked": 9,
    "breakfast": 10,
    "liturgical": 7,
    "spiritual": 75,
    "denomination": 13,
    "guidelines": 71,
    "promotes": 5,
    "feelings": 62,
    "omitted": 22,
    "frankly": 15,
    "dear": 35,
    "daylight": 14,
    "ministers": 5,
    "kw": 5,
    "##yat": 6,
    "cp": 72,
    "marital": 9,
    "psychologists": 4,
    "communist": 13,
    "interactions": 4,
    "panic": 32,
    "handles": 34,
    "heading": 35,
    "solely": 33,
    "rebuild": 17,
    "##mable": 24,
    "delays": 12,
    "watt": 25,
    "gene": 22,
    "##por": 13,
    "raider": 2,
    "deadline": 22,
    "##bill": 6,
    "dollars": 121,
    "remnant": 2,
    "kingdom": 55,
    "ns": 41,
    "whoever": 33,
    "approve": 26,
    "##him": 9,
    "madness": 5,
    "deeply": 33,
    "researchers": 45,
    "filtering": 19,
    "ears": 35,
    "kiss": 11,
    "goodbye": 4,
    "##sted": 28,
    "viewer": 57,
    "##hae": 4,
    "##lene": 5,
    "skeptical": 17,
    "clips": 15,
    "attorney": 26,
    "objection": 34,
    "upheld": 6,
    "stretching": 11,
    "##bers": 15,
    "overhead": 37,
    "pirate": 9,
    "workplace": 6,
    "typed": 23,
    "supplier": 14,
    "tack": 19,
    "hudson": 27,
    "inflicted": 8,
    "physiological": 5,
    "unwilling": 25,
    "criteria": 48,
    "geologist": 4,
    "encoding": 12,
    "superhuman": 10,
    "drinking": 31,
    "handful": 9,
    "##alo": 11,
    "opponents": 28,
    "outreach": 4,
    "dramatic": 14,
    "unarmed": 19,
    "tighter": 5,
    "tribute": 4,
    "constituents": 3,
    "stampede": 1,
    "conceived": 12,
    "vent": 30,
    "##view": 41,
    "instrument": 43,
    "slogan": 6,
    "censorship": 19,
    "torpedo": 2,
    "broad": 52,
    "consensus": 37,
    "herring": 18,
    "prepare": 24,
    "##ople": 10,
    "##athi": 13,
    "mum": 11,
    "amendments": 12,
    "phonetic": 4,
    "alternating": 8,
    "rude": 19,
    "reel": 10,
    "##haus": 4,
    "lehigh": 8,
    "distribute": 27,
    "affects": 17,
    "paradox": 11,
    "chan": 12,
    "##els": 10,
    "kinda": 32,
    "184": 25,
    "ah": 26,
    "claw": 1,
    "##ads": 13,
    "folklore": 4,
    "##lim": 32,
    "##inal": 15,
    "flashed": 9,
    "internet": 168,
    "kc": 17,
    "nail": 20,
    "promptly": 17,
    "electro": 28,
    "ceramic": 7,
    "char": 210,
    "grey": 47,
    "demo": 90,
    "hash": 55,
    "colourful": 1,
    "designs": 39,
    "improvements": 23,
    "##bed": 59,
    "binary": 76,
    "removing": 50,
    "ieee": 6,
    "ham": 39,
    "booked": 4,
    "mall": 24,
    "discusses": 20,
    "sails": 10,
    "##bolic": 6,
    "manned": 19,
    "##sto": 21,
    "continuously": 21,
    "bret": 3,
    "honorable": 4,
    "lovely": 13,
    "excellence": 6,
    "sul": 11,
    "preserve": 36,
    "wines": 1,
    "beers": 5,
    "outlaw": 21,
    "substances": 18,
    "comparable": 50,
    "dye": 9,
    "nasal": 4,
    "comic": 22,
    "strips": 14,
    "sincere": 17,
    "nur": 7,
    "manifestation": 16,
    "penned": 1,
    "devoid": 7,
    "scholastic": 1,
    "simplest": 10,
    "babies": 27,
    "smash": 6,
    "convey": 18,
    "##hend": 5,
    "walks": 20,
    "greet": 2,
    "energies": 7,
    "manifested": 8,
    "creation": 148,
    "chickens": 1,
    "cafeteria": 4,
    "incapable": 17,
    "reflection": 11,
    "##ecure": 10,
    "authoritarian": 8,
    "authoritative": 12,
    "adults": 43,
    "stiff": 28,
    "##fia": 16,
    "stationary": 6,
    "smoking": 31,
    "furnished": 3,
    "firm": 61,
    "pig": 26,
    "shocks": 11,
    "forks": 2,
    "dive": 10,
    "progressive": 13,
    "springs": 13,
    "monster": 10,
    "twist": 26,
    "fork": 28,
    "slamming": 3,
    "stan": 7,
    "tubes": 33,
    "slip": 30,
    "gears": 15,
    "ol": 67,
    "215": 36,
    "bedroom": 27,
    "spacious": 3,
    "inquiries": 11,
    "fort": 16,
    "##una": 26,
    "##fort": 16,
    "experiencing": 12,
    "##uation": 10,
    "##case": 11,
    "neighborhood": 23,
    "worrying": 8,
    "sanitation": 2,
    "crews": 5,
    "sparkling": 2,
    "##een": 5,
    "##itis": 21,
    "newly": 33,
    "##j": 145,
    "##ente": 6,
    "liberals": 13,
    "##ored": 11,
    "blaze": 11,
    "drip": 3,
    "trickle": 9,
    "cent": 32,
    "vaguely": 11,
    "##mbre": 1,
    "spins": 7,
    "recreational": 9,
    "bored": 16,
    "##link": 41,
    "##get": 23,
    "##win": 32,
    "indicative": 10,
    "markets": 22,
    "##long": 12,
    "rosen": 1,
    "##bility": 41,
    "curiosity": 13,
    "talked": 100,
    "basin": 12,
    "calculate": 21,
    "mirrors": 53,
    "glance": 8,
    "doin": 1,
    "adrenaline": 2,
    "##ren": 25,
    "##zing": 43,
    "ot": 13,
    "slick": 9,
    "seating": 5,
    "chart": 24,
    "destiny": 4,
    "karma": 12,
    "##mined": 3,
    "oriental": 8,
    "##ude": 37,
    "earthly": 9,
    "##chan": 15,
    "determining": 27,
    "shri": 2,
    "deed": 10,
    "salvation": 64,
    "flesh": 31,
    "##nation": 35,
    "mechanized": 5,
    "incorrectly": 16,
    "avatar": 5,
    "continuity": 5,
    "evident": 25,
    "incarnation": 7,
    "emphasizes": 9,
    "embrace": 14,
    "teaches": 46,
    "pointedly": 1,
    "##ede": 22,
    "##olt": 3,
    "insight": 26,
    "eighteenth": 3,
    "nineteenth": 3,
    "ascension": 6,
    "##itt": 11,
    "humiliating": 4,
    "vin": 26,
    "martial": 7,
    "##ested": 11,
    "##cz": 2,
    "gemini": 3,
    "##fc": 32,
    "##metric": 20,
    "curves": 11,
    "##fle": 8,
    "aided": 2,
    "geometric": 13,
    "token": 12,
    "sorority": 1,
    "fraternity": 2,
    "campaigned": 2,
    "condoms": 4,
    "listing": 40,
    "qualifications": 10,
    "ruining": 3,
    "rallies": 3,
    "laid": 29,
    "pressures": 10,
    "comparatively": 8,
    "storm": 19,
    "troopers": 1,
    "triangles": 13,
    "overlook": 6,
    "vanity": 6,
    "hates": 8,
    "proclamation": 5,
    "elements": 71,
    "##llas": 24,
    "uniforms": 23,
    "combatants": 5,
    "purposely": 3,
    "harm": 86,
    "ineffective": 12,
    "chose": 47,
    "decades": 49,
    "psychological": 38,
    "selective": 20,
    "##asse": 7,
    "negotiations": 39,
    "interim": 10,
    "autonomy": 14,
    "demanding": 20,
    "tangible": 17,
    "assets": 9,
    "guarantees": 27,
    "relation": 30,
    "demanded": 22,
    "possession": 45,
    "armament": 5,
    "commando": 5,
    "raids": 7,
    "refined": 4,
    "##ano": 12,
    "1970s": 15,
    "commonplace": 2,
    "patrol": 20,
    "##iri": 5,
    "protecting": 55,
    "exposing": 5,
    "plagued": 9,
    "vase": 5,
    "bop": 1,
    "neo": 22,
    "##orin": 3,
    "recurring": 6,
    "dealt": 23,
    "lightly": 18,
    "##ien": 19,
    "offenses": 15,
    "##ju": 33,
    "##gm": 17,
    "religions": 119,
    "adolescents": 1,
    "overly": 22,
    "##sur": 10,
    "partner": 18,
    "originate": 10,
    "attributed": 24,
    "##yse": 9,
    "venue": 2,
    "stupidity": 19,
    "##azi": 9,
    "lied": 16,
    "jogging": 3,
    "publicity": 19,
    "informant": 12,
    "grandmother": 8,
    "##rick": 5,
    "suicide": 72,
    "masks": 19,
    "mothers": 18,
    "##oth": 44,
    "veteran": 16,
    "warfare": 12,
    "subjected": 25,
    "##rita": 10,
    "hysterical": 9,
    "waited": 31,
    "hostages": 7,
    "occasions": 27,
    "##sen": 28,
    "approached": 16,
    "##shing": 5,
    "betrayal": 6,
    "tip": 32,
    "##burg": 1,
    "shu": 16,
    "miraculous": 6,
    "mountain": 29,
    "##eem": 11,
    "##piration": 11,
    "##die": 8,
    "darkness": 20,
    "olive": 4,
    "drawing": 102,
    "siblings": 6,
    "sibling": 1,
    "##nden": 1,
    "##scent": 7,
    "flashlight": 11,
    "bulbs": 11,
    "mercury": 2,
    "discharge": 26,
    "fluorescent": 12,
    "shorter": 27,
    "wavelengths": 3,
    "replacing": 27,
    "lantern": 4,
    "dangerously": 4,
    "shaking": 8,
    "##nto": 9,
    "doorstep": 6,
    "continental": 21,
    "sanctions": 27,
    "executions": 5,
    "##ndo": 13,
    "##ner": 41,
    "execution": 31,
    "shares": 15,
    "malicious": 5,
    "golden": 19,
    "approximate": 12,
    "ideal": 57,
    "approximation": 7,
    "##nis": 32,
    "episode": 21,
    "landlord": 10,
    "rented": 10,
    "lease": 12,
    "occupies": 6,
    "apartments": 25,
    "locker": 11,
    "compensation": 22,
    "exchanged": 13,
    "cyber": 21,
    "##space": 18,
    "invaders": 5,
    "sacked": 2,
    "##land": 25,
    "ruthless": 8,
    "collaborated": 2,
    "enemies": 35,
    "collaborators": 22,
    "racism": 28,
    "employing": 5,
    "vera": 15,
    "##hem": 21,
    "protests": 9,
    "bribery": 3,
    "supporters": 22,
    "humanitarian": 26,
    "aforementioned": 9,
    "collapse": 24,
    "consequently": 4,
    "supportive": 14,
    "##wd": 45,
    "joints": 9,
    "adjustments": 15,
    "belt": 46,
    "identifying": 12,
    "##zzy": 8,
    "mhz": 12,
    "980": 10,
    "rebound": 28,
    "fielding": 24,
    "seasons": 33,
    "401": 19,
    "149": 53,
    "plate": 61,
    "284": 17,
    "##weig": 10,
    "##hs": 16,
    "descending": 5,
    "690": 10,
    "630": 14,
    "580": 20,
    "625": 23,
    "620": 18,
    "530": 13,
    "570": 17,
    "dread": 6,
    "inning": 33,
    "dodge": 12,
    "voluntary": 39,
    "morgan": 3,
    "guzman": 1,
    "era": 33,
    "cubs": 38,
    "##rke": 7,
    "##bba": 4,
    "castillo": 1,
    "stud": 18,
    "regulations": 47,
    "##ira": 23,
    "seeks": 13,
    "electorate": 4,
    "litigation": 7,
    "productive": 21,
    "decreed": 3,
    "widespread": 44,
    "##itarian": 13,
    "capitalism": 8,
    "corrupt": 35,
    "seller": 17,
    "multitude": 10,
    "demons": 17,
    "transactions": 19,
    "buyers": 14,
    "nominate": 4,
    "##iot": 14,
    "chopped": 8,
    "residential": 8,
    "approx": 24,
    "##ately": 11,
    "acre": 3,
    "mar": 19,
    "##46": 31,
    "prism": 9,
    "##ocation": 5,
    "##oki": 5,
    "propose": 37,
    "breath": 42,
    "201": 31,
    "##ada": 18,
    "persist": 19,
    "##mental": 2,
    "exports": 12,
    "imports": 6,
    "neighbouring": 5,
    "granting": 9,
    "concessions": 13,
    "##ential": 9,
    "certificates": 7,
    "obstacles": 16,
    "hind": 13,
    "promoting": 22,
    "investment": 66,
    "employment": 22,
    "income": 61,
    "47th": 1,
    "spoil": 7,
    "peng": 1,
    "excited": 21,
    "overtime": 13,
    "smoked": 25,
    "##lights": 10,
    "fog": 12,
    "moisture": 10,
    "tire": 70,
    "##lam": 11,
    "trunk": 25,
    "drill": 22,
    "tops": 13,
    "bottoms": 2,
    "nat": 6,
    "##ja": 19,
    "##sg": 18,
    "##ap": 87,
    "wah": 3,
    "##nu": 39,
    "##cks": 11,
    "believer": 31,
    "blah": 30,
    "meaningless": 38,
    "##lie": 25,
    "offs": 18,
    "##hoot": 16,
    "harsh": 26,
    "toss": 15,
    "wrapping": 8,
    "midnight": 18,
    "indicator": 15,
    "kernel": 29,
    "notices": 9,
    "processed": 27,
    "##enting": 9,
    "##bble": 23,
    "repeating": 17,
    "oz": 59,
    "bomb": 81,
    "##arded": 5,
    "outlets": 62,
    "funded": 46,
    "stimulus": 47,
    "sworn": 8,
    "ravi": 11,
    "##ule": 18,
    "garner": 4,
    "##arable": 6,
    "label": 47,
    "numb": 10,
    "refrain": 22,
    "quarrel": 9,
    "avoiding": 22,
    "##giving": 10,
    "imprisoned": 14,
    "economics": 23,
    "pius": 1,
    "virus": 38,
    "##fect": 12,
    "possessing": 6,
    "##xed": 12,
    "lynch": 3,
    "knocking": 18,
    "loving": 34,
    "bend": 13,
    "wo": 34,
    "gang": 48,
    "halle": 2,
    "##jah": 3,
    "ska": 2,
    "ea": 62,
    "vain": 21,
    "erase": 16,
    "fantasy": 31,
    "lips": 20,
    "holy": 52,
    "rhythm": 2,
    "dancing": 7,
    "jericho": 2,
    "babylon": 3,
    "infringement": 12,
    "liberties": 43,
    "notably": 14,
    "referring": 56,
    "sue": 22,
    "##rim": 64,
    "regime": 33,
    "patents": 36,
    "underwater": 5,
    "wireless": 15,
    "extensively": 15,
    "##ough": 12,
    "##vie": 19,
    "##nie": 9,
    "antennas": 13,
    "travels": 5,
    "##ssa": 17,
    "drowned": 5,
    "reception": 10,
    "##ber": 46,
    "caps": 36,
    "##elled": 7,
    "spelling": 26,
    "optional": 66,
    "manuscripts": 15,
    "##dos": 57,
    "##thing": 6,
    "alcoholic": 5,
    "drinks": 11,
    "distributing": 11,
    "peru": 6,
    "immortality": 11,
    "networks": 76,
    "deposit": 19,
    "artifacts": 7,
    "surviving": 10,
    "critique": 15,
    "closes": 9,
    "dimension": 11,
    "submissions": 17,
    "glowing": 10,
    "breathed": 4,
    "merit": 23,
    "globe": 12,
    "electrons": 13,
    "brows": 11,
    "artists": 12,
    "##ption": 49,
    "otis": 1,
    "suns": 11,
    "##ite": 50,
    "multimedia": 29,
    "##cial": 24,
    "402": 9,
    "originated": 14,
    "oddly": 2,
    "stating": 43,
    "uploaded": 8,
    "publications": 33,
    "biographical": 3,
    "preferences": 13,
    "peach": 4,
    "packing": 12,
    "slab": 4,
    "growing": 40,
    "##name": 228,
    "altered": 27,
    "keen": 11,
    "cw": 31,
    "##mah": 3,
    "permitted": 34,
    "initials": 5,
    "fifth": 67,
    "creating": 75,
    "##erian": 4,
    "pope": 12,
    "##zine": 8,
    "administrator": 34,
    "donations": 8,
    "##ulously": 3,
    "##ert": 53,
    "newsletter": 40,
    "operative": 10,
    "stimulate": 8,
    "kick": 31,
    "riders": 37,
    "ninja": 2,
    "rode": 26,
    "rearview": 2,
    "classified": 74,
    "rounds": 35,
    "scrambling": 8,
    "##xious": 14,
    "bandwidth": 50,
    "feedback": 34,
    "incorporated": 18,
    "transmitter": 23,
    "dummy": 5,
    "paranoid": 33,
    "##lence": 5,
    "kidney": 33,
    "killers": 12,
    "medication": 22,
    "painful": 22,
    "judged": 37,
    "fluids": 31,
    "sleeping": 18,
    "##cci": 12,
    "##chin": 3,
    "alex": 4,
    "summers": 2,
    "publish": 47,
    "professors": 15,
    "advisor": 7,
    "universities": 27,
    "colleges": 6,
    "bach": 6,
    "masters": 17,
    "opposition": 56,
    "instructor": 15,
    "disgust": 9,
    "graduate": 32,
    "tuition": 9,
    "expenses": 11,
    "lectures": 7,
    "palette": 37,
    "inverse": 10,
    "underlying": 28,
    "consecration": 19,
    "encounter": 34,
    "##cede": 31,
    "distinct": 20,
    "##twined": 2,
    "orthodox": 31,
    "likewise": 14,
    "moments": 22,
    "weakness": 26,
    "prevailed": 5,
    "warmly": 4,
    "complaint": 29,
    "thereby": 21,
    "correspondence": 6,
    "refers": 46,
    "narrow": 33,
    "##ime": 23,
    "problematic": 14,
    "responds": 19,
    "mild": 29,
    "attribute": 32,
    "fearful": 10,
    "falsely": 6,
    "dying": 37,
    "indirect": 7,
    "vt": 33,
    "##take": 6,
    "crop": 24,
    "##bet": 11,
    "markus": 1,
    "oct": 14,
    "##avia": 1,
    "249": 25,
    "votes": 57,
    "##rent": 18,
    "##ata": 13,
    "legitimacy": 5,
    "inherently": 32,
    "##hor": 15,
    "##ulsive": 4,
    "deemed": 11,
    "theoretically": 9,
    "belong": 61,
    "species": 43,
    "altogether": 35,
    "##uti": 20,
    "flavour": 2,
    "kicking": 23,
    "##iable": 33,
    "##oe": 15,
    "##izer": 28,
    "ported": 25,
    "##fied": 23,
    "hires": 2,
    "carpenter": 7,
    "bird": 18,
    "ministry": 34,
    "miracles": 33,
    "hoax": 13,
    "goddess": 14,
    "foster": 9,
    "weekly": 40,
    "throughout": 85,
    "reprint": 14,
    "fishing": 22,
    "cornell": 15,
    "algebraic": 12,
    "cuff": 1,
    "theorem": 2,
    "divides": 5,
    "compact": 30,
    "intersects": 2,
    "modeled": 5,
    "draws": 17,
    "##page": 5,
    "prints": 25,
    "reduced": 66,
    "halt": 15,
    "expressive": 2,
    "##ida": 27,
    "alias": 51,
    "finite": 19,
    "ink": 53,
    "td": 4,
    "alice": 2,
    "bleak": 2,
    "##mma": 6,
    "coin": 15,
    "acronym": 26,
    "delivered": 33,
    "##ds": 53,
    "##atter": 4,
    "sv": 15,
    "##ax": 20,
    "##fies": 16,
    "derivative": 8,
    "deals": 46,
    "##rai": 9,
    "##ese": 14,
    "correlation": 20,
    "780": 8,
    "um": 132,
    "##hard": 4,
    "performances": 5,
    "evaluate": 33,
    "##jon": 7,
    "donald": 5,
    "aix": 7,
    "kingston": 6,
    "communism": 10,
    "capitalist": 22,
    "utopia": 8,
    "dreams": 21,
    "confronted": 14,
    "##lit": 39,
    "irvine": 1,
    "mortality": 9,
    "##lean": 19,
    "boo": 21,
    "bias": 70,
    "##gan": 14,
    "educated": 24,
    "##icate": 8,
    "##enter": 4,
    "##spar": 11,
    "740": 8,
    "blowing": 19,
    "blown": 45,
    "parks": 11,
    "shit": 70,
    "affiliate": 10,
    "##ror": 27,
    "influences": 7,
    "posing": 4,
    "dealings": 5,
    "restaurant": 25,
    "transaction": 21,
    "additionally": 4,
    "counts": 31,
    "promised": 51,
    "suspected": 18,
    "involving": 49,
    "taps": 7,
    "objections": 23,
    "tore": 17,
    "wept": 2,
    "evening": 62,
    "survived": 25,
    "gunshot": 4,
    "wound": 27,
    "##fight": 7,
    "sniper": 15,
    "eliminate": 40,
    "survival": 27,
    "dod": 12,
    "mobile": 26,
    "##bled": 4,
    "excelled": 2,
    "sucking": 6,
    "fingers": 37,
    "6th": 30,
    "6000": 50,
    "calculations": 38,
    "rapidly": 35,
    "accounted": 10,
    "manifesto": 1,
    "warriors": 3,
    "sane": 15,
    "representation": 22,
    "tries": 45,
    "stranger": 7,
    "pressed": 29,
    "##rrow": 6,
    "sewing": 2,
    "##ord": 31,
    "##ioms": 12,
    "authorized": 53,
    "solemn": 5,
    "obligation": 16,
    "consonant": 1,
    "steward": 8,
    "preface": 7,
    "overlap": 23,
    "petition": 6,
    "consciously": 9,
    "talents": 7,
    "prominent": 25,
    "##ula": 12,
    "beneficial": 14,
    "advancement": 10,
    "desperation": 4,
    "thanksgiving": 2,
    "uttered": 6,
    "##hol": 20,
    "##yo": 12,
    "burrows": 5,
    "##bert": 8,
    "##gin": 11,
    "lip": 19,
    "gallagher": 2,
    "rand": 16,
    "##hurst": 2,
    "mainly": 73,
    "##roud": 5,
    "spark": 15,
    "##fires": 7,
    "noticeably": 6,
    "torque": 33,
    "squat": 9,
    "noticeable": 16,
    "motors": 28,
    "chambers": 9,
    "shovel": 8,
    "dual": 70,
    "ignition": 20,
    "ny": 39,
    "##iko": 5,
    "milo": 4,
    "scar": 21,
    "##olin": 9,
    "shake": 18,
    "solemnly": 2,
    "harp": 9,
    "sparrow": 1,
    "##far": 5,
    "combination": 64,
    "entertainment": 14,
    "##hit": 17,
    "mundane": 8,
    "##tious": 5,
    "##worthy": 25,
    "##zen": 8,
    "restore": 39,
    "##stic": 26,
    "insults": 12,
    "wonders": 12,
    "##edge": 5,
    "##pired": 3,
    "announcements": 18,
    "amor": 8,
    "morally": 22,
    "##ka": 11,
    "plaster": 5,
    "saints": 11,
    "revealing": 18,
    "repeatedly": 45,
    "charity": 21,
    "customs": 12,
    "##turing": 4,
    "##ibly": 7,
    "##ander": 14,
    "astonishing": 8,
    "##itude": 6,
    "distorted": 20,
    "texted": 7,
    "shipped": 33,
    "xvi": 13,
    "##drop": 35,
    "##ln": 28,
    "##ame": 180,
    "sucker": 9,
    "prose": 27,
    "##cute": 16,
    "march": 17,
    "grinding": 9,
    "##utable": 53,
    "cartridges": 31,
    "lest": 12,
    "instinct": 11,
    "baha": 2,
    "##vio": 15,
    "exhibit": 21,
    "fertility": 4,
    "ethical": 38,
    "assent": 2,
    "inevitably": 23,
    "limb": 9,
    "24th": 15,
    "painfully": 9,
    "##lish": 8,
    "fees": 32,
    "republished": 1,
    "portions": 26,
    "##week": 4,
    "welcomed": 14,
    "joining": 17,
    "david": 35,
    "coli": 32,
    "donation": 7,
    "decomposition": 4,
    "reliability": 33,
    "shaded": 4,
    "impressed": 40,
    "incoming": 52,
    "##xes": 8,
    "##100": 155,
    "limitations": 31,
    "hesitate": 9,
    "predictions": 49,
    "infectious": 16,
    "eliminated": 30,
    "worldwide": 21,
    "myriad": 11,
    "identified": 54,
    "pathogen": 16,
    "hepatitis": 5,
    "##ciency": 8,
    "toxic": 37,
    "shock": 46,
    "incidence": 10,
    "widely": 88,
    "presumed": 9,
    "cholera": 1,
    "malaria": 6,
    "tuberculosis": 2,
    "undermine": 11,
    "salmon": 2,
    "##ello": 2,
    "##gel": 17,
    "##los": 8,
    "##rop": 52,
    "institutional": 9,
    "hospitals": 32,
    "emerging": 11,
    "surveillance": 46,
    "introduces": 2,
    "providers": 22,
    "outbreak": 29,
    "1963": 21,
    "##bial": 4,
    "eds": 10,
    "threats": 27,
    "##borne": 3,
    "hamburger": 13,
    "laboratory": 18,
    "##sta": 61,
    "physician": 35,
    "cluster": 23,
    "hem": 19,
    "##ytic": 8,
    "emergency": 50,
    "bloody": 36,
    "matched": 20,
    "odds": 24,
    "##efined": 46,
    "unused": 16,
    "patti": 9,
    "illnesses": 14,
    "symptoms": 70,
    "recalled": 10,
    "patty": 1,
    "peaked": 5,
    "##patient": 3,
    "hospitalized": 6,
    "eaten": 24,
    "subsequently": 13,
    "reportedly": 11,
    "reviews": 30,
    "admissions": 1,
    "stool": 13,
    "yielded": 3,
    "specimens": 4,
    "meal": 23,
    "companions": 2,
    "requesting": 23,
    "yielding": 3,
    "medium": 44,
    "detected": 22,
    "contaminated": 9,
    "likelihood": 18,
    "farms": 4,
    "auction": 13,
    "farm": 30,
    "gram": 10,
    "bacterium": 2,
    "renal": 3,
    "##oked": 1,
    "beef": 16,
    "roast": 4,
    "cid": 4,
    "nationwide": 14,
    "routinely": 19,
    "clinical": 47,
    "##ians": 10,
    "abdominal": 5,
    "##quent": 31,
    "complications": 5,
    "resolve": 34,
    "##emia": 4,
    "##enia": 33,
    "illustrates": 7,
    "##ide": 33,
    "departments": 16,
    "##ines": 14,
    "cattle": 5,
    "collaborating": 3,
    "optimal": 14,
    "pink": 29,
    "juice": 16,
    "cooked": 7,
    "stimulated": 6,
    "consumed": 15,
    "frequency": 76,
    "##tis": 47,
    "ser": 19,
    "##otype": 1,
    "##agi": 4,
    "##gl": 10,
    "moist": 5,
    "tobacco": 65,
    "nico": 3,
    "addiction": 5,
    "oral": 29,
    "trends": 15,
    "prevalence": 28,
    "collected": 35,
    "chewing": 17,
    "##ins": 28,
    "##tu": 36,
    "cigarette": 16,
    "weighted": 4,
    "intervals": 17,
    "calculated": 20,
    "categories": 36,
    "blacks": 42,
    "rural": 8,
    "proportion": 24,
    "males": 29,
    "strategies": 16,
    "markedly": 5,
    "encouraging": 23,
    "adolescent": 7,
    "disorders": 8,
    "educational": 58,
    "socio": 15,
    "##economic": 9,
    "initiation": 10,
    "fourth": 73,
    "occasionally": 35,
    "##stituting": 5,
    "implications": 30,
    "concurrent": 2,
    "integrating": 6,
    "enforcing": 6,
    "minors": 33,
    "interventions": 7,
    "adopting": 6,
    "##500": 5,
    "patterns": 32,
    "##sil": 4,
    "##lates": 4,
    "excuses": 19,
    "faced": 20,
    "##coming": 13,
    "hiking": 6,
    "tomorrow": 64,
    "glimpse": 7,
    "leagues": 20,
    "talent": 58,
    "230": 66,
    "disappointment": 13,
    "sail": 18,
    "capt": 5,
    "##ivism": 8,
    "spawned": 4,
    "movements": 25,
    "explicit": 33,
    "##val": 29,
    "framework": 22,
    "deepened": 1,
    "clearer": 11,
    "fluid": 35,
    "sentences": 19,
    "beneath": 7,
    "##era": 41,
    "functioning": 15,
    "relating": 28,
    "##eth": 35,
    "outward": 14,
    "consciousness": 28,
    "expo": 38,
    "reveals": 14,
    "shy": 11,
    "mystic": 7,
    "##air": 8,
    "enhanced": 34,
    "convict": 15,
    "ethnicity": 6,
    "orientation": 55,
    "formally": 12,
    "declare": 25,
    "##the": 39,
    "##rence": 16,
    "postal": 16,
    "inspector": 20,
    "emotionally": 11,
    "proponents": 14,
    "contribution": 28,
    "##ug": 30,
    "ranking": 12,
    "provence": 1,
    "stood": 45,
    "translated": 33,
    "reputation": 29,
    "eccentric": 7,
    "inserted": 19,
    "##zz": 6,
    "plates": 19,
    "##osi": 12,
    "sucks": 18,
    "1760": 5,
    "freeing": 2,
    "tasks": 34,
    "1738": 3,
    "equivalence": 5,
    "acquire": 38,
    "majors": 27,
    "reactive": 5,
    "polymers": 1,
    "##uin": 4,
    "##outh": 2,
    "##rth": 6,
    "classed": 2,
    "spell": 35,
    "##saurus": 6,
    "prosecutor": 2,
    "##ust": 43,
    "##pan": 22,
    "##cies": 59,
    "conceded": 3,
    "##mac": 22,
    "silenced": 3,
    "implying": 16,
    "counselor": 7,
    "marshal": 4,
    "disagreed": 5,
    "objected": 10,
    "persisted": 4,
    "attorneys": 7,
    "personality": 30,
    "credible": 21,
    "panicked": 1,
    "sequence": 79,
    "bending": 6,
    "delaying": 4,
    "violating": 17,
    "sustaining": 7,
    "prejudice": 25,
    "prosecution": 23,
    "cabin": 19,
    "seized": 26,
    "questioned": 26,
    "chased": 9,
    "slalom": 2,
    "##art": 37,
    "tor": 8,
    "quieter": 2,
    "hose": 16,
    "##pie": 13,
    "highlight": 7,
    "farther": 12,
    "bump": 11,
    "mel": 24,
    "##lowe": 1,
    "passenger": 37,
    "stopping": 41,
    "county": 13,
    "umm": 3,
    "discreet": 3,
    "alert": 10,
    "##frame": 33,
    "rectangular": 15,
    "grid": 27,
    "teammates": 3,
    "wat": 10,
    "puzzled": 5,
    "enlarged": 7,
    "##color": 11,
    "##print": 118,
    "structures": 36,
    "dragon": 11,
    "bids": 14,
    "bid": 36,
    "dragons": 3,
    "damaged": 35,
    "scissors": 6,
    "bidding": 7,
    "tunes": 2,
    "detached": 16,
    "planes": 55,
    "##chev": 2,
    "aquatic": 2,
    "lesson": 24,
    "geoffrey": 21,
    "poison": 13,
    "tal": 6,
    "##isman": 1,
    "anniversary": 14,
    "mutant": 3,
    "arc": 61,
    "##ana": 29,
    "thieves": 6,
    "pal": 38,
    "rangers": 3,
    "##aire": 5,
    "reinforced": 4,
    "monsters": 3,
    "##az": 7,
    "snakes": 6,
    "cardboard": 5,
    "wild": 51,
    "campaigns": 6,
    "sage": 7,
    "bazaar": 9,
    "adventures": 9,
    "castle": 6,
    "11th": 12,
    "beasts": 18,
    "##uid": 9,
    "wizard": 4,
    "elemental": 2,
    "marvel": 7,
    "tb": 13,
    "castles": 1,
    "inspection": 25,
    "153": 36,
    "ko": 54,
    "##hl": 14,
    "169": 21,
    "kings": 12,
    "171": 20,
    "intra": 22,
    "gunpowder": 3,
    "181": 19,
    "enhancement": 28,
    "##ets": 22,
    "##say": 2,
    "oneself": 18,
    "disagreements": 3,
    "truths": 42,
    "universal": 48,
    "disagreement": 18,
    "alvin": 2,
    "modeling": 18,
    "interpretations": 48,
    "perceptions": 15,
    "##lay": 20,
    "wei": 5,
    "##dl": 9,
    "dortmund": 5,
    "##igen": 19,
    "1924": 12,
    "cargo": 7,
    "##gned": 7,
    "##gated": 11,
    "column": 71,
    "proto": 13,
    "##idal": 7,
    "geographic": 13,
    "pl": 111,
    "##under": 35,
    "scrape": 6,
    "manufacture": 40,
    "##utation": 18,
    "nausea": 6,
    "##lessly": 14,
    "##ressed": 10,
    "##nished": 2,
    "cue": 10,
    "deportation": 8,
    "resisted": 5,
    "rebels": 8,
    "fruits": 18,
    "hangs": 26,
    "starvation": 8,
    "soy": 3,
    "tender": 16,
    "juicy": 2,
    "steak": 7,
    "burger": 3,
    "##pling": 11,
    "loans": 17,
    "penny": 6,
    "infant": 28,
    "##icide": 3,
    "stove": 31,
    "##gre": 49,
    "##sso": 13,
    "thoughtful": 7,
    "integer": 31,
    "arithmetic": 50,
    "straightforward": 20,
    "##written": 20,
    "chaos": 9,
    "grazing": 3,
    "graz": 2,
    "tissue": 30,
    "##ptic": 6,
    "1701": 2,
    "1700": 6,
    "platinum": 4,
    "##word": 26,
    "greatest": 51,
    "##pur": 5,
    "##nity": 5,
    "##ations": 38,
    "allegations": 15,
    "congressional": 14,
    "##ply": 21,
    "swimmer": 2,
    "swimming": 8,
    "vein": 6,
    "obey": 58,
    "likeness": 2,
    "custom": 86,
    "arcade": 12,
    "confidential": 32,
    "travelling": 15,
    "##hm": 34,
    "employed": 30,
    "##asa": 12,
    "extensive": 50,
    "##mut": 25,
    "tables": 45,
    "implementations": 33,
    "designers": 24,
    "yell": 12,
    "crude": 12,
    "quantum": 19,
    "galactic": 7,
    "galaxy": 15,
    "halo": 11,
    "brightest": 2,
    "theorists": 4,
    "##iso": 13,
    "cloud": 25,
    "##logical": 13,
    "distances": 18,
    "scenarios": 8,
    "pet": 21,
    "sauce": 11,
    "spinning": 18,
    "invite": 16,
    "lights": 73,
    "##pad": 18,
    "sunshine": 1,
    "##tech": 25,
    "bounced": 22,
    "##tative": 9,
    "quantitative": 11,
    "##mous": 3,
    "beside": 20,
    "utmost": 6,
    "integrity": 23,
    "independently": 21,
    "assessing": 6,
    "proposing": 20,
    "efficiency": 14,
    "effectiveness": 24,
    "zone": 96,
    "tracked": 4,
    "ren": 18,
    "##plicity": 4,
    "outrage": 19,
    "lawsuits": 4,
    "blu": 12,
    "##nder": 15,
    "##ych": 14,
    "ops": 8,
    "professionally": 12,
    "profiles": 5,
    "predictable": 5,
    "concentrated": 16,
    "initiate": 7,
    "appearing": 23,
    "##ops": 41,
    "##sten": 8,
    "insertion": 16,
    "brink": 5,
    "pushing": 40,
    "preparations": 10,
    "armor": 21,
    "etched": 3,
    "assess": 19,
    "achieving": 8,
    "##ngen": 1,
    "covert": 8,
    "exploited": 4,
    "ego": 19,
    "flush": 16,
    "tabloid": 5,
    "whipped": 5,
    "tactical": 19,
    "revenge": 11,
    "##ester": 6,
    "##uses": 17,
    "textbook": 10,
    "laughed": 12,
    "##lled": 23,
    "##eric": 11,
    "##och": 6,
    "##ria": 34,
    "tests": 111,
    "compromised": 25,
    "mali": 5,
    "##nger": 3,
    "psychiatric": 4,
    "##ona": 23,
    "systemic": 14,
    "##hot": 13,
    "negotiate": 22,
    "##ignant": 2,
    "deviation": 13,
    "##arding": 7,
    "ironic": 21,
    "clad": 7,
    "networking": 21,
    "console": 28,
    "newest": 16,
    "slated": 6,
    "dow": 4,
    "programmer": 67,
    "advocacy": 15,
    "##rch": 21,
    "undergone": 5,
    "##write": 35,
    "debuts": 2,
    "hierarchy": 28,
    "beats": 20,
    "skiing": 4,
    "holidays": 5,
    "dew": 3,
    "philips": 3,
    "nl": 51,
    "delivery": 36,
    "landmark": 7,
    "determines": 19,
    "##ator": 12,
    "smile": 7,
    "sheer": 9,
    "qui": 21,
    "sniff": 2,
    "clinton": 10,
    "bush": 17,
    "slightest": 18,
    "contracts": 37,
    "##itia": 6,
    "torah": 1,
    "mounting": 23,
    "lighter": 28,
    "snaps": 8,
    "fin": 9,
    "persecuted": 17,
    "banished": 3,
    "engaged": 42,
    "defines": 37,
    "##dicate": 13,
    "diplomats": 17,
    "denounced": 4,
    "museums": 8,
    "districts": 10,
    "principal": 21,
    "lia": 16,
    "aux": 7,
    "les": 13,
    "numbered": 15,
    "1881": 5,
    "1869": 3,
    "swords": 4,
    "hanged": 18,
    "##omi": 22,
    "##nable": 22,
    "spared": 7,
    "cruelty": 8,
    "inquisition": 7,
    "temporary": 42,
    "insanity": 5,
    "dire": 7,
    "exceed": 21,
    "thirty": 27,
    "##tute": 6,
    "##lem": 6,
    "rhetoric": 22,
    "flaming": 25,
    "boxer": 2,
    "##itor": 34,
    "grade": 46,
    "powered": 51,
    "exceptionally": 6,
    "bypass": 21,
    "foil": 17,
    "simulator": 13,
    "senior": 23,
    "spreads": 19,
    "##hee": 24,
    "dissertation": 7,
    "comparisons": 28,
    "stalled": 6,
    "installation": 89,
    "##entation": 16,
    "##gration": 7,
    "sited": 1,
    "1a": 15,
    "steppe": 7,
    "lim": 3,
    "##mit": 23,
    "limiting": 25,
    "illustrated": 8,
    "baden": 8,
    "##66": 45,
    "bison": 9,
    "##mind": 7,
    "##oya": 3,
    "##erie": 1,
    "##rce": 21,
    "miner": 6,
    "asteroids": 15,
    "mars": 3,
    "mining": 22,
    "crown": 4,
    "1964": 39,
    "wagon": 20,
    "resides": 9,
    "continent": 17,
    "yellowish": 1,
    "ty": 55,
    "##65": 38,
    "##firmed": 4,
    "rumor": 25,
    "tangent": 6,
    "dozen": 48,
    "unmistakable": 2,
    "hopes": 30,
    "impress": 13,
    "announces": 3,
    "refuses": 14,
    "posed": 18,
    "hum": 22,
    "##ilia": 4,
    "devout": 6,
    "encourages": 9,
    "shopping": 23,
    "##vered": 2,
    "translators": 8,
    "scribe": 10,
    "interpreting": 16,
    "corrupted": 26,
    "hebrew": 6,
    "translations": 30,
    "millennia": 3,
    "##ising": 13,
    "pains": 18,
    "ninth": 22,
    "##fm": 26,
    "xx": 65,
    "patented": 20,
    "manuscript": 8,
    "largest": 47,
    "mathematicians": 5,
    "employers": 14,
    "##ologists": 12,
    "possesses": 4,
    "##ographic": 61,
    "expertise": 21,
    "highlights": 11,
    "##gative": 1,
[...]
