{
  "freqs": {
    "[UNK]": 670332,
    "acceptable": 107,
    ".": 188151,
    "and": 44554,
    "have": 13880,
    "a": 44724,
    "right": 1934,
    "to": 57457,
    "determine": 165,
    "if": 6427,
    "they": 8560,
    "wish": 272,
    "return": 414,
    "the": 104937,
    "situation": 377,
    "prior": 118,
    "invasion": 38,
    "where": 1786,
    "were": 4484,
    "both": 1237,
    "part": 1165,
    "of": 50759,
    "same": 1868,
    "\"": 46848,
    "mandate": 33,
    "territory": 74,
    "-": 185191,
    "read": 1221,
    "colony": 35,
    "has": 5758,
    "no": 4225,
    "what": 5159,
    "happens": 228,
    "in": 32449,
    "another": 1126,
    "country": 427,
    "because": 2486,
    "you": 17665,
    "consider": 432,
    "them": 3932,
    "threat": 113,
    "is": 32345,
    "precisely": 54,
    "way": 2197,
    "that": 29881,
    "almost": 501,
    "all": 6404,
    "wars": 69,
    "aggression": 22,
    "started": 520,
    "territorial": 30,
    "expansion": 137,
    "by": 8542,
    "force": 344,
    "defines": 38,
    "as": 11364,
    "occupied": 91,
    "are": 13875,
    "recognised": 10,
    "such": 2165,
    "every": 979,
    "nation": 141,
    "on": 15375,
    "earth": 225,
    "(": 47283,
    "excluding": 21,
    "one": 6292,
    "small": 629,
    "car": 991,
    "##ibe": 49,
    "##an": 70,
    "island": 45,
    ")": 44347,
    "thinks": 114,
    "peace": 231,
    "possible": 891,
    "with": 13645,
    "continued": 99,
    "occupation": 61,
    "military": 359,
    "presence": 109,
    "?": 25598,
    "completely": 283,
    "un": 1269,
    "##sus": 7,
    "##tain": 27,
    "##able": 626,
    "bankrupt": 9,
    "simply": 522,
    "cannot": 607,
    "afford": 91,
    "finance": 26,
    "ec": 84,
    "##con": 179,
    "##omy": 14,
    "any": 4603,
    "more": 4329,
    "money": 580,
    "for": 20495,
    "an": 7939,
    "moved": 137,
    "deliberate": 17,
    "policy": 245,
    "prevent": 213,
    "territories": 45,
    "described": 196,
    "reasoning": 107,
    "clear": 445,
    "intention": 37,
    "was": 10421,
    "create": 333,
    "constituency": 2,
    "which": 4927,
    "bel": 76,
    "##ei": 65,
    "##ved": 67,
    "could": 2537,
    "not": 12901,
    "be": 15143,
    "deprived": 16,
    "land": 273,
    "stolen": 66,
    "from": 8461,
    "indigenous": 6,
    "population": 287,
    "pre": 525,
    "##text": 222,
    "##s": 10041,
    "under": 1332,
    "settlers": 7,
    "##qui": 98,
    "##red": 96,
    "through": 1379,
    "red": 297,
    "##ef": 50,
    "##ini": 50,
    "##tion": 264,
    "much": 2267,
    "used": 2043,
    "common": 415,
    "public": 850,
    "assertion": 77,
    "village": 90,
    "depends": 122,
    "food": 263,
    "belongs": 36,
    "invade": 25,
    "##r": 1363,
    "individual": 299,
    "title": 235,
    "clearly": 241,
    "excuse": 114,
    "build": 411,
    "condom": 8,
    "##inium": 1,
    "aliens": 3,
    "brought": 234,
    "occupy": 6,
    "foreign": 97,
    "power": 1029,
    "there": 5679,
    "breach": 11,
    "convention": 21,
    "st": 472,
    "##ip": 83,
    "##ulates": 18,
    "use": 3431,
    "must": 1420,
    "changed": 258,
    "amount": 253,
    "self": 376,
    "justify": 84,
    "##ing": 2310,
    "hard": 883,
    "lin": 22,
    "##ner": 46,
    "app": 319,
    "##ologists": 14,
    "will": 7170,
    "change": 647,
    "fact": 1077,
    "majority": 215,
    "world": 901,
    "governments": 104,
    ",": 128757,
    "those": 1940,
    "actually": 747,
    "condemned": 21,
    "this": 12333,
    "practice": 184,
    "also": 3003,
    "liability": 35,
    "talking": 396,
    "about": 6267,
    "civilian": 86,
    "en": 671,
    "##camp": 3,
    "##ments": 66,
    "would": 6597,
    "last": 1260,
    "than": 3593,
    "hours": 222,
    "against": 998,
    "tanks": 120,
    "'": 124779,
    "t": 12130,
    "fool": 62,
    "yourself": 302,
    "gulf": 4,
    "war": 395,
    "negotiating": 26,
    "table": 178,
    "their": 4219,
    "back": 1671,
    "##ers": 380,
    "had": 3916,
    "secure": 266,
    "base": 268,
    "ins": 216,
    "##rt": 66,
    "##ru": 115,
    "##cted": 39,
    "negotiate": 24,
    "or": 11174,
    "else": 751,
    "creation": 159,
    "settlements": 12,
    "gone": 212,
    "longer": 337,
    "cut": 332,
    "supply": 231,
    "at": 8370,
    "can": 8265,
    "chose": 49,
    "live": 501,
    "arab": 25,
    "state": 753,
    "existence": 280,
    "com": 2111,
    "##uni": 39,
    "##ty": 218,
    "does": 2358,
    "give": 989,
    "annex": 8,
    "##e": 1049,
    "new": 2102,
    "boundaries": 22,
    "drawn": 50,
    "up": 4224,
    "48": 518,
    "precious": 17,
    "little": 1045,
    "authority": 218,
    "agree": 504,
    "anything": 1030,
    "real": 882,
    "issue": 577,
    "treaty": 25,
    "but": 8444,
    "trade": 230,
    "remain": 136,
    "heavily": 45,
    "dependent": 49,
    "indefinitely": 7,
    "it": 21355,
    "gu": 80,
    "##aran": 12,
    "##tor": 117,
    "factor": 135,
    "lands": 55,
    "confiscated": 8,
    "within": 450,
    "di": 742,
    "##sman": 16,
    "##tling": 7,
    "shadow": 41,
    "structures": 40,
    "allow": 354,
    "discrimination": 40,
    "non": 932,
    "nominal": 9,
    "##y": 884,
    "secular": 66,
    "irony": 16,
    "guarantee": 84,
    "palestinian": 4,
    "des": 160,
    "##cr": 378,
    "##imi": 85,
    "##nation": 44,
    "law": 988,
    "order": 816,
    "protect": 265,
    "remaining": 71,
    "going": 1604,
    "forced": 97,
    "##ot": 197,
    "position": 407,
    "mean": 838,
    "outlaw": 21,
    "prevents": 33,
    "arabs": 17,
    "buying": 162,
    "using": 1495,
    "posted": 411,
    "couple": 428,
    "weeks": 287,
    "ago": 627,
    "doesn": 1151,
    "seem": 621,
    "appeared": 98,
    "news": 952,
    "##group": 398,
    "haven": 358,
    "reply": 277,
    "moderator": 31,
    "having": 717,
    "intermittent": 12,
    "problems": 796,
    "our": 2049,
    "mail": 1460,
    "time": 3216,
    "me": 5080,
    "seen": 747,
    "before": 1363,
    "fight": 133,
    "week": 379,
    "some": 4784,
    "questions": 584,
    "fighting": 125,
    "whether": 619,
    "things": 1362,
    "just": 3731,
    "##if": 136,
    "##iable": 45,
    "looking": 741,
    "into": 2509,
    "these": 2446,
    "jo": 26,
    "##tted": 10,
    "down": 1259,
    "my": 6021,
    "findings": 51,
    "go": 1659,
    "answered": 99,
    "his": 3286,
    "yet": 610,
    "know": 3956,
    "here": 1815,
    "slightly": 147,
    "different": 1030,
    "tack": 21,
    "possibly": 224,
    "ll": 1474,
    "able": 825,
    "get": 3876,
    "deeply": 39,
    "later": 503,
    "post": 817,
    "info": 726,
    "soon": 354,
    "duty": 95,
    "neighbour": 8,
    ":": 37025,
    "good": 2437,
    "men": 424,
    "6": 3993,
    "10": 1872,
    "ourselves": 100,
    "22": 473,
    "39": 307,
    "toward": 160,
    "who": 4730,
    "may": 2386,
    "trouble": 215,
    "therefore": 202,
    "render": 81,
    "assistance": 76,
    "injured": 58,
    "man": 705,
    "should": 2718,
    "organisation": 24,
    "causes": 151,
    "people": 4324,
    "harm": 90,
    "even": 2187,
    "medical": 198,
    "corps": 16,
    "army": 135,
    "etc": 1301,
    "faith": 441,
    "citizens": 247,
    "commonwealth": 4,
    "2": 9244,
    "11": 952,
    "12": 1063,
    "recognise": 16,
    "rules": 327,
    "kingdoms": 2,
    "we": 5511,
    "taking": 321,
    "struggles": 8,
    "nations": 99,
    "due": 388,
    "strangers": 14,
    "pilgrims": 3,
    "amongst": 27,
    "so": 4779,
    "passing": 66,
    "national": 205,
    "aspirations": 8,
    "applied": 99,
    "politics": 142,
    "s": 13570,
    "story": 303,
    "supposed": 247,
    "strive": 18,
    "resist": 110,
    "evil": 175,
    "suffer": 79,
    "yourselves": 17,
    "def": 159,
    "##ra": 129,
    "##uded": 22,
    "inc": 251,
    "##osis": 28,
    "##ten": 74,
    "##t": 1475,
    "us": 1904,
    "assist": 44,
    "preserving": 10,
    "destroy": 93,
    "when": 3396,
    "he": 5315,
    "returns": 78,
    "set": 1088,
    "kingdom": 59,
    "unto": 67,
    "20": 1188,
    "25": 1250,
    "soul": 91,
    "subject": 434,
    "higher": 302,
    "powers": 62,
    ";": 17453,
    "ordained": 4,
    "##eth": 43,
    "ordinance": 13,
    "13": 716,
    "1": 12386,
    "sake": 62,
    "king": 50,
    "supreme": 23,
    "well": 1937,
    "doing": 729,
    "ye": 77,
    "put": 939,
    "silence": 30,
    "ignorance": 75,
    "foolish": 41,
    "15": 1171,
    "scriptures": 35,
    "make": 2137,
    "submission": 28,
    "divine": 86,
    "command": 302,
    "equally": 75,
    "5": 5301,
    "19": 538,
    "29": 332,
    "runs": 349,
    "counter": 86,
    "refuse": 58,
    "reason": 764,
    "bond": 18,
    "servants": 8,
    "service": 379,
    "life": 828,
    "task": 109,
    "example": 857,
    "type": 528,
    "thing": 1116,
    "3": 9324,
    "23": 471,
    "bonds": 11,
    "##er": 1465,
    "##vant": 14,
    "work": 1810,
    "heart": 190,
    "##ily": 40,
    "boss": 40,
    "i": 1216,
    "e": 1429,
    "shaken": 7,
    "together": 350,
    "running": 602,
    "over": 2213,
    "o": 849,
    "##ops": 43,
    "bit": 1414,
    "side": 569,
    "track": 137,
    "contests": 23,
    "between": 1185,
    "battle": 72,
    "testify": 21,
    "truth": 388,
    "believe": 1509,
    "embrace": 14,
    "promises": 42,
    "become": 410,
    "fellow": 72,
    "interested": 586,
    "associations": 10,
    "relation": 33,
    "unions": 8,
    "tells": 145,
    "lay": 105,
    "aside": 89,
    "weight": 168,
    "run": 961,
    "race": 139,
    "wise": 72,
    "disc": 218,
    "##ard": 34,
    "association": 34,
    "re": 2610,
    "##tar": 35,
    "##d": 1524,
    "progress": 61,
    "endure": 9,
    "hardness": 1,
    "soldier": 26,
    "##ret": 36,
    "##h": 634,
    "##tangle": 30,
    "##th": 195,
    "himself": 310,
    "affairs": 42,
    "please": 841,
    "him": 1671,
    "hat": 54,
    "chosen": 100,
    "4": 5345,
    "warns": 17,
    "une": 60,
    "##qual": 14,
    "##ly": 1476,
    "yo": 78,
    "##ked": 31,
    "##bel": 26,
    "##ie": 205,
    "##vers": 50,
    "obvious": 218,
    "applications": 282,
    "marriage": 101,
    "covers": 55,
    "like": 4204,
    "business": 330,
    "partnerships": 2,
    "other": 4095,
    "form": 386,
    "close": 335,
    "person": 782,
    "persons": 110,
    "believing": 76,
    "case": 1172,
    "principle": 87,
    "comes": 517,
    "remember": 506,
    "being": 1877,
    "animals": 119,
    "strengths": 5,
    "clean": 130,
    "uncle": 10,
    "ideas": 270,
    "strongly": 93,
    "stressed": 16,
    "18": 738,
    "suggest": 262,
    "##king": 69,
    "aspect": 60,
    "ser": 22,
    "##vi": 31,
    "##tu": 38,
    "##de": 166,
    "says": 758,
    "take": 1374,
    "##ke": 131,
    "upon": 346,
    "then": 2670,
    "already": 687,
    "7": 5250,
    "question": 1169,
    "asked": 454,
    "thou": 37,
    "help": 1254,
    "##go": 116,
    "##dly": 20,
    "lucky": 76,
    "escape": 81,
    "facts": 141,
    "made": 1343,
    "affinity": 9,
    "sold": 196,
    "wicked": 29,
    "##ness": 332,
    "21": 541,
    "alliance": 5,
    "agreed": 80,
    "said": 1975,
    "am": 2370,
    "art": 185,
    "thy": 17,
    "##to": 159,
    "firm": 67,
    "refusing": 16,
    "advice": 193,
    "false": 181,
    "prophets": 35,
    "insisted": 21,
    "hearing": 92,
    "prophet": 87,
    "trying": 715,
    "do": 5867,
    "found": 872,
    "couldn": 340,
    "break": 272,
    "away": 683,
    "out": 4878,
    "among": 385,
    "separate": 173,
    "touch": 105,
    "receive": 188,
    "shall": 270,
    "sons": 32,
    "daughters": 21,
    "17": 805,
    "less": 839,
    "far": 1004,
    "m": 2966,
    "still": 1450,
    "don": 4009,
    "think": 3350,
    "ve": 2195,
    "raised": 119,
    "summary": 112,
    "few": 1156,
    "essential": 77,
    "relationship": 121,
    "14": 1043,
    "dedication": 5,
    "course": 1010,
    "action": 311,
    "required": 286,
    "compromise": 113,
    "followers": 79,
    "8": 4055,
    "separated": 36,
    "involves": 58,
    "master": 99,
    "servant": 21,
    "16": 1122,
    "serve": 103,
    "two": 2272,
    "masters": 18,
    "24": 857,
    "lust": 14,
    "pride": 25,
    "quite": 713,
    "opposed": 114,
    "nature": 255,
    "deliver": 37,
    "delivered": 37,
    "rights": 441,
    "swear": 30,
    "allegiance": 6,
    "anyone": 1546,
    "gentle": 13,
    "apply": 200,
    "avoiding": 27,
    "strife": 5,
    "throughout": 95,
    "lives": 232,
    "wage": 27,
    "weapons": 291,
    "armour": 6,
    "probably": 1031,
    "look": 1032,
    "further": 305,
    "fascist": 54,
    "killing": 191,
    "invading": 20,
    "soil": 27,
    "lack": 199,
    "ha": 139,
    "explanation": 102,
    "fa": 309,
    "##sis": 53,
    "##ye": 15,
    "dam": 9,
    "##gal": 19,
    "##a": 481,
    "son": 238,
    "ken": 6,
    "##di": 106,
    "##ler": 102,
    "##i": 442,
    "##tl": 12,
    "##ig": 61,
    "##in": 335,
    "ala": 29,
    "##sin": 30,
    "ya": 85,
    "##pin": 22,
    "##ca": 104,
    "ac": 352,
    "ka": 79,
    "##ld": 75,
    "##ila": 27,
    "da": 51,
    "yi": 6,
    "##cek": 2,
    "##k": 642,
    "amc": 1,
    "##asi": 31,
    "bu": 181,
    "se": 201,
    "##fer": 82,
    "##lik": 2,
    "af": 70,
    "##fed": 15,
    "de": 513,
    "yu": 21,
    "pl": 125,
    "##aka": 5,
    "nu": 79,
    "##mara": 1,
    "##ni": 166,
    "##lim": 37,
    "note": 338,
    "design": 266,
    "implementation": 133,
    "behind": 333,
    "chip": 678,
    "moves": 57,
    "pawn": 4,
    "elect": 20,
    "president": 84,
    "united": 10,
    "states": 286,
    "immediately": 140,
    "pack": 58,
    "bags": 24,
    "replaced": 128,
    "team": 750,
    "fresh": 42,
    "young": 263,
    "government": 1175,
    "say": 2047,
    "96": 232,
    "%": 16946,
    "appointed": 35,
    "hired": 27,
    "rather": 823,
    "elected": 39,
    "device": 317,
    "been": 3701,
    "production": 93,
    "six": 186,
    "months": 359,
    "foundation": 44,
    "currently": 292,
    "body": 415,
    "sky": 62,
    "hasn": 130,
    "fallen": 36,
    "how": 2635,
    "convert": 322,
    "tar": 279,
    "##ga": 92,
    "similar": 494,
    "picture": 180,
    "list": 985,
    "values": 232,
    "after": 1500,
    "operations": 117,
    "p": 795,
    "ix": 5,
    "##els": 11,
    "codes": 70,
    "ex": 648,
    ">": 88018,
    "000": 881,
    "##100": 157,
    "##25": 90,
    "##5": 975,
    "##pi": 113,
    "##x": 1297,
    "##el": 140,
    "001": 103,
    "##200": 23,
    "##20": 98,
    "##1": 1409,
    "##et": 216,
    "##c": 839,
    "someone": 1060,
    "explain": 271,
    "data": 1254,
    "ore": 11,
    "file": 1536,
    "its": 1801,
    "stored": 79,
    "##gas": 7,
    "ft": 532,
    "##p": 1707,
    "site": 322,
    "wu": 88,
    "##ar": 169,
    "##chi": 64,
    "##ve": 257,
    "um": 135,
    "##ich": 38,
    "something": 1739,
    "off": 1627,
    "beaten": 38,
    "path": 134,
    "motives": 26,
    "often": 543,
    "while": 1117,
    "publicly": 67,
    "criticizing": 10,
    "sale": 282,
    "taken": 398,
    "advantage": 154,
    "prices": 126,
    "paid": 160,
    "barren": 4,
    "many": 2002,
    "times": 627,
    "price": 505,
    "fertile": 10,
    "^": 13661,
    "hear": 364,
    "answer": 566,
    "para": 100,
    "##ph": 130,
    "##rase": 50,
    "means": 745,
    "mother": 366,
    "##board": 213,
    "cop": 121,
    "##ro": 204,
    "##ces": 152,
    "##sor": 87,
    "*": 33243,
    "yours": 111,
    "add": 369,
    "/": 27812,
    "desktop": 67,
    "230": 67,
    "##wat": 10,
    "usual": 147,
    "connector": 159,
    "five": 251,
    "floppy": 231,
    "drives": 356,
    "three": 823,
    "visible": 106,
    "internal": 246,
    "slot": 120,
    "38": 567,
    "##6": 1655,
    "##m": 1515,
    "##z": 202,
    "64": 348,
    "##b": 928,
    "cache": 157,
    "##mb": 63,
    "80": 750,
    "##us": 286,
    "sim": 90,
    "##ms": 212,
    "worth": 364,
    "$": 18024,
    "150": 166,
    "alone": 237,
    "math": 111,
    "90": 447,
    "0": 9657,
    "rating": 50,
    "26": 429,
    "version": 777,
    "email": 630,
    "saying": 572,
    "only": 3697,
    "9": 3472,
    "95": 282,
    "including": 581,
    "free": 772,
    "toast": 11,
    "!": 17034,
    "certain": 461,
    "find": 1455,
    "cheaper": 129,
    "board": 381,
    "without": 1218,
    "breaking": 59,
    "sweat": 8,
    "several": 759,
    "hundred": 127,
    "dollar": 54,
    "premium": 33,
    "high": 846,
    "quality": 311,
    "components": 102,
    "known": 532,
    "very": 2410,
    "reliable": 100,
    "compatible": 173,
    "systems": 541,
    "various": 344,
    "points": 379,
    "past": 380,
    "ads": 53,
    "pages": 148,
    "want": 1928,
    "see": 2200,
    "differential": 32,
    "495": 20,
    "complete": 295,
    "100": 712,
    "need": 1787,
    "fully": 173,
    "guaranteed": 71,
    "details": 310,
    "understanding": 198,
    "ted": 10,
    "turner": 2,
    "owner": 126,
    "braves": 2,
    "tv": 61,
    "station": 222,
    "nationwide": 19,
    "games": 570,
    "dubbed": 3,
    "america": 12,
    "least": 1033,
    "whose": 225,
    "across": 242,
    "now": 1798,
    "wo": 39,
    "beautiful": 47,
    "sec": 116,
    "##au": 39,
    "##cus": 41,
    "mets": 3,
    "w": 560,
    "##gn": 21,
    "chicago": 4,
    "##sb": 30,
    "boston": 4,
    "super": 161,
    "##station": 15,
    "east": 48,
    "coast": 43,
    "cubs": 39,
    "sox": 4,
    "show": 511,
    "h": 450,
    "##ym": 54,
    "##ow": 41,
    "##itz": 6,
    "@": 23320,
    "cs": 570,
    "j": 214,
    "##hu": 32,
    "ed": 2519,
    "##u": 2815,
    "mel": 27,
    "##low": 7,
    "dead": 381,
    "your": 5456,
    "laid": 33,
    "attitude": 148,
    "solve": 98,
    "problem": 1654,
    "myself": 374,
    "willing": 298,
    "second": 767,
    "password": 76,
    "secret": 247,
    "key": 1412,
    "whenever": 74,
    "logged": 7,
    "solution": 250,
    "once": 526,
    "installed": 250,
    "effort": 194,
    "##less": 274,
    "start": 680,
    "x": 1476,
    "##hos": 39,
    "control": 716,
    "access": 561,
    "got": 1276,
    "##li": 116,
    "##ge": 130,
    "##ous": 166,
    "storing": 14,
    "keys": 528,
    "multi": 276,
    "##user": 21,
    "computers": 119,
    "pointer": 108,
    "reading": 384,
    "liked": 57,
    "idea": 684,
    "unrelated": 13,
    "sources": 347,
    "strong": 350,
    "mixing": 26,
    "function": 298,
    "unless": 376,
    "missed": 120,
    "source": 588,
    "suggested": 136,
    "hardware": 464,
    "seems": 908,
    "available": 1336,
    "##gues": 3,
    "##sable": 41,
    "intruder": 17,
    "boot": 158,
    "##ed": 1607,
    "buffer": 146,
    "related": 346,
    "network": 273,
    "traffic": 180,
    "basically": 139,
    "uses": 446,
    "strategy": 61,
    "requiring": 52,
    "reach": 142,
    "kernel": 31,
    "heard": 699,
    "sounded": 23,
    "folks": 224,
    "experiencing": 12,
    "30": 952,
    "60": 573,
    "seconds": 114,
    "reasonably": 74,
    "configured": 30,
    "works": 730,
    "##tation": 141,
    "delay": 45,
    "log": 152,
    "process": 366,
    "approach": 235,
    "ether": 36,
    "##fin": 44,
    "|": 3599,
    "##press": 78,
    "skip": 37,
    "takes": 262,
    "considering": 168,
    "writing": 217,
    "end": 970,
    "solutions": 59,
    "launches": 49,
    "simultaneously": 34,
    "tries": 47,
    "suck": 60,
    "bits": 284,
    "net": 703,
    "sitting": 100,
    "_": 28580,
    "idle": 29,
    "compression": 128,
    "finishes": 7,
    "deter": 72,
    "##mini": 21,
    "##stic": 30,
    "upper": 64,
    "bound": 69,
    "extra": 268,
    "identity": 80,
    "sy": 230,
    "##llo": 17,
    "##gis": 19,
    "valid": 199,
    "however": 495,
    "##dicate": 17,
    "invalid": 51,
    "first": 2036,
    "pointed": 134,
    "designate": 24,
    "pants": 34,
    "rarely": 48,
    "pockets": 19,
    "most": 1858,
    "too": 1671,
    "shallow": 10,
    "important": 584,
    "woman": 232,
    "her": 988,
    "hand": 603,
    "she": 805,
    "goes": 415,
    "building": 321,
    "herself": 37,
    "ass": 138,
    "##nts": 39,
    "broadcasting": 13,
    "definite": 40,
    "place": 809,
    "sa": 43,
    "##ft": 89,
    "ie": 163,
    "locked": 43,
    "wal": 4,
    "looks": 318,
    "ugly": 34,
    "breaks": 46,
    "lines": 394,
    "makes": 584,
    "rear": 109,
    "wide": 237,
    "cows": 10,
    "habits": 15,
    "clothing": 38,
    "pr": 69,
    "##use": 62,
    "functions": 211,
    "mater": 6,
    "wearing": 68,
    "nude": 3,
    "bi": 128,
    "women": 377,
    "suit": 66,
    "coat": 32,
    "outside": 315,
    "none": 211,
    "inside": 254,
    "coats": 5,
    "##tal": 58,
    "fair": 171,
    "wears": 10,
    "clothes": 37,
    "tell": 934,
    "fun": 159,
    "##al": 411,
    "dressed": 13,
    "wallet": 17,
    "pocket": 34,
    "coven": 1,
    "##ent": 293,
    "better": 1245,
    "unlock": 19,
    "quickly": 164,
    "locks": 40,
    "fast": 399,
    "##mo": 124,
    "##ut": 63,
    "aware": 175,
    "necks": 4,
    "yelling": 14,
    "lbs": 24,
    "inches": 50,
    "why": 1315,
    "told": 657,
    "care": 468,
    "lot": 931,
    "worried": 51,
    "putting": 171,
    "health": 271,
    "home": 609,
    "##opa": 33,
    "##thy": 18,
    "really": 1482,
    "knowing": 136,
    "getting": 635,
    "6000": 53,
    "##thic": 12,
    "practices": 56,
    "documented": 49,
    "investigations": 21,
    "principles": 72,
    "book": 619,
    "weekend": 82,
    "turned": 220,
    "section": 371,
    "medicine": 91,
    "paragraph": 102,
    "informed": 51,
    "##ths": 19,
    "feel": 513,
    "obliged": 13,
    "provide": 485,
    "sort": 451,
    "author": 271,
    "stated": 203,
    "though": 918,
    "virtue": 19,
    "sc": 338,
    "##ept": 75,
    "##ical": 73,
    "narrow": 39,
    "minded": 45,
    "big": 588,
    "witch": 6,
    "doctor": 189,
    "flexible": 33,
    "te": 132,
    "##mp": 250,
    "files": 870,
    "check": 541,
    "environment": 205,
    "variable": 86,
    "drive": 1150,
    "directory": 376,
    "pretty": 528,
    "standard": 576,
    "own": 1269,
    "opinion": 321,
    "bearing": 34,
    "organization": 213,
    "employer": 42,
    "monitors": 98,
    "knows": 315,
    "replacing": 33,
    "cap": 108,
    "cost": 485,
    "falls": 45,
    "bad": 724,
    "batch": 38,
    "supplier": 15,
    "local": 648,
    "repair": 63,
    "shop": 90,
    "prop": 161,
    "##he": 71,
    "##cies": 63,
    "sure": 1201,
    "credibility": 25,
    "wrote": 225,
    "called": 949,
    "prediction": 35,
    "bought": 274,
    "gold": 73,
    "hurt": 121,
    "financially": 10,
    "800": 389,
    "half": 326,
    "stuck": 78,
    "mind": 497,
    "worked": 219,
    "tend": 172,
    "predictions": 50,
    "come": 1128,
    "true": 931,
    "forget": 183,
    "ones": 405,
    "didn": 1196,
    "la": 91,
    "perhaps": 360,
    "mentioned": 314,
    "definitely": 108,
    "might": 1347,
    "silly": 76,
    "ask": 618,
    "anyway": 324,
    "purchasing": 38,
    "66": 298,
    "computer": 583,
    "places": 254,
    "sell": 383,
    "machines": 249,
    "brand": 122,
    "formerly": 49,
    "since": 1267,
    "manufacturer": 78,
    "never": 1170,
    "leaning": 28,
    "towards": 159,
    "machine": 525,
    "impression": 63,
    "solid": 125,
    "tech": 115,
    "support": 847,
    "hr": 20,
    "days": 587,
    "warrant": 243,
    "##ee": 62,
    "years": 1502,
    "recently": 325,
    "trust": 197,
    "company": 319,
    "appreciate": 232,
    "input": 308,
    "choice": 267,
    "positive": 140,
    "negative": 95,
    "either": 920,
    "ever": 642,
    "##boards": 17,
    "advance": 390,
    "information": 1418,
    "ranks": 18,
    "greatest": 55,
    "blu": 13,
    "##nder": 17,
    "mention": 229,
    "ice": 154,
    "committed": 155,
    "decided": 254,
    "incapable": 17,
    "leader": 89,
    "stripped": 15,
    "1990": 227,
    "whole": 618,
    "default": 240,
    "du": 89,
    "##pe": 112,
    "blind": 65,
    "sided": 16,
    "dumped": 25,
    "season": 446,
    "starting": 176,
    "sign": 167,
    "contract": 85,
    "humiliating": 4,
    "stripping": 11,
    "trading": 33,
    "guy": 284,
    "loss": 182,
    "lesser": 22,
    "extent": 74,
    "series": 292,
    "dec": 343,
    "##imating": 12,
    "player": 247,
    "personality": 31,
    "fan": 208,
    "awareness": 23,
    "##car": 18,
    "##ious": 51,
    "today": 543,
    "[": 12930,
    "did": 1774,
    "##side": 17,
    "acquired": 29,
    "roster": 29,
    "]": 14316,
    "card": 836,
    "bull": 73,
    "curious": 101,
    "plan": 276,
    "making": 505,
    "requirement": 60,
    "always": 711,
    "presented": 143,
    "ge": 124,
    "aid": 99,
    "anybody": 370,
    "planning": 89,
    "sha": 76,
    "##ving": 40,
    "head": 403,
    "logic": 193,
    "correct": 439,
    "spelling": 30,
    "supplies": 32,
    "thinking": 308,
    "education": 162,
    "suppliers": 9,
    "schools": 73,
    "##art": 41,
    "companies": 201,
    "greatly": 189,
    "appreciated": 327,
    "best": 941,
    "knowledge": 318,
    "pictures": 122,
    "organic": 10,
    "object": 221,
    "charged": 40,
    "plates": 21,
    "energy": 157,
    "patterns": 35,
    "spikes": 8,
    "around": 1141,
    "photographed": 8,
    "depending": 111,
    "vary": 71,
    "##pol": 46,
    "##ate": 153,
    "proves": 38,
    "universe": 158,
    "signature": 66,
    "racetrack": 1,
    "original": 540,
    "statement": 349,
    "nonsense": 46,
    "leg": 84,
    "##is": 173,
    "##late": 26,
    "morality": 130,
    "pass": 252,
    "laws": 343,
    "single": 433,
    "moral": 237,
    "act": 251,
    "manner": 118,
    "actions": 194,
    "reflection": 12,
    "unwilling": 25,
    "risk": 207,
    "punishment": 99,
    "nothing": 720,
    "distinction": 49,
    "fine": 405,
    "image": 640,
    "monitor": 340,
    "video": 451,
    "##ta": 250,
    "harder": 63,
    "outputs": 25,
    "format": 465,
    "television": 71,
    "equipment": 195,
    "conversion": 77,
    "hands": 214,
    "costs": 202,
    "output": 645,
    "transfer": 236,
    "types": 203,
    "graphic": 58,
    "mode": 735,
    "tape": 295,
    "frame": 140,
    "lead": 226,
    "##va": 100,
    "##bly": 117,
    "scratch": 34,
    "animation": 69,
    "program": 1432,
    "barr": 9,
    "evidence": 602,
    "contrary": 96,
    "der": 73,
    "##ange": 4,
    "##atic": 65,
    "thought": 769,
    "nec": 56,
    "##sar": 58,
    "bunch": 152,
    "children": 623,
    "satisfy": 37,
    "del": 188,
    "##usion": 8,
    "mania": 10,
    "circa": 15,
    "1993": 799,
    "fruit": 52,
    "##cake": 3,
    "demonstrating": 13,
    "corruption": 30,
    "centuries": 57,
    "ridiculous": 68,
    "aren": 325,
    "designed": 278,
    "evolved": 15,
    "discomfort": 13,
    "humans": 131,
    "birth": 68,
    "sacrificed": 11,
    "increased": 151,
    "brain": 125,
    "cr": 270,
    "##anial": 5,
    "size": 504,
    "easier": 160,
    "horses": 20,
    "typically": 90,
    "worse": 205,
    "family": 322,
    "tree": 60,
    "complicated": 74,
    "pioneer": 13,
    "great": 790,
    "grandfather": 22,
    "wives": 24,
    "figure": 275,
    "wife": 218,
    "each": 1064,
    "child": 274,
    "happened": 385,
    "reached": 100,
    "fort": 19,
    "##ies": 331,
    "prosperous": 2,
    "farmers": 6,
    "lost": 292,
    "rig": 30,
    "##ors": 83,
    "childbirth": 2,
    "graveyard": 2,
    "contain": 120,
    "graves": 8,
    "##tones": 5,
    "##f": 857,
    "baby": 50,
    "1853": 2,
    "ten": 147,
    "consequences": 72,
    "devastating": 4,
    "direct": 178,
    "experience": 404,
    "dozen": 55,
    "victims": 82,
    "foul": 33,
    "bree": 4,
    "##ch": 251,
    "isn": 674,
    "fatal": 46,
    "adequate": 55,
    "permanently": 20,
    "damages": 18,
    "bodies": 123,
    "believer": 33,
    "evolution": 59,
    "favor": 88,
    "births": 6,
    "wr": 31,
    "##oth": 45,
    "outrageous": 17,
    "straw": 30,
    "attack": 296,
    "practically": 26,
    "mouth": 99,
    "foam": 15,
    "statistical": 36,
    "sophisticated": 37,
    "enough": 944,
    "balance": 54,
    "risks": 60,
    "produce": 198,
    "exact": 154,
    "statistics": 85,
    "looked": 302,
    "rest": 403,
    "assured": 37,
    "balanced": 44,
    "wouldn": 452,
    "encourage": 61,
    "indicated": 46,
    "grounds": 79,
    "waiting": 133,
    "until": 622,
    "emergency": 59,
    "bear": 168,
    "took": 523,
    "decisions": 111,
    "talked": 117,
    "main": 367,
    "hers": 6,
    "advocates": 16,
    "bother": 114,
    "relative": 89,
    "significant": 169,
    "nice": 409,
    "surroundings": 13,
    "view": 379,
    "intensity": 23,
    "doubt": 285,
    "importance": 80,
    "advocating": 18,
    "lo": 88,
    "##ps": 193,
    "##ided": 8,
    "fairly": 196,
    "serious": 261,
    "permanent": 72,
    "preserve": 41,
    "est": 38,
    "##hetic": 5,
    "consideration": 105,
    "##ter": 461,
    "usually": 433,
    "selecting": 13,
    "proper": 160,
    "menu": 138,
    "entry": 476,
    "sample": 127,
    "sl": 89,
    "999": 15,
    "n": 796,
    "l": 231,
    "##12": 77,
    "r": 418,
    "##log": 29,
    "&": 13376,
    "options": 198,
    "text": 394,
    "window": 728,
    "icon": 73,
    "tc": 66,
    "##sh": 87,
    "wonderful": 75,
    "extension": 83,
    "following": 817,
    "alias": 54,
    "##cm": 26,
    "echo": 103,
    "\\": 13840,
    "{": 890,
    "}": 1302,
    "cw": 34,
    "~": 1636,
    "##rc": 252,
    "special": 313,
    "##w": 529,
    "executed": 49,
    "printing": 71,
    "prompt": 53,
    "current": 635,
    "host": 150,
    "name": 1047,
    "bar": 118,
    "500": 310,
    "460": 13,
    "##0": 1604,
    "50": 969,
    "+": 15541,
    "49": 292,
    "231": 47,
    "75": 454,
    "61": 386,
    "##42": 51,
    "65": 305,
    "##55": 60,
    "mark": 120,
    "##hof": 4,
    "inform": 78,
    "##ati": 50,
    "dortmund": 5,
    "multiple": 227,
    "##pace": 73,
    "bottom": 129,
    "screen": 466,
    "allows": 200,
    "select": 96,
    "overcome": 21,
    "stacks": 11,
    "windows": 494,
    "open": 568,
    "spread": 96,
    "independent": 174,
    "screens": 48,
    "flick": 4,
    "article": 643,
    "<": 18032,
    "02": 358,
    "##46": 33,
    "##7": 1261,
    "##j": 153,
    "##v": 402,
    "##2": 1241,
    "#": 14675,
    "modification": 19,
    "74": 230,
    "speed": 614,
    "consumption": 25,
    "obsolete": 38,
    "comparable": 54,
    "lower": 227,
    "round": 206,
    "##st": 363,
    "variety": 123,
    "devices": 234,
    "blaze": 12,
    "generally": 249,
    "hate": 150,
    "disagree": 147,
    "smart": 83,
    "project": 228,
    "lots": 233,
    "stuff": 572,
    "slow": 203,
    "parallel": 113,
    "mild": 32,
    "designer": 12,
    "working": 543,
    "serial": 307,
    "cu": 217,
    "##ssed": 9,
    "swore": 8,
    "ultra": 32,
    "tiny": 46,
    "line": 1003,
    "g": 741,
    "##lit": 42,
    "hi": 75,
    "##ck": 44,
    "##up": 246,
    "eye": 167,
    "##bl": 54,
    "##ink": 18,
    "bang": 17,
    "##ggle": 7,
    "counted": 33,
    "whatever": 346,
    "count": 200,
    "vol": 106,
    "guess": 423,
    "stood": 55,
    "push": 108,
    "avoid": 260,
    "d": 1832,
    "replace": 147,
    "understood": 84,
    "exist": 457,
    "published": 238,
    "rec": 478,
    "##ens": 66,
    "##ion": 246,
    "bizarre": 27,
    "gospels": 21,
    "texts": 46,
    "share": 264,
    "strange": 105,
    "readings": 17,
    "stands": 101,
    "elsewhere": 74,
    "space": 872,
    "engineering": 79,
    "employment": 22,
    "educational": 68,
    "opportunities": 41,
    "area": 473,
    "responses": 119,
    "feed": 83,
    "try": 863,
    "addresses": 121,
    "federal": 196,
    "mu": 158,
    "##le": 321,
    "charges": 64,
    "crimes": 109,
    "nr": 26,
    "##oma": 21,
    "##lly": 41,
    "occur": 183,
    "pissed": 28,
    "interest": 324,
    "intent": 91,
    "perpetrators": 8,
    "pursuit": 15,
    "preventing": 37,
    "violations": 48,
    "civil": 178,
    "broke": 84,
    "long": 1171,
    "##rra": 17,
    "##ssing": 15,
    "blacks": 49,
    "specifically": 161,
    "recognized": 72,
    "constitutional": 47,
    "group": 760,
    "bash": 30,
    "minority": 125,
    "defeat": 32,
    "south": 56,
    "stick": 176,
    "normally": 132,
    "themselves": 446,
    "walking": 54,
    "##ped": 60,
    "##iti": 32,
    "##ously": 21,
    "tried": 488,
    "jailed": 2,
    "nobody": 127,
    "wanted": 425,
    "anymore": 84,
    "14th": 14,
    "amendment": 78,
    "equal": 153,
    "protection": 172,
    "crime": 337,
    "severe": 73,
    "penalty": 115,
    "involving": 56,
    "needed": 350,
    "human": 526,
    "hated": 9,
    "somebody": 181,
    "call": 797,
    "guard": 44,
    "school": 269,
    "girls": 50,
    "during": 604,
    "##eg": 74,
    "##re": 421,
    "##gation": 15,
    "1950": 19,
    "##ize": 250,
    "militia": 127,
    "turn": 406,
    "guns": 363,
    "point": 1408,
    "thousands": 166,
    "crowd": 116,
    "shoot": 74,
    "obey": 72,
    "face": 375,
    "death": 388,
    "firing": 56,
    "squad": 9,
    "failing": 30,
    "arms": 220,
    "god": 225,
    "southern": 39,
    "boys": 43,
    "fixed": 136,
    "bay": 63,
    "##one": 89,
    "##ts": 188,
    "governor": 11,
    "left": 745,
    "standing": 116,
    "arrested": 25,
    "marshall": 7,
    "ability": 219,
    "jurisdiction": 41,
    "scanner": 73,
    "limiting": 28,
    "selection": 88,
    "models": 188,
    "document": 151,
    "feeder": 7,
    "kyle": 1,
    "ni": 162,
    "##mm": 91,
    "im": 266,
    "aa": 36,
    "front": 341,
    "jerk": 40,
    "day": 988,
    "raining": 11,
    "cats": 11,
    "dogs": 64,
    "##for": 30,
    "limit": 168,
    "bike": 380,
    "driving": 179,
    "meters": 33,
    "next": 697,
    "light": 376,
    "calmly": 11,
    "walked": 52,
    "rolled": 22,
    "total": 268,
    "idiot": 49,
    "sounds": 213,
    "cage": 55,
    "tail": 47,
    "##gating": 8,
    "effective": 208,
    "flash": 36,
    "brake": 92,
    "pumping": 9,
    "pedal": 54,
    "obviously": 185,
    "play": 646,
    "##ern": 27,
    "flashing": 14,
    "directly": 257,
    "wrong": 734,
    "meaningful": 39,
    "##cc": 195,
    "##ant": 132,
    "exception": 62,
    "opinions": 230,
    "demonstrate": 48,
    "physically": 45,
    "parked": 11,
    "latter": 105,
    "slim": 8,
    "chance": 262,
    "pause": 8,
    "1a": 18,
    "sometimes": 282,
    "windshield": 14,
    "bug": 132,
    "natural": 169,
    "tomatoes": 4,
    "terribly": 26,
    "allergic": 37,
    "peanuts": 3,
    "onions": 3,
    "milk": 29,
    "won": 658,
    "cause": 489,
    "foods": 57,
    "taste": 62,
    "shouldn": 168,
    "eat": 144,
    "spicy": 2,
    "neighbor": 84,
    "ul": 33,
    "##cer": 62,
    "modified": 118,
    "additive": 37,
    "chile": 1,
    "black": 282,
    "pepper": 5,
    "salt": 35,
    "cream": 14,
    "sauce": 13,
    "cloud": 28,
    "flavor": 30,
    "tasted": 5,
    "diner": 2,
    "coming": 342,
    "fall": 273,
    "93": 670,
    "peers": 8,
    "direction": 155,
    "16th": 14,
    "20th": 34,
    "contact": 352,
    "300": 274,
    "##19": 32,
    "##4": 1191,
    "272": 19,
    "phone": 439,
    "number": 1326,
    "##8": 1475,
    "41": 283,
    "##3": 1288,
    "year": 1533,
    "notebook": 11,
    "meg": 169,
    "ram": 74,
    "huge": 133,
    "##dis": 124,
    "##q": 204,
    "##view": 42,
    "constantly": 52,
    "crash": 74,
    "commonly": 77,
    "citing": 8,
    "memory": 518,
    "par": 123,
    "##ity": 368,
    "error": 352,
    "tick": 19,
    "counts": 33,
    "startup": 56,
    "copy": 406,
    "instead": 427,
    "disk": 678,
    "installing": 47,
    "##en": 273,
    "frequency": 85,
    "likely": 483,
    "##hood": 47,
    "happening": 134,
    "win": 530,
    "vs": 378,
    "crashes": 34,
    "frequently": 113,
    "nonetheless": 12,
    "incredibly": 46,
    "bored": 17,
    "considered": 361,
    "plunged": 4,
    "establish": 71,
    "printers": 56,
    "receipts": 7,
    "letters": 97,
    "specify": 90,
    "printer": 218,
    "print": 335,
    "handle": 204,
    "leave": 304,
    "move": 341,
    "circular": 30,
    "wi": 539,
    "##dgets": 135,
    "release": 233,
    "love": 375,
    "knob": 17,
    "##dget": 305,
    "slide": 63,
    "dream": 65,
    "demands": 39,
    "sit": 84,
    "outstanding": 21,
    "issues": 290,
    "rep": 282,
    "##arat": 20,
    "##ions": 50,
    "recognition": 34,
    "properties": 49,
    "returned": 112,
    "rightful": 11,
    "owners": 135,
    "showed": 146,
    "region": 106,
    "subjected": 27,
    "genocide": 161,
    "beyond": 188,
    "belief": 279,
    "planned": 86,
    "##minate": 16,
    "tortured": 16,
    "massacre": 151,
    "millions": 85,
    "defense": 364,
    "civilians": 115,
    "assemble": 33,
    "innocent": 129,
    "mosques": 4,
    "burn": 78,
    "buildings": 44,
    "methods": 144,
    "traveler": 2,
    "seldom": 16,
    "stomach": 43,
    "recommend": 136,
    "references": 165,
    "##n": 663,
    "1982": 119,
    "1978": 47,
    "nun": 12,
    "1970": 41,
    "cemetery": 8,
    "members": 317,
    "friends": 191,
    "gr": 156,
    "burial": 9,
    "killed": 412,
    "hugged": 6,
    "coffin": 11,
    "containing": 143,
    "remains": 78,
    "brother": 96,
    "atop": 4,
    "92": 536,
    "weep": 9,
    "holding": 100,
    "relatives": 33,
    "yesterday": 128,
    "amid": 4,
    "died": 203,
    "seven": 109,
    "shot": 254,
    "chest": 34,
    "range": 227,
    "120": 148,
    "refugees": 42,
    "treated": 87,
    "hospital": 109,
    "include": 589,
    "stab": 13,
    "wounds": 16,
    "28": 417,
    "leads": 132,
    "interpreter": 21,
    "preferred": 49,
    "address": 610,
    "below": 313,
    "sic": 26,
    "wasn": 323,
    "rely": 68,
    "keep": 775,
    "fe": 133,
    "##tish": 6,
    "##es": 542,
    "besides": 71,
    "beef": 16,
    "##sas": 14,
    "##se": 221,
    "##mble": 14,
    "molecular": 21,
    "level": 432,
    "flawless": 14,
    "cosmetic": 8,
    "surgery": 51,
    "store": 132,
    "shelf": 34,
    "priced": 32,
    "coded": 15,
    "goods": 27,
    "catch": 77,
    "errors": 178,
    "mentally": 11,
    "edit": 61,
    "spell": 38,
    "posed": 19,
    "caller": 22,
    "selling": 146,
    "genes": 30,
    "##mes": 30,
    "basic": 233,
    "units": 98,
    "culture": 135,
    "genetics": 8,
    "stand": 255,
    "brink": 5,
    "##me": 177,
    "amp": 150,
    "##fication": 59,
    "technologies": 62,
    "restricted": 52,
    "destructive": 21,
    "rampant": 7,
    "countryside": 8,
    "laying": 22,
    "waste": 126,
    "benefits": 84,
    "future": 361,
    "technology": 345,
    "offer": 367,
    "busy": 58,
    "whip": 11,
    "emotions": 22,
    "genetically": 7,
    "engineered": 17,
    "development": 248,
    "##venting": 9,
    "harmful": 22,
    "virtual": 105,
    "##met": 26,
    "##ic": 262,
    "delightful": 4,
    "message": 588,
    "interesting": 373,
    "kindly": 10,
    "written": 407,
    "surprised": 115,
    "##pro": 128,
    "survey": 47,
    "roughly": 63,
    "gay": 167,
    "page": 182,
    "headline": 12,
    "effect": 377,
    "shocked": 16,
    "sex": 167,
    "although": 374,
    "promoting": 24,
    "lie": 129,
    "scare": 20,
    "politicians": 37,
    "obedience": 31,
    "typical": 130,
    "sorts": 65,
    "notice": 149,
    "aces": 1,
    "##sing": 63,
    "flop": 59,
    "##pies": 76,
    "everything": 505,
    "crawl": 13,
    "imagine": 171,
    "backup": 119,
    "##hing": 26,
    "fights": 9,
    "loses": 21,
    "glad": 92,
    "medium": 44,
    "supposedly": 68,
    "bus": 407,
    "favorite": 96,
    "340": 38,
    "faster": 248,
    "door": 233,
    "needs": 365,
    "handling": 81,
    "fly": 117,
    "seriously": 154,
    "alarm": 36,
    "certainly": 425,
    "done": 834,
    "repeat": 99,
    "drill": 24,
    "hatch": 16,
    "hide": 77,
    "lock": 126,
    "00": 1391,
    "finally": 191,
    "escaped": 28,
    "cleaning": 36,
    "morning": 193,
    "##powered": 6,
    "office": 206,
    "fled": 37,
    "lab": 80,
    "heading": 39,
    "general": 567,
    "export": 261,
    "lc": 120,
    "mit": 261,
    "nearly": 139,
    "per": 771,
    "answers": 253,
    "con": 864,
    "##tri": 270,
    "xv": 66,
    "blast": 38,
    "vacation": 28,
    "capital": 78,
    "guys": 183,
    "convince": 99,
    "everyone": 427,
    "unrest": 13,
    "##ricted": 5,
    "encryption": 604,
    "mole": 37,
    "##ster": 41,
    "word": 543,
    "suspect": 206,
    "convicted": 32,
    "operating": 122,
    "drug": 228,
    "ring": 73,
    "jail": 40,
    "cells": 74,
    "enforcement": 284,
    "agency": 121,
    "conducting": 32,
    "wire": 393,
    "political": 292,
    "opponent": 42,
    "senior": 24,
    "administration": 155,
    "official": 164,
    "intercept": 32,
    "conversation": 95,
    "changes": 218,
    "interpretation": 126,
    "event": 260,
    "yes": 304,
    "sense": 420,
    "security": 390,
    "agencies": 200,
    "justification": 53,
    "deny": 98,
    "##on": 317,
    "##ven": 66,
    "##ient": 56,
    "impossible": 171,
    "abuses": 32,
    "minimize": 24,
    "allowing": 99,
    "legitimate": 136,
    "huh": 41,
    "predict": 62,
    "debut": 3,
    "full": 577,
    "technical": 211,
    "sci": 276,
    "crypt": 649,
    "impact": 123,
    "es": 412,
    "##crow": 275,
    "system": 1900,
    "lied": 16,
    "##os": 204,
    "##yst": 128,
    "##em": 178,
    "withstand": 11,
    "scrutiny": 21,
    "algorithm": 297,
    "##co": 129,
    "##gni": 28,
    "##zed": 78,
    "vu": 33,
    "##ln": 29,
    "##era": 51,
    "##bilities": 25,
    "decade": 39,
    "gotta": 28,
    "careful": 106,
    "showing": 110,
    "male": 87,
    "homosexual": 168,
    "partners": 42,
    "apparent": 70,
    "dramatically": 24,
    "prom": 54,
    "##cu": 102,
    "admit": 142,
    "member": 191,
    "sexual": 103,
    "homosexuality": 86,
    "highly": 177,
    "##cious": 11,
    "writes": 123,
    "versions": 186,
    "expert": 85,
    "referenced": 16,
    "above": 794,
    "unix": 89,
    "discussed": 123,
    "mixed": 48,
    "confused": 80,
    "##fu": 37,
    "##ddled": 2,
    "genuinely": 11,
    "entirely": 184,
    "load": 160,
    "forever": 59,
    "held": 238,
    "walk": 93,
    "campus": 36,
    "spring": 83,
    "##ailed": 3,
    "fire": 370,
    "br": 49,
    "##im": 82,
    "##stone": 3,
    "preacher": 13,
    "metaphor": 32,
    "limited": 238,
    "respect": 188,
    "teaching": 87,
    "criminal": 180,
    "trusting": 4,
    "aspects": 97,
    "religion": 423,
    "package": 539,
    "graphics": 488,
    "library": 237,
    "ru": 27,
    "##diment": 5,
    "##ry": 386,
    "tasks": 36,
    "hidden": 70,
    "removal": 22,
    "##ding": 139,
    "recommendations": 44,
    "others": 758,
    "actual": 193,
    "classified": 79,
    "thrust": 42,
    "cellular": 76,
    "phones": 99,
    "radio": 236,
    "identify": 67,
    "##pl": 189,
    "court": 261,
    "orders": 88,
    "magic": 58,
    "present": 337,
    "house": 258,
    "fraction": 35,
    "final": 226,
    "component": 50,
    "average": 265,
    "instance": 155,
    "heads": 116,
    "platt": 15,
    "expensive": 194,
    "parts": 357,
    "assembly": 75,
    "third": 367,
    "electronics": 84,
    "noise": 119,
    "numbers": 428,
    "percentage": 85,
    "=": 43523,
    "exclusive": 39,
    "entire": 273,
    "sets": 139,
    "enhanced": 38,
    "fails": 79,
    "204": 63,
    "bytes": 160,
    "nowhere": 42,
    "near": 337,
    "click": 51,
    "var": 30,
    "##ible": 122,
    "shell": 173,
    "setting": 173,
    "value": 434,
    "behavior": 135,
    "fail": 109,
    "##fi": 305,
    "##gur": 87,
    "timing": 87,
    "vertical": 36,
    "porch": 3,
    "composite": 28,
    "sync": 84,
    "odd": 72,
    "tearing": 17,
    "top": 477,
    "sensitive": 67,
    "expect": 343,
    "scanned": 27,
    "fields": 107,
    "onto": 128,
    "sheet": 75,
    "##lar": 69,
    "pinched": 5,
    "corner": 91,
    "fingers": 41,
    "tear": 64,
    "tube": 82,
    "##izing": 86,
    "pulses": 12,
    "inter": 244,
    "##lace": 28,
    "rock": 57,
    "turns": 100,
    "accurate": 127,
    "bet": 128,
    "vendors": 67,
    "interests": 95,
    "institute": 7,
    "voluntary": 41,
    "equipped": 44,
    "individuals": 136,
    "corporations": 20,
    "determined": 89,
    "basis": 241,
    "language": 264,
    "gun": 711,
    "bills": 41,
    "pushing": 43,
    "otherwise": 254,
    "supporting": 82,
    "rational": 121,
    "excuses": 21,
    "fed": 83,
    "media": 247,
    "cases": 383,
    "items": 139,
    "accident": 92,
    "philosophy": 71,
    "controls": 88,
    "controlling": 31,
    "##connected": 6,
    "defend": 106,
    "ea": 73,
    "##ves": 57,
    "##drop": 41,
    "##ping": 120,
    "unlawful": 19,
    "totally": 173,
    "unacceptable": 19,
    "outlook": 4,
    "cards": 299,
    "chips": 306,
    "##code": 187,
    "passport": 12,
    "guise": 7,
    "stream": 205,
    "##lining": 19,
    "jewels": 1,
    "sees": 54,
    "extremely": 115,
    "ominous": 8,
    "trend": 37,
    "1984": 67,
    "late": 231,
    "turning": 77,
    "amazingly": 10,
    "prophecy": 70,
    "wake": 28,
    "hurry": 16,
    "warning": 81,
    "bell": 36,
    "danger": 61,
    "flag": 70,
    "seeks": 14,
    "itself": 400,
    "apart": 88,
    "regard": 112,
    "##pr": 82,
    "##iv": 42,
    "##ile": 43,
    "##ged": 79,
    "citizen": 80,
    "ne": 195,
    "##bu": 194,
    "##lous": 10,
    "safeguard": 39,
    "maintaining": 39,
    "rogue": 5,
    "allowed": 237,
    "safe": 199,
    "duplicate": 21,
    "combination": 75,
    "submitted": 31,
    "##keeping": 8,
    "difference": 441,
    "philosophical": 29,
    "eva": 34,
    "##por": 14,
    "tools": 207,
    "cp": 73,
    "46": 322,
    "201": 32,
    "1991": 230,
    "resolution": 133,
    "45": 618,
    "183": 17,
    "account": 208,
    "int": 318,
    "##ada": 20,
    "economic": 150,
    "social": 151,
    "policies": 97,
    "restrictions": 72,
    "external": 158,
    "losses": 30,
    "result": 334,
    "crisis": 44,
    "increasing": 57,
    "develop": 153,
    "economy": 112,
    "persist": 20,
    "report": 273,
    "appreciation": 6,
    "##vern": 7,
    "##mental": 2,
    "governmental": 24,
    "organizations": 135,
    "provided": 216,
    "international": 140,
    "community": 222,
    "sustain": 14,
    "increase": 208,
    "cooperation": 53,
    "treatment": 158,
    "transit": 9,
    "exports": 12,
    "imports": 6,
    "neighbouring": 5,
    "ports": 109,
    "exit": 83,
    "calls": 223,
    "granting": 9,
    "concessions": 14,
    "concrete": 32,
    "prefer": 251,
    "##ential": 9,
    "measures": 72,
    "certificates": 8,
    "origin": 75,
    "immediate": 56,
    "lifting": 40,
    "obstacles": 18,
    "hind": 15,
    "##ering": 35,
    "projects": 93,
    "providing": 123,
    "223": 42,
    "##ci": 210,
    "##lita": 4,
    "establishment": 42,
    "banks": 57,
    "investment": 74,
    "income": 68,
    "47th": 1,
    "session": 143,
    "sham": 6,
    "voters": 14,
    "accepting": 42,
    "borrow": 18,
    "spend": 166,
    "expand": 57,
    "charge": 185,
    "trillion": 19,
    "credit": 107,
    "deal": 424,
    "spending": 85,
    "expands": 11,
    "short": 421,
    "term": 337,
    "shrink": 22,
    "numerous": 71,
    "reasons": 259,
    "taxpayers": 12,
    "kept": 213,
    "campaign": 60,
    "budget": 140,
    "1983": 83,
    "raise": 94,
    "taxes": 110,
    "pun": 47,
    "deficit": 56,
    "awhile": 11,
    "collect": 46,
    "matter": 522,
    "graduate": 33,
    "major": 394,
    "background": 163,
    "experienced": 76,
    "programmer": 78,
    "##ology": 68,
    "##word": 26,
    "alleged": 61,
    "filters": 38,
    "sk": 47,
    "physics": 76,
    "age": 232,
    "fl": 57,
    "##ake": 47,
    "expectations": 28,
    "colors": 183,
    "talk": 430,
    "##age": 147,
    "geek": 9,
    "enjoys": 11,
    "squash": 12,
    "science": 303,
    "write": 456,
    "occasional": 32,
    "posts": 255,
    "minimal": 64,
    "mythology": 8,
    "react": 30,
    "differently": 53,
    "groups": 482,
    "admitted": 70,
    "contra": 96,
    "##rian": 1,
    "shouts": 11,
    "##ath": 25,
    "certainty": 35,
    "positions": 96,
    "challenge": 61,
    "conventional": 58,
    "wisdom": 56,
    "luck": 159,
    "figuring": 22,
    "based": 905,
    "liberal": 66,
    "degree": 121,
    "humanist": 11,
    "thread": 151,
    "describes": 75,
    "portion": 82,
    "users": 369,
    "incorrect": 73,
    "assumption": 82,
    "processing": 160,
    "sugar": 38,
    "bee": 56,
    "f": 443,
    "##ol": 66,
    "sodium": 8,
    "chloride": 2,
    "excess": 29,
    "symptoms": 76,
    "except": 393,
    "rapid": 22,
    "heartbeat": 3,
    "uncomfortable": 20,
    "feeling": 114,
    "pressure": 167,
    "quadrant": 4,
    "1969": 32,
    "friend": 321,
    "kids": 133,
    "hiking": 7,
    "##olate": 8,
    "mountain": 32,
    "sudden": 34,
    "large": 596,
    "rocks": 42,
    "began": 140,
    "saw": 444,
    "punk": 4,
    "glee": 7,
    "##fully": 32,
    "letting": 56,
    "loose": 47,
    "##ash": 7,
    "feet": 147,
    "screaming": 14,
    "cover": 309,
    "shriek": 1,
    "laughter": 13,
    "yelled": 5,
    "knock": 40,
    "responded": 65,
    "drew": 13,
    "pistols": 8,
    "fired": 104,
    "trees": 30,
    "ran": 173,
    "pound": 31,
    "proceeded": 23,
    "journey": 21,
    "let": 829,
    "evolve": 16,
    "violent": 98,
    "understand": 509,
    "cope": 12,
    "anger": 51,
    "society": 234,
    "##till": 4,
    "cross": 243,
    "patch": 108,
    "optional": 70,
    "ol": 79,
    "##it": 203,
    "##pile": 101,
    "clients": 115,
    "b": 504,
    "##mt": 24,
    "##oa": 44,
    "##pc": 26,
    "##ct": 211,
    "gram": 12,
    "lex": 4,
    "events": 235,
    "res": 191,
    "ut": 141,
    "##il": 89,
    "##mg": 35,
    "##rso": 89,
    "icons": 36,
    "li": 345,
    "extensions": 52,
    "##so": 94,
    "##cke": 9,
    "##ns": 168,
    "##l": 865,
    "ld": 46,
    "attempted": 56,
    "inclusion": 19,
    "symbol": 41,
    "referencing": 11,
    "code": 632,
    "gang": 58,
    "##firmed": 4,
    "rumor": 28,
    "disappeared": 31,
    "confirm": 36,
    "judge": 159,
    "denied": 57,
    "trial": 161,
    "motion": 62,
    "witnesses": 58,
    "truck": 80,
    "kind": 667,
    "scary": 28,
    "realize": 200,
    "judges": 73,
    "denying": 24,
    "trials": 37,
    "##dict": 99,
    "led": 124,
    "previous": 222,
    "ruling": 36,
    "appear": 231,
    "believed": 134,
    "jury": 40,
    "shows": 215,
    "pro": 449,
    "##claiming": 11,
    "bias": 75,
    "old": 900,
    "verdict": 27,
    "ju": 34,
    "##ror": 28,
    "objective": 201,
    "wants": 291,
    "bars": 42,
    "reaction": 90,
    "##ary": 53,
    "conspiracy": 47,
    "theory": 234,
    "idiots": 22,
    "rave": 9,
    "erosion": 8,
    "pop": 106,
    "##uli": 11,
    "eli": 25,
    "##tist": 9,
    "eventual": 14,
    "undo": 24,
    "arrogant": 51,
    "tide": 1,
    "sweeping": 16,
    "begin": 169,
    "er": 212,
    "##rant": 41,
    "robbed": 9,
    "freedoms": 24,
    "ar": 293,
    "##rogen": 5,
    "socialist": 19,
    "entertaining": 11,
    "conclusions": 71,
    "sends": 24,
    "##aries": 90,
    "roof": 31,
    "##atory": 6,
    "si": 116,
    "##zzling": 5,
    "debating": 14,
    "skills": 61,
    "lacking": 34,
    "leftist": 11,
    "ideology": 16,
    "hopes": 32,
    "concentrated": 17,
    "loaded": 103,
    "defined": 160,
    "academics": 11,
    "movement": 108,
    "acute": 22,
    "##op": 118,
    "perspective": 81,
    "arrogance": 38,
    "utter": 35,
    "stupidity": 19,
    "perfect": 211,
    "opponents": 32,
    "established": 136,
    "pol": 35,
    "##itic": 5,
    "arguing": 68,
    "virtually": 72,
    "elimination": 12,
    "tired": 48,
    "operates": 26,
    "ought": 79,
    "hopeless": 12,
    "closed": 149,
    "minds": 77,
    "specific": 403,
    "incident": 70,
    "regarding": 199,
    "nor": 267,
    "prohibiting": 28,
    "exercise": 66,
    "thereof": 32,
    "translation": 103,
    "districts": 12,
    "iconic": 3,
    "content": 101,
    "displays": 96,
    "imp": 209,
    "##osition": 17,
    "job": 325,
    "historical": 110,
    "modern": 172,
    "communication": 85,
    "deleted": 277,
    "profound": 10,
    "proportions": 8,
    "##ful": 223,
    "success": 130,
    "attribute": 34,
    "primarily": 109,
    "differences": 147,
    "successful": 111,
    "operation": 177,
    "knee": 26,
    "resentment": 3,
    "lottery": 3,
    "winners": 61,
    "cong": 25,
    "##rat": 36,
    "##ulate": 63,
    "fortune": 8,
    "hardest": 8,
    "centralized": 4,
    "partnership": 12,
    "indeed": 207,
    "nemesis": 1,
    "literary": 7,
    "piece": 172,
    "recent": 251,
    "venom": 8,
    "murdered": 77,
    "racism": 31,
    "tone": 64,
    "neglect": 19,
    "listened": 21,
    "continuously": 25,
    "encourages": 10,
    "audience": 39,
    "blindly": 19,
    "included": 346,
    "bones": 27,
    "strictly": 35,
    "adopt": 30,
    "satirical": 2,
    "##sume": 38,
    "intelligent": 52,
    "distinguish": 40,
    "satire": 5,
    "seriousness": 4,
    "contrast": 51,
    "mass": 171,
    "intellectual": 51,
    "lowest": 40,
    "den": 119,
    "##omi": 24,
    "##nator": 10,
    "kidding": 29,
    "##minated": 30,
    "##verse": 12,
    "worship": 125,
    "unlikely": 93,
    "characterization": 15,
    "highest": 95,
    "fits": 68,
    "doctrine": 98,
    "religious": 320,
    "vastly": 15,
    "record": 280,
    "funded": 49,
    "history": 404,
    "suppose": 156,
    "pointing": 51,
    "equivalent": 128,
    "reaching": 35,
    "wee": 27,
    "suggestion": 78,
    "entertainment": 15,
    "industry": 160,
    "advocate": 31,
    "criticism": 46,
    "##ave": 21,
    "##po": 54,
    "##uses": 17,
    "ad": 315,
    "##vocation": 10,
    "teach": 82,
    "early": 353,
    "hyper": 32,
    "##bol": 12,
    "indicates": 91,
    "##uated": 6,
    "implicit": 36,
    "plea": 11,
    "career": 106,
    "selected": 97,
    "cat": 126,
    "##ego": 12,
    "##rization": 2,
    "larger": 134,
    "represented": 31,
    "populace": 10,
    "sound": 404,
    "unreasonable": 25,
    "##uation": 11,
    "fashion": 47,
    "reporters": 27,
    "personal": 346,
    "##uous": 29,
    "mega": 80,
    "##lom": 9,
    "##ania": 5,
    "##cal": 62,
    "##ager": 8,
    "##rated": 62,
    "unlike": 62,
    "reporting": 41,
    "pu": 79,
    "##rp": 52,
    "##ort": 62,
    "achieve": 68,
    "##ivity": 36,
    "reflect": 42,
    "oppose": 32,
    "##pressing": 18,
    "##ia": 98,
    "tires": 121,
    "##ome": 67,
    "paradigm": 8,
    "##iting": 4,
    "conservative": 45,
    "engaging": 19,
    "lu": 98,
    "##dic": 39,
    "##rous": 27,
    "comparisons": 31,
    "##ning": 46,
    "challenged": 21,
    "##cie": 55,
    "mon": 50,
    "##ger": 61,
    "spreading": 21,
    "hatred": 51,
    "reverse": 88,
    "involvement": 46,
    "fascism": 7,
    "levels": 137,
    "taxation": 10,
    "skipped": 6,
    "vocabulary": 4,
    "classes": 76,
    "grade": 55,
    "million": 316,
    "##ned": 36,
    "hooked": 23,
    "op": 165,
    "##iate": 26,
    "addicted": 5,
    "analogy": 60,
    "closer": 94,
    "##written": 20,
    "em": 334,
    "aerial": 6,
    "surveillance": 62,
    "fires": 22,
    "press": 248,
    "conference": 142,
    "reporter": 32,
    "##rain": 1,
    "##gement": 6,
    "shouted": 30,
    "knocking": 18,
    "lanterns": 3,
    "1st": 215,
    "abbreviated": 1,
    "pretend": 36,
    "descend": 9,
    "study": 347,
    "claims": 246,
    "descendant": 5,
    "learn": 236,
    "experiments": 40,
    "tony": 9,
    "wayne": 8,
    "uv": 13,
    "##38": 71,
    "virginia": 20,
    "okay": 77,
    "attacking": 61,
    "soldiers": 191,
    "claim": 461,
    "confusing": 45,
    "explaining": 45,
    "exactly": 400,
    "##missible": 13,
    "shields": 11,
    "conditions": 132,
    "particular": 429,
    "terrorists": 61,
    "launch": 258,
    "missiles": 15,
    "helmet": 93,
    "passed": 199,
    "ok": 116,
    "save": 289,
    "dropped": 76,
    "##hd": 9,
    "##rator": 21,
    "easily": 267,
    "heat": 149,
    "watt": 27,
    "bulb": 24,
    "wooden": 13,
    "box": 325,
    "ventilation": 8,
    "holes": 80,
    "air": 279,
    "flow": 85,
    "cake": 12,
    "racks": 6,
    "spaced": 9,
    "electricity": 28,
    "oven": 24,
    "electric": 68,
    "gas": 276,
    "low": 454,
    "dried": 15,
    "cookie": 14,
    "tin": 44,
    "140": 80,
    "degrees": 76,
    "spoon": 4,
    "stays": 22,
    "inch": 70,
    "##flow": 12,
    "dr": 109,
    "##hy": 43,
    "##dra": 20,
    "sheets": 50,
    "halfway": 10,
    "sub": 460,
    "gerald": 1,
    "belt": 72,
    "ozone": 43,
    "##hole": 21,
    "miss": 85,
    "aim": 33,
    "improving": 22,
    "riding": 112,
    "cities": 125,
    "came": 687,
    "conflict": 119,
    "police": 389,
    "lane": 46,
    "splitting": 12,
    "listed": 128,
    "earlier": 192,
    "anti": 412,
    "kindness": 7,
    "continue": 274,
    "##za": 22,
    "##bo": 77,
    "##book": 36,
    "07": 137,
    "via": 443,
    "71": 299,
    "markets": 24,
    "illumination": 4,
    "orbiting": 21,
    "mirrors": 56,
    "##vir": 13,
    "##nt": 238,
    "disaster": 40,
    "##iter": 20,
    "developed": 204,
    "tourism": 5,
    "relay": 51,
    "satellites": 92,
    "ta": 57,
    "sarcasm": 23,
    "stop": 401,
    "screwed": 46,
    "given": 660,
    "drugs": 173,
    "legal": 371,
    "illegal": 180,
    "lively": 2,
    "sac": 38,
    "##raf": 6,
    "##ice": 51,
    "insurance": 206,
    "rates": 191,
    "bikes": 106,
    "##ure": 78,
    "127": 62,
    "27": 501,
    "ground": 444,
    "dealer": 167,
    "completion": 17,
    "ride": 142,
    "properly": 172,
    "beginning": 184,
    "motorcycle": 99,
    "naked": 19,
    "280": 60,
    "1760": 5,
    "echoed": 6,
    "reports": 227,
    "wonder": 187,
    "amused": 9,
    "alternative": 130,
    "award": 51,
    "practitioners": 9,
    "twice": 128,
    "rate": 407,
    "diseases": 68,
    "patients": 188,
    "##rable": 12,
    "disease": 194,
    "strikes": 29,
    "nine": 64,
    "##urable": 8,
    "cure": 60,
    "91": 330,
    "therapy": 48,
    "##tre": 57,
    "##atable": 28,
    "ethical": 44,
    "##sp": 202,
    "##ense": 21,
    "##bos": 5,
    "mathematics": 19,
    "hope": 460,
    "calculations": 39,
    "610": 44,
    "03": 294,
    "switch": 261,
    "smaller": 121,
    "configuration": 100,
    "512": 54,
    "adapt": 192,
    "##or": 293,
    "83": 201,
    "62": 217,
    "discovered": 98,
    "plug": 179,
    "##ging": 74,
    "scrolling": 17,
    "enter": 116,
    "flaw": 21,
    "listening": 80,
    "finding": 112,
    "color": 646,
    "##bs": 111,
    "v": 334,
    "exists": 233,
    "somewhere": 201,
    "bin": 141,
    "##xed": 13,
    "sony": 7,
    "1604": 7,
    "pick": 229,
    "missing": 164,
    "driver": 393,
    "along": 326,
    "figured": 51,
    "concurrently": 4,
    "kin": 9,
    "##ks": 40,
    "compiled": 73,
    "warnings": 28,
    "appropriate": 263,
    "flags": 30,
    "interface": 308,
    "supported": 186,
    "socket": 68,
    "ioc": 31,
    "server": 577,
    "fix": 234,
    "respond": 179,
    "immortal": 11,
    "##ized": 169,
    "dying": 41,
    "straight": 174,
    "unit": 280,
    "easy": 379,
    "##ons": 140,
    "##truct": 44,
    "transmission": 95,
    "pairs": 32,
    "##sto": 22,
    "nasty": 40,
    "taps": 9,
    "necessary": 346,
    "distrust": 12,
    "game": 848,
    "goal": 327,
    "59": 236,
    "3rd": 147,
    "period": 490,
    "beer": 23,
    "imaginary": 12,
    "results": 285,
    "##cure": 9,
    "becomes": 147,
    "argue": 148,
    "una": 119,
    "##pp": 90,
    "##roved": 11,
    "concern": 84,
    "camel": 9,
    "nose": 63,
    "tent": 7,
    "hum": 25,
    "became": 177,
    "trivial": 61,
    "scheme": 142,
    "proposed": 153,
    "digit": 88,
    "##ial": 114,
    "restraints": 16,
    "##ography": 146,
    "pm": 91,
    "##etz": 24,
    "shear": 36,
    "##son": 68,
    "riders": 43,
    "league": 232,
    "coach": 76,
    "##ub": 37,
    "finish": 80,
    "offensive": 95,
    "##ago": 40,
    "starter": 32,
    "fade": 17,
    "strike": 55,
    "##pie": 13,
    "##rien": 5,
    "##ce": 253,
    "su": 160,
    "##gg": 31,
    "##ito": 11,
    "macintosh": 5,
    "35": 474,
    "pitching": 105,
    "staff": 82,
    "again": 872,
    "exhibition": 13,
    "shut": 120,
    "##outs": 51,
    "gotten": 132,
    "baseball": 186,
    "contend": 28,
    "fans": 154,
    "teams": 253,
    "records": 82,
    "managing": 18,
    "gives": 242,
    "damn": 101,
    "contenders": 7,
    "fifth": 73,
    "four": 375,
    "rotation": 47,
    "##are": 27,
    "##nl": 16,
    "resigned": 14,
    "signed": 84,
    "released": 140,
    "ci": 173,
    "##um": 129,
    "##vent": 56,
    "rule": 192,
    "resigning": 2,
    "agents": 134,
    "neither": 176,
    "bright": 40,
    "##jon": 9,
    "donald": 6,
    "aix": 9,
    "kingston": 7,
    "ibm": 81,
    "athena": 12,
    "model": 361,
    "application": 459,
    "dial": 109,
    "##og": 109,
    "gets": 362,
    "popped": 19,
    "field": 255,
    "focus": 98,
    "perfectly": 109,
    "pure": 67,
    "relevant": 131,
    "##gs": 160,
    "initial": 144,
    "void": 65,
    "greeting": 8,
    "recall": 167,
    "seeing": 151,
    "blur": 22,
    "kit": 71,
    "magazines": 66,
    "norway": 2,
    "pulled": 77,
    "mo": 181,
    "##uld": 9,
    "sp": 281,
    "ku": 35,
    "adapted": 24,
    "beetle": 2,
    "floor": 135,
    "##pan": 23,
    "suspension": 46,
    "travel": 74,
    "stock": 107,
    "market": 291,
    "road": 243,
    "hood": 23,
    "fender": 12,
    "spare": 70,
    "mounted": 54,
    "slope": 16,
    "visibility": 4,
    "sharply": 9,
    "rounded": 10,
    "lightly": 20,
    "luggage": 4,
    "##xa": 38,
    "##gon": 139,
    "shaped": 36,
    "nut": 50,
    "tire": 89,
    "unfortunately": 52,
    "stopping": 53,
    "bookstore": 24,
    "copying": 27,
    "mag": 71,
    "calling": 175,
    "calculate": 23,
    "kc": 17,
    "89": 299,
    "odds": 25,
    "pull": 144,
    "bodily": 22,
    "##ifice": 7,
    "prominent": 25,
    "involved": 335,
    "apologize": 49,
    "standings": 40,
    "update": 75,
    "153": 40,
    "157": 31,
    "148": 49,
    "149": 58,
    "152": 57,
    "##9": 1219,
    "143": 51,
    "151": 38,
    "47": 284,
    "141": 53,
    "68": 240,
    "145": 991,
    "142": 61,
    "31": 341,
    "147": 108,
    "42": 350,
    "139": 36,
    "138": 41,
    "144": 95,
    "32": 624,
    "136": 46,
    "40": 772,
    "giants": 7,
    "137": 54,
    "1400": 31,
    "135": 72,
    "134": 53,
    "131": 46,
    "130": 145,
    "128": 300,
    "52": 211,
    "132": 75,
    "33": 387,
    "133": 84,
    "129": 104,
    "123": 53,
    "34": 705,
    "126": 45,
    "125": 101,
    "36": 489,
    "101": 188,
    "37": 444,
    "122": 62,
    "118": 59,
    "43": 371,
    "44": 373,
    "116": 52,
    "124": 50,
    "87": 173,
    "119": 57,
    "legion": 5,
    "54": 266,
    "55": 521,
    "51": 372,
    "53": 215,
    "115": 77,
    "56": 236,
    "57": 257,
    "58": 245,
    "sport": 87,
    "hockey": 277,
    "choices": 61,
    "63": 225,
    "buffalo": 22,
    "114": 70,
    "##my": 13,
    "##ba": 62,
    "##by": 133,
    "121": 54,
    "117": 83,
    "67": 186,
    "72": 255,
    "69": 194,
    "70": 441,
    "smith": 12,
    "73": 221,
    "110": 136,
    "77": 227,
    "shooting": 99,
    "seamen": 2,
    "76": 259,
    "111": 155,
    "78": 219,
    "79": 205,
    "112": 74,
    "88": 235,
    "81": 259,
    "1086": 1,
    "164": 19,
    "85": 256,
    "82": 239,
    "113": 64,
    "108": 72,
    "84": 201,
    "garry": 5,
    "##ola": 15,
    "86": 327,
    "94": 266,
    "106": 112,
    "98": 151,
    "97": 180,
    "99": 207,
    "109": 85,
    "105": 120,
    "103": 117,
    "102": 260,
    "104": 105,
    "107": 75,
    "gary": 5,
    "bout": 23,
    "163": 41,
    "156": 26,
    "146": 67,
    "convex": 15,
    "stars": 72,
    "160": 73,
    "154": 73,
    "155": 41,
    "159": 29,
    "174": 24,
    "162": 29,
    "980": 10,
    "161": 51,
    "fur": 28,
    "##ley": 20,
    "173": 15,
    "165": 25,
    "158": 38,
    "166": 11,
    "167": 46,
    "175": 39,
    "168": 22,
    "169": 22,
    "178": 20,
    "170": 53,
    "171": 21,
    "172": 32,
    "176": 25,
    "pine": 6,
    "177": 22,
    "185": 35,
    "179": 23,
    "186": 17,
    "180": 49,
    "182": 46,
    "181": 22,
    "187": 20,
    "189": 22,
    "184": 26,
    "188": 29,
    "voyage": 4,
    "##urs": 23,
    "190": 32,
    "930": 25,
    "191": 12,
    "197": 12,
    "192": 74,
    "193": 14,
    "194": 17,
    "198": 33,
    "195": 35,
    "196": 30,
    "199": 41,
    "950": 63,
    "209": 23,
    "200": 300,
    "207": 42,
    "202": 87,
    "205": 63,
    "203": 30,
    "208": 31,
    "206": 50,
    "210": 70,
    "960": 60,
    "211": 40,
    "213": 53,
    "212": 63,
    "219": 33,
    "214": 58,
    "215": 38,
    "216": 28,
    "217": 41,
    "218": 19,
    "220": 70,
    "221": 49,
    "222": 56,
    "fred": 10,
    "mc": 71,
    "##kim": 5,
    "400": 178,
    "224": 28,
    "pig": 28,
    "vomit": 10,
    "225": 53,
    "226": 28,
    "227": 47,
    "228": 16,
    "dayton": 3,
    "bomber": 10,
    "236": 18,
    "229": 19,
    "232": 30,
    "233": 33,
    "237": 24,
    "234": 24,
    "235": 28,
    "238": 28,
    "239": 16,
    "240": 134,
    "242": 22,
    "241": 23,
    "246": 27,
    "243": 24,
    "910": 15,
    "244": 18,
    "245": 32,
    "247": 14,
    "248": 30,
    "##tc": 26,
    "900": 117,
    "249": 27,
    "##runner": 13,
    "250": 239,
    "251": 26,
    "253": 45,
    "252": 31,
    "254": 27,
    "255": 54,
    "820": 12,
    "256": 213,
    "257": 21,
    "les": 15,
    "258": 20,
    "259": 24,
    "260": 50,
    "261": 29,
    "262": 25,
    "andrew": 48,
    "ida": 15,
    "##com": 211,
    "hp": 112,
    "403": 14,
    "06": 250,
    "##66": 47,
    "remembers": 5,
    "suicide": 87,
    "persecution": 53,
    "capture": 48,
    "raid": 35,
    "reminiscent": 6,
    "fitting": 29,
    "marking": 3,
    "50th": 2,
    "ann": 70,
    "##iver": 18,
    "##ser": 56,
    "dates": 39,
    "raids": 8,
    "troops": 126,
    "uniforms": 26,
    "carrying": 114,
    "automatic": 130,
    "backed": 43,
    "armored": 36,
    "vehicles": 78,
    "minorities": 60,
    "practicing": 23,
    "sexually": 15,
    "devi": 34,
    "ho": 138,
    "##arding": 10,
    "ps": 128,
    "tr": 115,
    "##ou": 39,
    "##bling": 44,
    "david": 37,
    "increasingly": 28,
    "becoming": 84,
    "annoying": 54,
    "especially": 379,
    "ally": 7,
    "protector": 13,
    "mentor": 7,
    "##rent": 20,
    "professional": 93,
    "thief": 22,
    "vehicle": 166,
    "thieves": 6,
    "ignition": 21,
    "kill": 350,
    "fuel": 128,
    "decent": 138,
    "steering": 61,
    "wheel": 112,
    "sufficient": 134,
    "persuade": 25,
    "target": 95,
    "jack": 56,
    "helped": 98,
    "somewhat": 149,
    "anonymous": 439,
    "nc": 116,
    "##sl": 88,
    "gov": 337,
    "pub": 561,
    "##ne": 159,
    "##ws": 62,
    "301": 77,
    "##17": 52,
    "announced": 153,
    "initiative": 61,
    "bring": 238,
    "improve": 101,
    "privacy": 337,
    "telephone": 155,
    "communications": 195,
    "meeting": 163,
    "involve": 67,
    "products": 199,
    "accelerate": 24,
    "advanced": 65,
    "telecommunications": 46,
    "networks": 88,
    "wireless": 19,
    "links": 54,
    "dialogue": 18,
    "private": 374,
    "sector": 85,
    "resolve": 38,
    "tension": 43,
    "vital": 29,
    "challenges": 25,
    "protecting": 63,
    "accommodate": 20,
    "competing": 38,
    "growth": 75,
    "pitted": 6,
    "electronic": 151,
    "funds": 118,
    "secrets": 30,
    "unauthorized": 28,
    "dealers": 98,
    "criminals": 168,
    "micro": 173,
    "##uit": 66,
    "engineers": 42,
    "represents": 50,
    "relatively": 114,
    "inexpensive": 45,
    "attached": 71,
    "ordinary": 78,
    "scramble": 20,
    "powerful": 111,
    "commercial": 255,
    "proprietary": 39,
    "conversations": 88,
    "transmitted": 47,
    "electronically": 29,
    "preserves": 11,
    "lawful": 31,
    "ensure": 82,
    "ab": 242,
    "##idi": 77,
    "##ng": 218,
    "unique": 80,
    "authorized": 61,
    "deco": 122,
    "messages": 186,
    "encoded": 23,
    "manufactured": 36,
    "deposited": 11,
    "separately": 52,
    "bases": 63,
    "officials": 119,
    "authorization": 47,
    "conduct": 79,
    "provides": 215,
    "authorities": 126,
    "effectiveness": 28,
    "purchase": 136,
    "thousand": 94,
    "addition": 265,
    "respected": 27,
    "experts": 97,
    "offered": 107,
    "confidential": 37,
    "assess": 25,
    "capabilities": 84,
    "step": 193,
    "addressing": 51,
    "dual": 76,
    "edge": 132,
    "sword": 31,
    "helps": 142,
    "shield": 26,
    "approaches": 52,
    "activities": 137,
    "trends": 20,
    "explore": 23,
    "directed": 81,
    "comprehensive": 79,
    "employ": 32,
    "voice": 209,
    "purposes": 149,
    "timely": 11,
    "promote": 58,
    "competitive": 41,
    "global": 82,
    "marketplace": 13,
    "manufacture": 42,
    "frequent": 39,
    "consultation": 22,
    "affected": 61,
    "industries": 34,
    "spur": 24,
    "unprecedented": 10,
    "infrastructure": 38,
    "##hi": 77,
    "##gh": 37,
    "##ways": 10,
    "transmit": 52,
    "images": 358,
    "programming": 166,
    "role": 174,
    "consistent": 124,
    "accompanying": 18,
    "provisions": 19,
    "directive": 29,
    "acquire": 40,
    "additional": 169,
    "275": 47,
    "listen": 132,
    "smuggling": 22,
    "##yp": 380,
    "##ted": 462,
    "##her": 94,
    "obtain": 170,
    "documentation": 147,
    "entities": 35,
    "responsible": 175,
    "smug": 31,
    "##glers": 13,
    "split": 108,
    "oversee": 9,
    "readily": 50,
    "invite": 18,
    "panel": 123,
    "evaluate": 35,
    "assure": 33,
    "potential": 166,
    "decision": 191,
    "propose": 41,
    "product": 286,
    "endorsed": 23,
    "consulted": 24,
    "discussions": 126,
    "##ify": 67,
    "carry": 257,
    "review": 140,
    "brief": 72,
    "leaders": 128,
    "manufacturers": 134,
    "produces": 73,
    "programs": 546,
    "facility": 60,
    "licensed": 47,
    "buy": 486,
    "incorporating": 7,
    "unable": 96,
    "technological": 26,
    "##med": 92,
    "restrict": 58,
    "fundamental": 140,
    "broad": 60,
    "mechanism": 103,
    "convenient": 68,
    "developing": 79,
    "threatens": 14,
    "safety": 230,
    "prohibit": 45,
    "outright": 29,
    "countries": 197,
    "effectively": 82,
    "entitled": 49,
    "##break": 30,
    "created": 262,
    "assessment": 23,
    "proposition": 53,
    "concerns": 63,
    "harmon": 14,
    "##iously": 12,
    "reasoned": 23,
    "techniques": 107,
    "indicate": 85,
    "differ": 51,
    "computing": 43,
    "innovative": 16,
    "ways": 259,
    "businesses": 41,
    "compete": 53,
    "terrorism": 52,
    "lest": 13,
    "nap": 12,
    "wood": 42,
    "stove": 35,
    "ign": 12,
    "##ite": 57,
    "warm": 40,
    "cold": 143,
    "microwave": 25,
    "popular": 137,
    "metro": 17,
    "areas": 212,
    "cutting": 48,
    "generator": 44,
    "pee": 13,
    "cars": 327,
    "bloody": 37,
    "indicators": 14,
    "lamp": 30,
    "dumb": 38,
    "assume": 339,
    "braking": 53,
    "indicator": 15,
    "panic": 38,
    "snapped": 12,
    "shock": 54,
    "wait": 216,
    "till": 74,
    "settled": 38,
    "bearings": 9,
    "publish": 51,
    "periodicals": 10,
    "##vo": 132,
    "guide": 97,
    "guides": 14,
    "eternal": 182,
    "hell": 272,
    "biblical": 43,
    "theories": 53,
    "bible": 122,
    "topics": 80,
    "righteous": 64,
    "fate": 39,
    "damned": 26,
    "unpleasant": 10,
    "avoided": 31,
    "confession": 11,
    "novel": 40,
    "upgraded": 37,
    "tonight": 53,
    "night": 337,
    "pitched": 38,
    "batter": 23,
    "bal": 22,
    "scored": 89,
    "throw": 127,
    "score": 117,
    "featuring": 9,
    "batting": 36,
    "bench": 64,
    "homer": 57,
    "tied": 49,
    "fourth": 83,
    "inning": 33,
    "pitches": 12,
    "impressive": 54,
    "plays": 65,
    "plate": 66,
    "gunn": 5,
    "runner": 22,
    "steal": 44,
    "throwing": 57,
    "stray": 12,
    "spectacular": 12,
    "keeping": 129,
    "ball": 174,
    "##field": 36,
    "threw": 66,
    "sank": 20,
    "7th": 48,
    "##pen": 85,
    "lifted": 23,
    "pinch": 32,
    "hitter": 86,
    "entered": 62,
    "##lie": 25,
    "stu": 19,
    "##nk": 84,
    "innings": 37,
    "forcing": 38,
    "lived": 179,
    "gave": 285,
    "hit": 344,
    "resulted": 28,
    "scoring": 115,
    "attention": 154,
    "runners": 22,
    "knew": 259,
    "eventually": 127,
    "tagged": 6,
    "4th": 70,
    "offense": 74,
    "ninth": 23,
    "collected": 37,
    "mount": 49,
    "keeps": 77,
    "candidate": 32,
    "rookie": 50,
    "honors": 8,
    "signs": 74,
    "sophomore": 7,
    "jin": 4,
    "hits": 62,
    "performance": 285,
    "imaging": 36,
    "pe": 86,
    "##ddle": 18,
    "kinds": 106,
    "jobs": 251,
    "improved": 73,
    "grateful": 34,
    "replies": 109,
    "digital": 149,
    "camera": 76,
    "familiar": 101,
    "approx": 25,
    "capability": 93,
    "cheap": 227,
    "##gi": 39,
    "##bb": 32,
    "ny": 46,
    "latest": 180,
    "commanders": 8,
    "ships": 48,
    "landing": 46,
    "beach": 25,
    "reminds": 33,
    "##ec": 191,
    "##dote": 14,
    "mid": 121,
    "60s": 14,
    "officer": 96,
    "spectrum": 56,
    "ki": 50,
    "##att": 22,
    "broadcast": 72,
    "transmitter": 26,
    "ship": 76,
    "trans": 164,
    "##isto": 30,
    "ear": 35,
    "hitting": 69,
    "haynes": 2,
    "uc": 135,
    "##sc": 187,
    "##net": 213,
    "display": 469,
    "scientists": 81,
    "biased": 50,
    "posting": 651,
    "##uro": 51,
    "##ist": 220,
    "##xin": 10,
    "labs": 12,
    "neurons": 13,
    "mice": 38,
    "rats": 10,
    "vitamin": 47,
    "amounts": 55,
    "words": 425,
    "khz": 1,
    "wound": 29,
    "poor": 184,
    "balls": 43,
    "quote": 205,
    "online": 57,
    "resources": 173,
    "gem": 9,
    "`": 17263,
    "volcano": 10,
    "torch": 10,
    "revolution": 43,
    "rivers": 12,
    "blood": 255,
    "homeland": 46,
    "liberated": 7,
    "sea": 72,
    "ethnic": 95,
    "cleansing": 22,
    "river": 37,
    "improvement": 71,
    "adam": 26,
    "das": 30,
    "harvard": 48,
    "grey": 50,
    "1b": 13,
    "linear": 56,
    "pixel": 102,
    "c": 563,
    "##pina": 2,
    "##tions": 54,
    "choi": 2,
    "##ses": 74,
    "varies": 27,
    "verify": 43,
    "jumper": 131,
    "manual": 325,
    "troubles": 30,
    "reset": 52,
    "disappears": 18,
    "mac": 163,
    "ag": 119,
    "##ian": 51,
    "tis": 17,
    "lists": 179,
    "software": 839,
    "packages": 116,
    "class": 254,
    "ti": 81,
    "acquisition": 13,
    "automation": 3,
    "analysis": 195,
    "presentation": 52,
    "catalog": 81,
    "tons": 40,
    "q": 66,
    "##ool": 18,
    "send": 857,
    "browser": 8,
    "appears": 298,
    "buyer": 32,
    "engineer": 38,
    "subscription": 35,
    "550": 32,
    "840": 11,
    "toll": 43,
    "ordering": 35,
    "##eda": 6,
    "cn": 56,
    "u": 591,
    "##we": 49,
    "##logy": 16,
    "scan": 76,
    "##logist": 35,
    "diagnosis": 34,
    "mig": 55,
    "##raine": 51,
    "headache": 55,
    "cluster": 23,
    "benign": 14,
    "intra": 26,
    "##tension": 5,
    "chronic": 54,
    "##ox": 37,
    "##ys": 71,
    "##mal": 10,
    "hem": 20,
    "##rani": 1,
    "syndrome": 45,
    "normal": 322,
    "convinced": 81,
    "tumors": 6,
    "pathology": 9,
    "reassure": 5,
    "patient": 83,
    "justified": 58,
    "thorough": 26,
    "detailed": 93,
    "##logic": 11,
    "examination": 31,
    "discussion": 403,
    "##ass": 21,
    "##urance": 4,
    "absolutely": 146,
    "ignored": 62,
    "tumor": 9,
    "##eur": 2,
    "bypass": 23,
    "feels": 75,
    "spent": 173,
    "examining": 21,
    "ion": 6,
    "radiation": 35,
    "brings": 59,
    "department": 64,
    "addressed": 50,
    "284": 18,
    "terminal": 89,
    "impaired": 23,
    "reissued": 2,
    "revised": 20,
    "##g": 790,
    "##quest": 18,
    "##te": 434,
    "approximate": 13,
    "compare": 114,
    "bounced": 25,
    "street": 128,
    "bouncing": 19,
    "ends": 76,
    "park": 61,
    "pair": 92,
    "golf": 12,
    "shoes": 23,
    "shape": 105,
    "plus": 246,
    "shipping": 230,
    "ds": 118,
    "##ny": 58,
    "##der": 157,
    "falcon": 3,
    "##rl": 34,
    "##pa": 108,
    "##fb": 8,
    "mil": 134,
    "##65": 38,
    "##tra": 145,
    "flying": 53,
    "1946": 7,
    "lady": 18,
    "expressed": 59,
    "tap": 60,
    "expertise": 25,
    "cruise": 26,
    "ankle": 11,
    "##cy": 108,
    "##cl": 165,
    "screw": 103,
    "returning": 30,
    "1300": 17,
    "miles": 204,
    "broken": 128,
    "ep": 75,
    "##ling": 155,
    "messed": 9,
    "factory": 50,
    "professionally": 13,
    "ud": 29,
    "##tan": 48,
    "accuracy": 39,
    "hose": 16,
    "engine": 250,
    "ke": 34,
    "##ttering": 3,
    "y": 346,
    "distributor": 22,
    "rotor": 28,
    "guessed": 23,
    "##ple": 48,
    "##tly": 41,
    "bucks": 39,
    "vacuum": 36,
    "##vor": 12,
    "motor": 114,
    "sensors": 33,
    "magnetic": 37,
    "signal": 163,
    "kinda": 34,
    "axle": 16,
    "install": 135,
    "sensor": 53,
    "clutch": 61,
    "paying": 104,
    "wind": 58,
    "wits": 3,
    "coordinated": 12,
    "girlfriends": 1,
    "installation": 95,
    "attachment": 9,
    "steady": 21,
    "switched": 40,
    "blade": 10,
    "fuse": 48,
    "##uf": 48,
    "##at": 83,
    "##urer": 5,
    "hook": 89,
    "sensing": 43,
    "gi": 170,
    "cabin": 19,
    "miscellaneous": 10,
    "particularly": 194,
    "##aca": 8,
    "##ntly": 14,
    "cabbage": 1,
    "sorry": 158,
    "simple": 429,
    "father": 147,
    "built": 346,
    "powered": 55,
    "correctly": 135,
    "thanks": 234,
    "fashioned": 10,
    "considerations": 32,
    "married": 85,
    "fictitious": 4,
    "green": 84,
    "proposal": 143,
    "unconventional": 5,
    "wondering": 207,
    "2000": 119,
    "##60": 118,
    "shorter": 30,
    "squeeze": 22,
    "mess": 71,
    "ratio": 63,
    "manually": 26,
    "pain": 256,
    "happen": 352,
    "sent": 369,
    "bill": 185,
    "billing": 4,
    "customer": 41,
    "##ree": 8,
    "##01": 320,
    "star": 107,
    "##base": 12,
    "spd": 9,
    "louisville": 5,
    "complexity": 25,
    "writers": 42,
    "inability": 23,
    "interchange": 14,
    "environments": 27,
    "despite": 100,
    "abuse": 124,
    "chalk": 4,
    "immense": 11,
    "unnecessary": 32,
    "spec": 201,
    "emphasis": 51,
    "mine": 256,
    "expense": 45,
    "simplicity": 17,
    "specification": 46,
    "import": 59,
    "generating": 24,
    "trapped": 11,
    "agrees": 20,
    "chain": 84,
    "mesh": 17,
    "graphical": 33,
    "01": 445,
    "perennial": 4,
    "##o": 526,
    "##cia": 42,
    "cable": 264,
    "valet": 1,
    "trunk": 27,
    "enable": 61,
    "breakout": 1,
    "backing": 33,
    "puck": 122,
    "went": 627,
    "goaltender": 35,
    "##eving": 8,
    "unfortunate": 39,
    "birthday": 22,
    "blame": 84,
    "lies": 101,
    "coaches": 13,
    "players": 383,
    "intercepted": 11,
    "lose": 152,
    "powerhouse": 1,
    "responsibility": 142,
    "slipped": 14,
    "destined": 5,
    "disappointed": 17,
    "jurisdictions": 17,
    "concerned": 176,
    "elements": 78,
    "rape": 56,
    "gender": 17,
    "neutral": 148,
    "argument": 439,
    "student": 122,
    "lawyer": 56,
    "intercourse": 14,
    "female": 54,
    "consent": 29,
    "forcibly": 7,
    "statute": 12,
    "adoption": 12,
    "legislatures": 1,
    "guilty": 105,
    "##pel": 28,
    "submit": 101,
    "imminent": 13,
    "statutes": 18,
    "1992": 423,
    "406": 11,
    "keith": 9,
    "##rix": 11,
    "gen": 32,
    "nz": 32,
    "acquaintance": 7,
    "apparently": 164,
    "##mpton": 3,
    "complaints": 47,
    "condition": 308,
    "anywhere": 141,
    "diagnostic": 31,
    "criteria": 53,
    "##olo": 22,
    "##gic": 13,
    "ph": 156,
    "##iol": 8,
    "features": 191,
    "##logists": 10,
    "##io": 82,
    "##uron": 4,
    "clinical": 51,
    "muscle": 41,
    "bio": 81,
    "##psy": 14,
    "abnormalities": 8,
    "mostly": 193,
    "ongoing": 28,
    "deterioration": 8,
    "complain": 69,
    "declining": 13,
    "strength": 71,
    "endurance": 1,
    "everyday": 25,
    "universal": 50,
    "feature": 119,
    "contributes": 7,
    "weakness": 26,
    "##rop": 55,
    "##vation": 20,
    "rein": 45,
    "giant": 23,
    "duration": 19,
    "active": 117,
    "fi": 181,
    "##bri": 20,
    "##llation": 6,
    "fiber": 26,
    "grouping": 7,
    "ang": 12,
    "##ulated": 38,
    "fibers": 8,
    "dense": 17,
    "ox": 54,
    "##ida": 30,
    "##tive": 69,
    "enzyme": 8,
    "stain": 4,
    "curiously": 3,
    "evident": 27,
    "month": 234,
    "remarkably": 14,
    "stable": 67,
    "genuine": 23,
    "survivors": 27,
    "unknown": 78,
    "virus": 41,
    "##mun": 82,
    "response": 331,
    "antigen": 2,
    "anterior": 3,
    "horn": 34,
    "ax": 23,
    "##mus": 10,
    "##cular": 4,
    "junctions": 2,
    "complaining": 25,
    "spinal": 4,
    "##vate": 7,
    "shed": 29,
    "depression": 22,
    "scales": 12,
    "##cho": 24,
    "tests": 121,
    "recovery": 40,
    "abnormal": 8,
    "loading": 39,
    "muscles": 23,
    "ligament": 1,
    "joints": 12,
    "inflammatory": 26,
    "##gen": 45,
    "##erative": 4,
    "affecting": 20,
    "##posed": 7,
    "##chang": 10,
    "progressive": 14,
    "impairment": 1,
    "severity": 4,
    "attackers": 10,
    "##sen": 32,
    "co": 330,
    "freedom": 182,
    "living": 264,
    "fault": 117,
    "harmony": 16,
    "torture": 50,
    "shorts": 14,
    "##ight": 9,
    "##bour": 7,
    "stone": 47,
    "continues": 66,
    "funeral": 6,
    "neighbours": 16,
    "##taking": 4,
    "turkish": 4,
    "planes": 60,
    "oh": 96,
    "##hh": 16,
    "forgot": 70,
    "initiating": 6,
    "oil": 228,
    "capacity": 76,
    "moment": 161,
    "ceiling": 18,
    "domestic": 43,
    "partly": 25,
    "impacts": 10,
    "industrial": 46,
    "rivals": 5,
    "proceeds": 21,
    "##ately": 11,
    "economies": 18,
    "incentive": 17,
    "falling": 31,
    "1711": 1,
    "##11": 444,
    "stall": 7,
    "recalled": 11,
    "poster": 103,
    "mis": 486,
    "##qu": 10,
    "##oted": 7,
    "reference": 252,
    "revelations": 13,
    "approaching": 27,
    "suddenly": 81,
    "heaven": 125,
    "flashed": 9,
    "fell": 76,
    "##cuting": 8,
    "whom": 181,
    "received": 260,
    "revelation": 91,
    "risen": 32,
    "cool": 83,
    "eh": 54,
    "closely": 85,
    "church": 273,
    "ministry": 34,
    "supernatural": 34,
    "authors": 102,
    "translated": 37,
    "inspired": 34,
    "literally": 67,
    "breathed": 5,
    "spoke": 91,
    "theologians": 16,
    "scholars": 52,
    "annoyed": 20,
    "dry": 64,
    "incomplete": 25,
    "verse": 61,
    "continuity": 6,
    "span": 28,
    "1500": 36,
    "walks": 23,
    "testimony": 57,
    "authorship": 4,
    "superior": 63,
    "historic": 17,
    "writings": 41,
    "century": 129,
    "earliest": 21,
    "assert": 54,
    "##thi": 16,
    "liar": 57,
    "claimed": 158,
    "regards": 41,
    "conclusion": 195,
    "logical": 118,
    "##founded": 9,
    "##eses": 18,
    "gut": 33,
    "feelings": 69,
    "##su": 164,
    "##tia": 67,
    "plead": 5,
    "entirety": 15,
    "inspire": 5,
    "reader": 59,
    "guidance": 21,
    "revealed": 72,
    "searches": 21,
    "depths": 8,
    "happiness": 21,
    "crown": 5,
    "chief": 53,
    "##est": 145,
    "hold": 282,
    "awe": 6,
    "seas": 10,
    "stricken": 10,
    "reduce": 128,
    "clip": 174,
    "##per": 218,
    "defending": 49,
    "expression": 44,
    "speech": 129,
    "express": 45,
    "desires": 25,
    "##inge": 37,
    "streams": 14,
    "##10": 329,
    "continuous": 34,
    "wave": 85,
    "##forms": 9,
    "apologies": 16,
    "acronym": 27,
    "consort": 2,
    "qualified": 42,
    "standards": 170,
    "character": 204,
    "formula": 55,
    "defenses": 24,
    "##xing": 6,
    "congress": 102,
    "##men": 121,
    "##piece": 6,
    "murder": 146,
    "slaughtered": 27,
    "declared": 35,
    "filed": 38,
    "die": 223,
    "ur": 52,
    "gift": 44,
    "belonging": 17,
    "blown": 47,
    "receives": 20,
    "ultimatum": 6,
    "honorary": 14,
    "refuses": 15,
    "consul": 16,
    "bow": 18,
    "terrorist": 63,
    "attacked": 85,
    "##hun": 11,
    "avail": 34,
    "witness": 50,
    "description": 134,
    "murderer": 31,
    "survives": 7,
    "silent": 38,
    "revolt": 28,
    "triumph": 12,
    "ego": 20,
    "boost": 40,
    "underworld": 3,
    "wall": 127,
    "##owing": 8,
    "satisfaction": 15,
    "1980": 77,
    "bodyguard": 4,
    "1986": 86,
    "pp": 251,
    "array": 35,
    "representatives": 51,
    "parties": 117,
    "party": 173,
    "joined": 32,
    "solidarity": 6,
    "voiced": 4,
    "2nd": 200,
    "judging": 34,
    "encouraging": 23,
    "abundant": 12,
    "sponsored": 37,
    "branch": 39,
    "comparatively": 9,
    "headed": 57,
    "younger": 36,
    "generations": 26,
    "openly": 24,
    "prof": 39,
    "##ess": 71,
    "armed": 123,
    "struggle": 48,
    "branches": 14,
    "loyal": 15,
    "##ties": 62,
    "goals": 161,
    "behalf": 39,
    "##edging": 2,
    "operated": 50,
    "training": 156,
    "camps": 38,
    "youth": 45,
    "answering": 35,
    "writer": 47,
    "affirmed": 11,
    "trained": 45,
    "doors": 65,
    "fighters": 25,
    "attended": 25,
    "holds": 75,
    "cabinet": 15,
    "purpose": 320,
    "attending": 17,
    "gathering": 25,
    "wings": 42,
    "assortment": 3,
    "labor": 71,
    "mayors": 2,
    "towns": 38,
    "participated": 37,
    "follow": 350,
    "##rations": 10,
    "ambassador": 5,
    "organizers": 11,
    "noted": 135,
    "radical": 30,
    "abduction": 2,
    "assassination": 9,
    "accused": 36,
    "reveal": 46,
    "realities": 15,
    "bitter": 15,
    "tragic": 27,
    "expose": 44,
    "indication": 49,
    "link": 106,
    "##ssi": 73,
    "##dent": 12,
    "supporters": 26,
    "headquarters": 21,
    "suburb": 3,
    "located": 86,
    "activity": 120,
    "scores": 60,
    "names": 212,
    "invited": 45,
    "introduce": 26,
    "comment": 218,
    "cc": 198,
    "columbia": 18,
    "##29": 37,
    "290": 28,
    "crap": 88,
    "boy": 69,
    "quotes": 92,
    "reject": 78,
    "preface": 7,
    "1923": 32,
    "respectively": 43,
    "copies": 177,
    "1924": 12,
    "murders": 40,
    "et": 174,
    "denial": 40,
    "acc": 109,
    "##uss": 17,
    "##ations": 40,
    "publication": 77,
    "quoted": 122,
    "1934": 23,
    "twisting": 7,
    "existing": 163,
    "existed": 60,
    "lying": 85,
    "proof": 184,
    "suited": 15,
    "ready": 166,
    "claiming": 87,
    "letter": 235,
    "char": 215,
    "##ach": 23,
    "publications": 37,
    "books": 319,
    "##sle": 43,
    "listing": 42,
    "supports": 210,
    "admission": 11,
    "terrible": 76,
    "biggest": 80,
    "surprise": 68,
    "disappointment": 13,
    "center": 194,
    "deserves": 36,
    "nod": 12,
    "essentially": 120,
    "possibility": 153,
    "##time": 73,
    "##rut": 13,
    "instruments": 37,
    "motivation": 44,
    "archive": 227,
    "facto": 22,
    "identified": 61,
    "trunks": 3,
    "distance": 109,
    "competitors": 15,
    "tapes": 70,
    "recording": 29,
    "##dents": 9,
    "suspected": 22,
    "noticed": 165,
    "judged": 41,
    "heavy": 132,
    "weaponry": 13,
    "steer": 26,
    "licenses": 27,
    "permits": 44,
    "placed": 106,
    "ahead": 151,
    "##mie": 4,
    "singing": 12,
    "tune": 48,
    "exercised": 10,
    "daughter": 144,
    "##scribe": 87,
    "grape": 7,
    "nsw": 3,
    "navy": 55,
    "download": 48,
    "replacement": 90,
    "forum": 72,
    "newest": 19,
    "##ware": 159,
    "compilation": 13,
    "submissions": 19,
    "utilities": 85,
    "releases": 47,
    "updated": 84,
    "searching": 46,
    "benefit": 132,
    "fingertips": 5,
    "entries": 141,
    "genre": 3,
    "registration": 73,
    "fee": 83,
    "requirements": 107,
    "contacted": 21,
    "##line": 99,
    "640": 76,
    "##48": 84,
    "forms": 90,
    "##end": 74,
    "desired": 57,
    "plain": 211,
    "paste": 28,
    "require": 275,
    "##ting": 288,
    "conventions": 14,
    "bold": 33,
    "##face": 8,
    "italics": 4,
    "font": 359,
    "##ma": 428,
    "shots": 143,
    "workings": 7,
    "rendering": 48,
    "observe": 35,
    "maximum": 95,
    "##pati": 18,
    "embedded": 19,
    "corrections": 34,
    "indicating": 31,
    "procedures": 62,
    "comments": 261,
    "suggestions": 175,
    "criticisms": 6,
    "deadline": 25,
    "subsequent": 47,
    "edition": 93,
    "editor": 114,
    "reserve": 33,
    "devoted": 37,
    "commercially": 18,
    "steps": 49,
    "limitations": 34,
    "practical": 94,
    "publishing": 18,
    "bulletin": 26,
    "boards": 108,
    "advertising": 60,
    "advertisements": 9,
    "constraints": 19,
    "devote": 11,
    "columns": 12,
    "envisioned": 7,
    "monthly": 58,
    "column": 75,
    "##tad": 7,
    "##iction": 1,
    "notes": 90,
    "04": 500,
    "opened": 80,
    "victory": 49,
    "##out": 119,
    "playoff": 69,
    "seemed": 136,
    "tense": 10,
    "opening": 70,
    "played": 204,
    "ranked": 9,
    "manager": 246,
    "forwards": 27,
    "checked": 106,
    "blue": 124,
    "##tus": 38,
    "lineup": 27,
    "suffered": 72,
    "charlie": 2,
    "horse": 38,
    "shifts": 14,
    "retiring": 5,
    "dressing": 5,
    "room": 251,
    "draw": 202,
    "crossed": 9,
    "slapped": 8,
    "zone": 98,
    "carried": 135,
    "wa": 64,
    "##cked": 10,
    "rebound": 31,
    "picked": 110,
    "circle": 56,
    "dot": 58,
    "hash": 60,
    "beating": 64,
    "legs": 63,
    "failed": 169,
    "giving": 217,
    "recorded": 48,
    "ensuing": 12,
    "skate": 38,
    "wing": 67,
    "fake": 35,
    "thor": 8,
    "##ugh": 7,
    "##ease": 32,
    "reclaimed": 1,
    "wrist": 28,
    "widened": 1,
    "diving": 7,
    "glove": 23,
    "consecutive": 18,
    "sticking": 32,
    "phrase": 86,
    "penalties": 46,
    "extended": 81,
    "sending": 125,
    "slid": 10,
    "skating": 11,
    "stepped": 14,
    "tripped": 4,
    "shovel": 9,
    "knocked": 34,
    "drawing": 108,
    "minute": 116,
    "misconduct": 12,
    "08": 175,
    "sq": 71,
    "##uan": 2,
    "strides": 5,
    "drove": 53,
    "##off": 93,
    "converted": 87,
    "seal": 23,
    "slash": 22,
    "crazy": 70,
    "double": 169,
    "minor": 130,
    "rough": 75,
    "checking": 95,
    "disciplined": 11,
    "excellent": 201,
    "minus": 28,
    "surely": 94,
    "307": 10,
    "24th": 15,
    "opposing": 26,
    "afternoon": 45,
    "regular": 189,
    "interference": 65,
    "trip": 121,
    "served": 82,
    "sh": 103,
    "##sted": 29,
    "elbow": 9,
    "boarding": 10,
    "min": 55,
    "conversions": 9,
    "denotes": 10,
    "##pm": 72,
    "willis": 7,
    "empire": 18,
    "##23": 76,
    "2020": 3,
    "404": 16,
    "2003": 11,
    "##21": 61,
    "1965": 21,
    "1600": 17,
    "1663": 2,
    "480": 42,
    "57th": 3,
    "##00": 508,
    "1755": 2,
    "282": 19,
    "##53": 46,
    "##90": 60,
    "##37": 31,
    "##36": 34,
    "2001": 23,
    "303": 43,
    "287": 19,
    "356": 14,
    "560": 26,
    "311": 16,
    "420": 10,
    "##51": 80,
    "2009": 1,
    "43rd": 1,
    "##15": 53,
    "1000": 172,
    "276": 21,
    "##22": 58,
    "350": 82,
    "4000": 48,
    "15th": 13,
    "2007": 3,
    "344": 21,
    "1717": 2,
    "##64": 19,
    "magazine": 135,
    "hears": 14,
    "prayers": 40,
    "sinn": 49,
    "saint": 6,
    "asking": 221,
    "sin": 329,
    "block": 214,
    "##ound": 27,
    "gospel": 55,
    "choose": 186,
    "prayer": 52,
    "european": 13,
    "tel": 172,
    "##ete": 77,
    "##xt": 20,
    "##am": 106,
    "functional": 23,
    "##lity": 6,
    "detect": 90,
    "exposed": 43,
    "glow": 14,
    "ava": 16,
    "##lia": 54,
    "##ble": 427,
    "sells": 66,
    "maybe": 485,
    "cord": 67,
    "speaker": 74,
    "remote": 160,
    "stereo": 105,
    "inputs": 50,
    "volume": 123,
    "ra": 182,
    "##dley": 7,
    "gibbs": 4,
    "reality": 184,
    "##ject": 60,
    "je": 37,
    "##ez": 23,
    "##lty": 22,
    "reluctant": 14,
    "##bra": 15,
    "alive": 144,
    "enjoy": 77,
    "harsh": 29,
    "follows": 148,
    "cradle": 5,
    "christian": 46,
    "selfish": 36,
    "realization": 9,
    "search": 184,
    "fear": 132,
    "vanity": 6,
    "serving": 34,
    "comprehend": 21,
    "##ism": 221,
    "##static": 16,
    "authentic": 34,
    "material": 228,
    "##istic": 118,
    "christians": 37,
    "according": 211,
    "wiring": 121,
    "regularly": 73,
    "consumers": 22,
    "senses": 56,
    "currents": 13,
    "cuts": 39,
    "connection": 165,
    "portable": 71,
    "interactive": 62,
    "vendor": 65,
    "port": 308,
    "platforms": 68,
    "sales": 150,
    "representative": 41,
    "truly": 130,
    "##lea": 96,
    "##vance": 5,
    "management": 137,
    "satisfied": 49,
    "customers": 54,
    "introduced": 54,
    "1988": 207,
    "grew": 36,
    "clock": 223,
    "sped": 2,
    "thumb": 38,
    "motorola": 5,
    "3000": 62,
    "##systems": 9,
    "architecture": 56,
    "archaic": 5,
    "platform": 51,
    "bandwidth": 58,
    "capacities": 8,
    "##pet": 63,
    "##itive": 24,
    "user": 452,
    "meets": 32,
    "upgrade": 143,
    "feasible": 38,
    "paths": 18,
    "associated": 140,
    "older": 155,
    "##rs": 309,
    "moving": 165,
    "##using": 4,
    "misunderstanding": 23,
    "attempting": 52,
    "##oy": 29,
    "##sey": 5,
    "regardless": 103,
    "schedule": 78,
    "schedules": 13,
    "counting": 35,
    "availability": 59,
    "date": 242,
    "awful": 98,
    "investors": 13,
    "financial": 46,
    "analysts": 8,
    "watch": 191,
    "carefully": 98,
    "commitments": 12,
    "processor": 126,
    "arriving": 15,
    "demanding": 21,
    "purchases": 11,
    "accept": 301,
    "##bility": 47,
    "happy": 200,
    "##59": 29,
    "bc": 35,
    "##ste": 27,
    "ca": 283,
    "boeing": 15,
    "##rre": 40,
    "brands": 28,
    "aviation": 15,
    "##tle": 17,
    "met": 137,
    "##ex": 164,
    "define": 224,
    "proved": 67,
    "moderate": 52,
    "flu": 43,
    "performs": 22,
    "subset": 30,
    "##85": 33,
    "underneath": 16,
    "approximately": 57,
    "680": 151,
    "spot": 112,
    "middle": 174,
    "logo": 37,
    "precise": 24,
    "capable": 149,
    "om": 88,
    "##pot": 34,
    "##ence": 41,
    "opt": 83,
    "##ois": 13,
    "microphone": 28,
    "signals": 76,
    "measurement": 29,
    "mic": 14,
    "pops": 31,
    "audio": 116,
    "jumping": 16,
    "dark": 106,
    "drops": 32,
    "formally": 13,
    "refers": 50,
    "joy": 77,
    "##sett": 3,
    "##hor": 16,
    "attitudes": 23,
    "abusive": 21,
    "comparison": 110,
    "recognizes": 12,
    "occupying": 19,
    "entity": 30,
    "maintain": 123,
    "consciously": 9,
    "disrupt": 12,
    "structure": 122,
    "##ier": 64,
    "inherently": 33,
    "residents": 48,
    "jewish": 21,
    "dh": 12,
    "##mi": 80,
    "protected": 94,
    "worry": 123,
    "intentions": 19,
    "secured": 6,
    "demon": 30,
    "desire": 91,
    "wright": 4,
    "hostile": 35,
    "hiring": 18,
    "opportunity": 113,
    "disagreement": 18,
    "dil": 27,
    "##igen": 21,
    "semi": 147,
    "credible": 22,
    "##ose": 34,
    "##ceptive": 9,
    "pill": 27,
    "##vu": 30,
    "nest": 11,
    "va": 139,
    "##gina": 27,
    "forces": 139,
    "##rti": 51,
    "##lz": 3,
    "##ation": 186,
    "##erine": 4,
    "pregnancy": 26,
    "fragment": 16,
    "reasonable": 234,
    "deep": 104,
    "pi": 132,
    "plane": 101,
    "contains": 227,
    "2010": 9,
    "thoughts": 79,
    "incompatible": 38,
    "divisions": 16,
    "promoted": 17,
    "worst": 101,
    "demoted": 3,
    "corporate": 27,
    "duff": 3,
    "fill": 94,
    "arena": 39,
    "1940": 18,
    "##ha": 74,
    "sports": 97,
    "division": 112,
    "centres": 9,
    "rewarded": 18,
    "loyalty": 8,
    "penal": 13,
    "dynamic": 49,
    "influx": 2,
    "newly": 34,
    "soccer": 16,
    "sucks": 19,
    "flame": 153,
    "deserve": 61,
    "sleep": 98,
    "approved": 79,
    "responding": 50,
    "selections": 13,
    "##hism": 59,
    "##icated": 17,
    "beside": 22,
    "formal": 65,
    "##ication": 16,
    "canon": 36,
    "theology": 53,
    "confusion": 51,
    "##bed": 66,
    "##ience": 34,
    "classifications": 2,
    "commands": 102,
    "meat": 40,
    "moon": 144,
    "commanded": 17,
    "thus": 242,
    "po": 116,
    "##bil": 25,
    "##ites": 13,
    "solely": 39,
    "compliance": 36,
    "refusal": 19,
    "obe": 12,
    "##die": 8,
    "comply": 29,
    "insufficient": 6,
    "label": 51,
    "rub": 17,
    "commanding": 4,
    "disagreed": 5,
    "heresy": 23,
    "weak": 120,
    "priests": 54,
    "examine": 61,
    "traditional": 95,
    "defective": 18,
    "depth": 89,
    "interviews": 28,
    "decide": 170,
    "##fall": 60,
    "straighten": 11,
    "##und": 46,
    "grave": 46,
    "wasting": 30,
    "heroic": 13,
    "badly": 56,
    "##set": 71,
    "##atics": 17,
    "##bey": 12,
    "mere": 44,
    "added": 201,
    "constitute": 28,
    "rejection": 16,
    "distinguishing": 3,
    "criterion": 10,
    "possess": 36,
    "tran": 40,
    "##gre": 55,
    "##ssion": 28,
    "superiors": 3,
    "pray": 68,
    "matters": 100,
    "boil": 12,
    "objections": 23,
    "resisting": 4,
    "finds": 36,
    "stance": 26,
    "##rio": 17,
    "definitive": 18,
    "congregation": 14,
    "episcopal": 7,
    "consecration": 19,
    "performed": 96,
    "constituted": 10,
    "imply": 86,
    "##fers": 15,
    "##fect": 13,
    "conferred": 3,
    "bishops": 17,
    "pains": 20,
    "bishop": 24,
    "##sit": 46,
    "lent": 12,
    "puzzle": 17,
    "passage": 83,
    "root": 142,
    "contradictory": 36,
    "notion": 71,
    "sufficiently": 31,
    "taught": 89,
    "apostles": 29,
    "progresses": 3,
    "insight": 29,
    "##tem": 38,
    "believers": 55,
    "ponder": 16,
    "hearts": 32,
    "intimate": 7,
    "spiritual": 81,
    "preaching": 15,
    "succession": 4,
    "##pis": 15,
    "##pate": 22,
    "opposes": 7,
    "possessed": 25,
    "faithful": 35,
    "##cles": 6,
    "entrusted": 5,
    "unity": 27,
    "simplified": 6,
    "prove": 230,
    "clarify": 30,
    "detail": 121,
    "ignore": 89,
    "puts": 64,
    "definition": 172,
    "shortly": 31,
    "healed": 17,
    "destroying": 30,
    "reform": 70,
    "papacy": 3,
    "reconciled": 10,
    "destroyed": 97,
    "discipline": 25,
    "##used": 24,
    "wrongly": 6,
    "imagination": 33,
    "acts": 101,
    "validity": 22,
    "debate": 98,
    "objected": 10,
    "sanctions": 35,
    "ignoring": 44,
    "papal": 8,
    "communion": 11,
    "firearms": 198,
    "holster": 11,
    "accidental": 29,
    "injuries": 68,
    "inflicted": 8,
    "lethal": 29,
    "settings": 82,
    "geometry": 60,
    "splits": 7,
    "318": 16,
    "rated": 50,
    "ob": 235,
    "##eni": 12,
    "calm": 43,
    "plenty": 79,
    "compound": 116,
    "stay": 195,
    "cook": 26,
    "paranoid": 37,
    "watched": 63,
    "harp": 10,
    "accusations": 19,
    "sealed": 34,
    "##vable": 35,
    "location": 111,
    "disks": 196,
    "286": 133,
    "wiped": 16,
    "technician": 14,
    "examined": 45,
    "pronounced": 11,
    "##usa": 34,
    "cylinders": 47,
    "sides": 96,
    "happily": 20,
    "blocks": 88,
    "proceed": 33,
    "successfully": 53,
    "##ised": 31,
    "##card": 27,
    "burnt": 28,
    "mirrored": 6,
    "##plex": 16,
    "requires": 224,
    "causing": 75,
    "##isation": 22,
    "request": 352,
    "widely": 100,
    "dealing": 87,
    "hoping": 70,
    "casting": 14,
    "inappropriate": 32,
    "everybody": 121,
    "desperate": 24,
    "suffering": 87,
    "arm": 115,
    "tom": 32,
    "##yme": 19,
    "bo": 61,
    "##lio": 16,
    "electro": 33,
    "##tes": 87,
    "healthy": 62,
    "shown": 159,
    "neck": 43,
    "fever": 27,
    "sick": 114,
    "##hila": 1,
    "##rdi": 14,
    "##iba": 8,
    "ch": 114,
    "hint": 38,
    "greater": 137,
    "##dom": 30,
    "##inate": 56,
    "##tic": 100,
    "tiger": 9,
    "thrown": 68,
    "ma": 46,
    "##uled": 8,
    "insane": 21,
    "relates": 28,
    "mom": 20,
    "vi": 69,
    "##ril": 23,
    "##39": 32,
    "ri": 51,
    "##ffer": 18,
    "collection": 114,
    "music": 90,
    "neat": 59,
    "artwork": 11,
    "al": 262,
    "packed": 25,
    "amazing": 58,
    "fantasy": 33,
    "mint": 29,
    "seam": 17,
    "outs": 43,
    "1979": 47,
    "1981": 53,
    "thru": 90,
    "offers": 181,
    "sm": 77,
    "born": 150,
    "regeneration": 5,
    "cult": 102,
    "dismiss": 22,
    "##ive": 201,
    "respectable": 22,
    "##ib": 88,
    "resemble": 13,
    "mistake": 116,
    "uncover": 9,
    "##mist": 37,
    "##oni": 30,
    "abortion": 68,
    "encountered": 25,
    "propaganda": 58,
    "emotion": 14,
    "missionary": 10,
    "ze": 17,
    "rhetoric": 26,
    "clerical": 7,
    "ups": 39,
    "battery": 103,
    "voltage": 118,
    "##ac": 142,
    "discharge": 31,
    "##ules": 4,
    "implies": 54,
    "sat": 98,
    "##fa": 59,
    "##ctor": 44,
    "ubiquitous": 8,
    "circuit": 177,
    "receiving": 72,
    "circuits": 69,
    "handbook": 7,
    "reacting": 10,
    "##tech": 25,
    "pc": 110,
    "##rem": 38,
    "##ental": 28,
    "contents": 67,
    "trick": 73,
    "##aint": 17,
    "generates": 30,
    "exposure": 59,
    "handled": 58,
    "displayed": 46,
    "erased": 7,
    "##cap": 39,
    "##sul": 15,
    "client": 150,
    "##yn": 70,
    "##ron": 74,
    "##ici": 77,
    "inserted": 20,
    "critical": 89,
    "agent": 85,
    "interviewed": 19,
    "reported": 229,
    "ill": 93,
    "failure": 90,
    "agenda": 53,
    "##quent": 33,
    "context": 257,
    "beneficial": 14,
    "##ual": 37,
    "requests": 146,
    "25th": 22,
    "votes": 64,
    "##turn": 11,
    "assault": 102,
    "weapon": 133,
    "ban": 97,
    "28th": 24,
    "voted": 43,
    "tight": 43,
    "vote": 139,
    "initially": 40,
    "supervisor": 13,
    "urging": 5,
    "tho": 23,
    "##ility": 12,
    "fit": 211,
    "nicely": 35,
    "exploded": 5,
    "tuned": 29,
    "660": 12,
    "pg": 41,
    "ported": 27,
    "candidates": 40,
    "violence": 76,
    "hating": 5,
    "realistic": 31,
    "declare": 29,
    "gross": 30,
    "negligence": 4,
    "random": 179,
    "shooter": 7,
    "shoots": 9,
    "bombers": 5,
    "##par": 56,
    "##dy": 27,
    "sovereign": 13,
    "pattern": 58,
    "bombing": 43,
    "probability": 44,
    "deaths": 101,
    "property": 177,
    "pay": 409,
    "caused": 179,
    "##rano": 4,
    "##lo": 104,
    "dose": 27,
    "fatigue": 12,
    "tolerate": 23,
    "beta": 46,
    "##ime": 24,
    "sera": 9,
    "##ton": 27,
    "cha": 130,
    "##sti": 132,
    "intellect": 95,
    "cad": 103,
    "pitt": 99,
    "shame": 119,
    "surrender": 112,
    "gather": 38,
    "dust": 46,
    "drop": 154,
    "sum": 154,
    "##mar": 99,
    "##izes": 37,
    "coupled": 17,
    "generation": 116,
    "##pts": 5,
    "speculation": 49,
    "evening": 72,
    "considerable": 38,
    "briefing": 41,
    "tam": 42,
    "compared": 158,
    "rounds": 36,
    "scrambling": 9,
    "modes": 115,
    "includes": 354,
    "button": 118,
    "method": 218,
    "exchange": 90,
    "##cate": 62,
    "##nated": 12,
    "programmed": 32,
    "vault": 11,
    "laptop": 30,
    "trusted": 33,
    "enters": 16,
    "seeds": 28,
    "generate": 97,
    "sequence": 87,
    "padded": 15,
    "triple": 46,
    "producing": 55,
    "computed": 21,
    "assigned": 31,
    "discarded": 22,
    "generated": 92,
    "corresponding": 54,
    "assurance": 20,
    "protocol": 95,
    "provider": 16,
    "##pt": 172,
    "identifying": 14,
    "accomplished": 45,
    "##master": 22,
    "slower": 86,
    "arbitration": 14,
    "channel": 133,
    "channels": 53,
    "fund": 80,
    "##liner": 6,
    "billion": 162,
    "mars": 3,
    "mission": 146,
    "lunar": 144,
    "orbit": 226,
    "ce": 120,
    "##tera": 27,
    "##pha": 32,
    "##vin": 20,
    "communist": 15,
    "reforms": 8,
    "forward": 214,
    "contained": 67,
    "ghetto": 25,
    "staying": 28,
    "noon": 37,
    "belong": 66,
    "studies": 155,
    "announcement": 72,
    "announce": 52,
    "rev": 128,
    "##amp": 47,
    "##page": 6,
    "intro": 39,
    "sites": 236,
    "director": 111,
    "query": 34,
    "matches": 22,
    "retrieve": 32,
    "extensively": 16,
    "tested": 107,
    "flavors": 11,
    "improvements": 23,
    "integrated": 42,
    "##load": 80,
    "resort": 56,
    "##ina": 37,
    "pseudo": 47,
    "weights": 10,
    "mono": 126,
    "supplied": 57,
    "hadn": 57,
    "rockets": 63,
    "##cala": 15,
    "tall": 37,
    "tails": 8,
    "threatened": 44,
    "treasury": 12,
    "rumors": 47,
    "violation": 62,
    "solving": 13,
    "ray": 126,
    "metallic": 15,
    "cylindrical": 6,
    "hole": 120,
    "angle": 61,
    "axis": 24,
    "centre": 31,
    "radius": 71,
    "mathematical": 70,
    "complex": 124,
    "resembling": 11,
    "el": 90,
    "##lip": 29,
    "transform": 43,
    "transformation": 11,
    "distortion": 30,
    "increases": 65,
    "compensate": 16,
    "hot": 228,
    "finger": 109,
    "blowing": 21,
    "sink": 28,
    "fiscal": 15,
    "preach": 29,
    "gloom": 6,
    "doom": 17,
    "allegedly": 25,
    "losing": 66,
    "degradation": 14,
    "plum": 6,
    "##nka": 4,
    "corners": 28,
    "inferior": 28,
    "confidence": 40,
    "wild": 55,
    "negotiations": 41,
    "wes": 5,
    "keeper": 5,
    "##uc": 215,
    "drivers": 387,
    "loop": 80,
    "ms": 188,
    "##dos": 59,
    "mm": 33,
    "##elt": 3,
    "##zer": 28,
    "examples": 124,
    "##vas": 12,
    "##tism": 19,
    "arrived": 71,
    "psychology": 31,
    "gradual": 12,
    "##fra": 23,
    "##nch": 26,
    "##ise": 75,
    "##ment": 215,
    "shuttle": 97,
    "gan": 9,
    "##dal": 24,
    "ct": 50,
    "compressed": 58,
    "manifest": 32,
    "periodically": 25,
    "removed": 110,
    "refer": 148,
    "archived": 24,
    "upcoming": 23,
    "missions": 79,
    "407": 20,
    "status": 137,
    "k": 239,
    "##je": 17,
    "gotham": 9,
    "##city": 25,
    "nasa": 151,
    "rise": 77,
    "phase": 80,
    "pad": 79,
    "tower": 83,
    "clearance": 17,
    "achieved": 38,
    "tilt": 24,
    "maneuver": 18,
    "roll": 54,
    "orient": 14,
    "alpha": 26,
    "alleviate": 18,
    "structural": 14,
    "advantages": 40,
    "gain": 95,
    "decreased": 22,
    "band": 110,
    "angles": 19,
    "crew": 57,
    "horizon": 17,
    "gaining": 19,
    "##rang": 16,
    "velocity": 41,
    "stage": 113,
    "couch": 8,
    "jar": 20,
    "interpret": 76,
    "clears": 7,
    "rolling": 15,
    "atmosphere": 62,
    "chord": 9,
    "leading": 101,
    "trailing": 4,
    "downward": 8,
    "belly": 11,
    "delicate": 8,
    "inclination": 15,
    "flight": 101,
    "execute": 54,
    "dangerous": 146,
    "maneuvers": 7,
    "improves": 7,
    "antennae": 6,
    "sight": 50,
    "helpful": 121,
    "mandatory": 36,
    "pilot": 29,
    "engines": 64,
    "vector": 30,
    "quantity": 32,
    "horizontal": 39,
    "attain": 23,
    "begs": 7,
    "oriented": 68,
    "pads": 28,
    "##overs": 4,
    "##rad": 15,
    "##dles": 1,
    "trenches": 6,
    "exhaust": 68,
    "effects": 154,
    "daytime": 5,
    "dirty": 40,
    "gray": 74,
    "garbage": 54,
    "fluffy": 4,
    "white": 249,
    "steam": 43,
    "stack": 40,
    "buddy": 16,
    "axes": 26,
    "pitch": 68,
    "tolerance": 25,
    "orbital": 57,
    "qu": 119,
    "##ater": 6,
    "##nio": 6,
    "##ad": 101,
    "concept": 161,
    "combining": 10,
    "matrices": 5,
    "element": 56,
    "satellite": 170,
    "dish": 47,
    "stationed": 12,
    "difficult": 269,
    "west": 46,
    "viewers": 28,
    "operators": 34,
    "carries": 47,
    "conferences": 26,
    "coverage": 105,
    "planetary": 40,
    "encounters": 9,
    "begun": 34,
    "secondary": 46,
    "covered": 135,
    "##bro": 14,
    "##cast": 13,
    "650": 63,
    "395": 21,
    "295": 12,
    "850": 26,
    "270": 35,
    "590": 13,
    "390": 14,
    "frequencies": 36,
    "supplying": 11,
    "555": 33,
    "##45": 45,
    "05": 224,
    "bands": 42,
    "item": 92,
    "courtesy": 44,
    "##oft": 13,
    "##70": 61,
    "percent": 152,
    "perch": 4,
    "##lor": 29,
    "catalyst": 3,
    "acid": 74,
    "##ryl": 1,
    "rubber": 54,
    "##ring": 117,
    "aluminum": 56,
    "multitude": 10,
    "sins": 98,
    "##ance": 109,
    "quarter": 41,
    "pounds": 46,
    "prize": 42,
    "warren": 13,
    "constructive": 13,
    "contributors": 11,
    "mental": 50,
    "discuss": 138,
    "cops": 72,
    "newspaper": 73,
    "afraid": 128,
    "teen": 5,
    "auto": 325,
    "fatally": 3,
    "wounded": 54,
    "injury": 86,
    "hiding": 35,
    "midnight": 19,
    "hospitalized": 6,
    "satisfactory": 18,
    "##point": 31,
    "rural": 8,
    "town": 200,
    "northwest": 4,
    "snapping": 2,
    "heck": 41,
    "##ots": 14,
    "affect": 77,
    "negatively": 4,
    "hee": 17,
    "match": 114,
    "##ups": 50,
    "forecast": 11,
    "weather": 63,
    "hays": 4,
    "ss": 42,
    "intel": 26,
    "dar": 25,
    "##pped": 20,
    "firearm": 107,
    "flipping": 9,
    "spacecraft": 106,
    "mal": 45,
    "##nction": 21,
    "cl": 219,
    "##utter": 20,
    "titled": 19,
    "water": 309,
    "research": 337,
    "progression": 10,
    "dem": 30,
    "##lina": 6,
    "nerve": 25,
    "fibre": 2,
    "impulse": 21,
    "slight": 49,
    "variation": 27,
    "previously": 96,
    "college": 78,
    "bb": 32,
    "setup": 131,
    "connect": 128,
    "##ir": 22,
    "wrap": 51,
    "revealing": 19,
    "th": 91,
    "authentication": 32,
    "useful": 294,
    "coe": 51,
    "##rce": 21,
    "assisting": 4,
    "##pment": 2,
    "##ement": 26,
    "approval": 42,
    "jim": 20,
    "basics": 12,
    "cadence": 4,
    "discussing": 77,
    "##lind": 2,
    "bt": 28,
    "originally": 102,
    "apt": 12,
    "trucks": 32,
    "test": 412,
    "lighter": 30,
    "banners": 6,
    "banning": 23,
    "warn": 33,
    "prospective": 6,
    "##sg": 18,
    "##run": 20,
    "##tled": 2,
    "apple": 89,
    "##link": 43,
    "##rin": 18,
    "marina": 2,
    "papa": 6,
    "tender": 18,
    "##izer": 31,
    "packets": 18,
    "##ings": 41,
    "diagnosed": 40,
    "skin": 78,
    "rash": 22,
    "##iac": 10,
    "joint": 49,
    "##light": 44,
    "cruz": 4,
    "santa": 8,
    "pin": 240,
    "flat": 97,
    "identical": 109,
    "lacked": 11,
    "plastic": 98,
    "removing": 55,
    "polish": 9,
    "tip": 36,
    "instrument": 45,
    "ending": 43,
    "smooth": 50,
    "shiny": 4,
    "republic": 40,
    "medal": 8,
    "sections": 77,
    "rt": 63,
    "##fm": 27,
    "xx": 67,
    "amazed": 29,
    "readers": 117,
    "notably": 15,
    "patented": 22,
    "org": 227,
    "##ff": 182,
    "patents": 38,
    "##film": 2,
    "##ographic": 69,
    "spy": 31,
    "cipher": 203,
    "impressed": 45,
    "##bber": 17,
    "##ish": 65,
    "distributed": 122,
    "systematic": 13,
    "##sy": 87,
    "##matic": 38,
    "consuming": 13,
    "literature": 89,
    "introductory": 11,
    "textbooks": 10,
    "tens": 21,
    "theoretical": 40,
    "regulated": 58,
    "offering": 39,
    "cash": 75,
    "rewards": 7,
    "##ographer": 7,
    "guarantees": 27,
    "layer": 40,
    "##plication": 9,
    "reviewed": 27,
    "procedure": 92,
    "scope": 95,
    "episodes": 10,
    "movie": 69,
    "##phones": 10,
    "##man": 188,
    "hotel": 32,
    "coup": 22,
    "guests": 14,
    "episode": 24,
    "numbering": 5,
    "boxes": 115,
    "packaging": 38,
    "##cut": 34,
    "originals": 6,
    "syndication": 1,
    "incredible": 26,
    "movies": 36,
    "swap": 114,
    "##sal": 42,
    "hobby": 28,
    "ba": 104,
    "##ud": 77,
    "controller": 330,
    "440": 19,
    "doc": 108,
    "printed": 74,
    "unlimited": 25,
    "connecting": 26,
    "umm": 3,
    "lump": 16,
    "##lat": 68,
    "discreet": 4,
    "alert": 10,
    "clue": 56,
    "sang": 6,
    "anthem": 5,
    "opener": 14,
    "upgrades": 31,
    "combined": 50,
    "##centric": 6,
    "galactic": 8,
    "##ric": 33,
    "square": 69,
    "timer": 47,
    "coa": 16,
    "##xia": 9,
    "##channel": 6,
    "bilingual": 3,
    "278": 28,
    "##orne": 4,
    "cal": 84,
    "##sta": 67,
    "fastest": 36,
    "speakers": 42,
    "deck": 41,
    "690": 10,
    "tax": 264,
    "fang": 4,
    "purdue": 22,
    "317": 14,
    "papers": 129,
    "necessarily": 169,
    "conducted": 52,
    "apps": 76,
    "curses": 7,
    "keyboard": 259,
    "##tro": 97,
    "##kes": 38,
    "feedback": 39,
    "prototypes": 3,
    "##land": 25,
    "kid": 60,
    "allocated": 31,
    "dad": 25,
    "ticket": 80,
    "abbreviation": 15,
    "rag": 7,
    "stared": 5,
    "ended": 85,
    "recognize": 126,
    "alternating": 10,
    "polite": 27,
    "rude": 21,
    "shoulder": 35,
    "##hir": 24,
    "##rr": 72,
    "reel": 15,
    "mad": 45,
    "##haus": 5,
    "355": 34,
    "##gu": 5,
    "ink": 62,
    "drying": 6,
    "##ear": 29,
    "wet": 44,
    "laser": 83,
    "kitten": 3,
    "soft": 70,
    "assuming": 146,
    "tank": 122,
    "damaged": 39,
    "automated": 25,
    "tool": 267,
    "laugh": 63,
    "prohibited": 26,
    "consumer": 44,
    "applicable": 40,
    "exploitation": 2,
    "chi": 47,
    "dig": 58,
    "promotional": 7,
    "lit": 25,
    "##fo": 98,
    "geo": 59,
    "##ok": 43,
    "##nor": 69,
    "backbone": 6,
    "representing": 26,
    "queer": 10,
    "probe": 131,
    "##piration": 12,
    "starts": 134,
    "antenna": 56,
    "consume": 20,
    "rees": 3,
    "ops": 8,
    "periods": 39,
    "forgotten": 33,
    "##pre": 75,
    "##hen": 23,
    "##sible": 29,
    "##bby": 3,
    "expected": 203,
    "bugs": 72,
    "##like": 15,
    "lift": 59,
    "grief": 17,
    "maturity": 10,
    "scandal": 9,
    "consists": 56,
    "subjective": 59,
    "refused": 57,
    "figures": 88,
    "authoritative": 12,
    "explains": 36,
    "intend": 64,
    "##ver": 77,
    "adds": 34,
    "##firm": 21,
    "repeatedly": 51,
    "1989": 149,
    "##dev": 7,
    "##nti": 22,
    "##sts": 13,
    "##tical": 50,
    "principal": 23,
    "intrinsic": 32,
    "##ally": 143,
    "ip": 37,
    "1917": 9,
    "offence": 12,
    "punished": 36,
    "illicit": 9,
    "differed": 4,
    "radically": 14,
    "##essed": 7,
    "##udi": 17,
    "govern": 21,
    "consecrated": 8,
    "apostolic": 4,
    "ensuring": 10,
    "survival": 31,
    "ordination": 2,
    "perform": 95,
    "confirmation": 23,
    "gravity": 50,
    "prima": 8,
    "##flict": 26,
    "granted": 74,
    "critics": 13,
    "foster": 9,
    "mod": 88,
    "##icum": 4,
    "##ega": 4,
    "deals": 51,
    "evidently": 13,
    "ap": 117,
    "##osta": 40,
    "offenses": 16,
    "terms": 243,
    "cited": 50,
    "##ii": 16,
    "reads": 60,
    "##crat": 10,
    "pontifical": 2,
    "##ur": 96,
    "##iae": 2,
    "reserved": 32,
    "attempts": 97,
    "charity": 22,
    "ecclesiastical": 7,
    "libel": 8,
    "massive": 55,
    "mans": 6,
    "##lau": 22,
    "##ght": 20,
    "stress": 45,
    "dubious": 16,
    "##rica": 5,
    "lawyers": 37,
    "sympathy": 17,
    "##ated": 99,
    "##uel": 11,
    "##les": 52,
    "explained": 93,
    "constitutes": 20,
    "##ral": 22,
    "pont": 3,
    "##iff": 9,
    "establishing": 25,
    "commented": 20,
    "divided": 41,
    "1976": 38,
    "##just": 20,
    "considers": 28,
    "undergoing": 9,
    "believes": 105,
    "sincerely": 15,
    "incurred": 5,
    "prelate": 2,
    "undermine": 12,
    "orthodox": 38,
    "salvation": 72,
    "souls": 31,
    "intimately": 3,
    "reconciliation": 6,
    "lifetime": 45,
    "quota": 43,
    "merits": 19,
    "miracle": 38,
    "elm": 7,
    "##inated": 17,
    "finals": 32,
    "backs": 29,
    "scalp": 13,
    "aide": 12,
    "faces": 53,
    "scratched": 10,
    "knives": 34,
    "eyes": 158,
    "##uge": 14,
    "dozens": 22,
    "corpses": 36,
    "sought": 31,
    "recover": 41,
    "1960": 32,
    "miracles": 35,
    "nuclear": 158,
    "flights": 29,
    "parent": 69,
    "##dit": 22,
    "accomplishments": 4,
    "privileged": 8,
    "stories": 97,
    "eyed": 7,
    "telescopes": 5,
    "toilet": 23,
    "seats": 53,
    "##ken": 20,
    "swell": 8,
    "ref": 162,
    "##bis": 52,
    "ballistic": 6,
    "legacy": 6,
    "continuing": 50,
    "parents": 139,
    "caught": 115,
    "enthusiasm": 3,
    "spirit": 72,
    "learned": 111,
    "achievements": 6,
    "mistakes": 65,
    "honor": 56,
    "impetus": 6,
    "fir": 6,
    "exploration": 35,
    "incorporated": 18,
    "rocket": 124,
    "advocated": 11,
    "##lessly": 14,
    "elegant": 13,
    "breakthrough": 16,
    "reminded": 20,
    "prime": 68,
    "##tine": 58,
    "##ntal": 13,
    "1920": 56,
    "aerospace": 22,
    "transportation": 26,
    "launched": 79,
    "api": 5,
    "##ece": 9,
    "signaled": 1,
    "commitment": 64,
    "##asse": 8,
    "##sco": 32,
    "bringing": 43,
    "framework": 22,
    "routine": 70,
    "affordable": 14,
    "magnificent": 4,
    "summer": 168,
    "rapidly": 36,
    "##ably": 106,
    "efficiently": 18,
    "propulsion": 36,
    "former": 180,
    "efforts": 119,
    "merge": 12,
    "mankind": 46,
    "temptation": 13,
    "leap": 42,
    "weren": 102,
    "##umb": 15,
    "dollars": 131,
    "jump": 71,
    "colleagues": 24,
    "brick": 12,
    "draft": 137,
    "##cco": 7,
    "##mbe": 1,
    "pleading": 6,
    "trades": 19,
    "brilliance": 2,
    "anchor": 8,
    "sucker": 9,
    "##weight": 6,
    "wasted": 24,
    "trigger": 50,
    "judgement": 82,
    "conviction": 38,
    "handy": 42,
    "shotgun": 37,
    "possession": 51,
    "altered": 30,
    "conceal": 21,
    "##ibility": 31,
    "##ide": 36,
    "implications": 33,
    "hearted": 11,
    "unpopular": 10,
    "##ization": 184,
    "empty": 86,
    "register": 58,
    "tops": 14,
    "bastard": 16,
    "morals": 38,
    "sunk": 10,
    "viewed": 45,
    "##md": 39,
    "handheld": 28,
    "attend": 33,
    "bread": 38,
    "butter": 6,
    "gall": 10,
    "ancient": 71,
    "travelling": 15,
    "carnival": 3,
    "##ume": 19,
    "##rating": 18,
    "felt": 137,
    "prohibition": 24,
    "galleries": 2,
    "opposition": 64,
    "ruled": 57,
    "operate": 77,
    "projectile": 17,
    "beams": 8,
    "shaft": 43,
    "permission": 101,
    "kn": 14,
    "##kle": 13,
    "pep": 3,
    "instruction": 57,
    "##cent": 38,
    "pump": 34,
    "friendly": 53,
    "neighborhood": 25,
    "##wd": 50,
    "id": 181,
    "##xx": 56,
    "obtained": 118,
    "glover": 2,
    "usable": 26,
    "newer": 79,
    "significantly": 98,
    "bothering": 8,
    "watching": 106,
    "nt": 40,
    "caution": 20,
    "unexpected": 14,
    "##ew": 81,
    "600": 150,
    "##rri": 33,
    "##num": 15,
    "##ber": 51,
    "winding": 9,
    "core": 105,
    "##ura": 27,
    "thickness": 9,
    "copper": 29,
    "analog": 70,
    "##books": 7,
    "##bal": 12,
    "nearest": 25,
    "##mpt": 26,
    "##om": 58,
    "shine": 22,
    "horizontally": 14,
    "internet": 174,
    "##44": 64,
    "##16": 51,
    "american": 26,
    "exceptional": 11,
    "personally": 129,
    "unfair": 26,
    "adolescent": 9,
    "stupid": 192,
    "contribute": 50,
    "slump": 15,
    "views": 146,
    "statements": 131,
    "obtaining": 28,
    "expects": 22,
    "sweep": 33,
    "instructions": 100,
    "##ea": 112,
    "sighted": 15,
    "talks": 110,
    "##hr": 76,
    "##ono": 43,
    "speeds": 93,
    "##vic": 21,
    "##write": 40,
    "differs": 13,
    "burst": 80,
    "bursts": 17,
    "genetic": 41,
    "##position": 10,
    "##illa": 9,
    "walls": 47,
    "brothers": 56,
    "transplant": 18,
    "thigh": 5,
    "lining": 13,
    "herb": 5,
    "experiences": 85,
    "beat": 161,
    "jug": 6,
    "##nge": 23,
    "piston": 12,
    "valve": 50,
    "loved": 44,
    "insert": 76,
    "intends": 22,
    "merely": 139,
    "substitution": 18,
    "forensic": 10,
    "speaking": 117,
    "pursuing": 31,
    "essays": 4,
    "essay": 9,
    "slalom": 2,
    "rides": 33,
    "##ele": 23,
    "mile": 124,
    "mph": 36,
    "tor": 8,
    "gear": 80,
    "rpm": 26,
    "torque": 38,
    "yeah": 64,
    "quieter": 2,
    "shafts": 11,
    "wins": 76,
    "contest": 96,
    "blow": 70,
    "crack": 73,
    "speak": 201,
    "##rence": 17,
    "highlight": 7,
    "reliability": 38,
    "comparing": 51,
    "considerably": 34,
    "succeed": 26,
    "nah": 4,
    "cares": 51,
    "asleep": 16,
    "sad": 80,
    "lightweight": 9,
    "sep": 67,
    "##erate": 61,
    "suitable": 67,
    "##backs": 29,
    "buttons": 43,
    "##back": 69,
    "routines": 117,
    "neatly": 12,
    "ease": 30,
    "coding": 29,
    "driven": 96,
    "style": 151,
    "integer": 34,
    "arithmetic": 50,
    "##ded": 58,
    "domain": 135,
    "straightforward": 21,
    "algorithms": 70,
    "distribution": 203,
    "oz": 59,
    "meant": 179,
    "marketing": 46,
    "prose": 32,
    "##cute": 18,
    "fraud": 25,
    "buyers": 14,
    "march": 19,
    "minutes": 202,
    "grinding": 9,
    "bigger": 88,
    "##utable": 56,
    "cartridges": 37,
    "physical": 220,
    "testified": 16,
    "os": 210,
    "describe": 98,
    "demand": 100,
    "revision": 42,
    "represent": 82,
    "officially": 40,
    "##lai": 68,
    "##mer": 84,
    "boom": 15,
    "resulting": 68,
    "damage": 140,
    "##led": 114,
    "hacking": 12,
    "##pack": 14,
    "##ette": 26,
    "utility": 103,
    "##uen": 87,
    "collecting": 28,
    "uploaded": 10,
    "nm": 34,
    "##dm": 100,
    "zip": 137,
    "funding": 98,
    "briefly": 25,
    "shifted": 12,
    "evaluated": 14,
    "billions": 23,
    "cocaine": 18,
    "slipping": 3,
    "cracks": 7,
    "wealthy": 16,
    "naturally": 44,
    "##ours": 14,
    "##eit": 17,
    "header": 117,
    "##not": 22,
    "mart": 4,
    "338": 14,
    "##31": 43,
    "switches": 57,
    "##stick": 46,
    "##balls": 13,
    "##ball": 33,
    "##bat": 16,
    "cheering": 9,
    "frustration": 11,
    "israeli": 25,
    "bosnian": 4,
    "inhabited": 6,
    "serbs": 3,
    "muslims": 22,
    "peaceful": 34,
    "israelis": 11,
    "lebanese": 3,
    "efficient": 47,
    "##dates": 5,
    "frames": 37,
    "320": 66,
    "##24": 90,
    "5000": 69,
    "franchise": 29,
    "explosive": 26,
    "fission": 9,
    "fusion": 22,
    "atomic": 20,
    "nuclei": 1,
    "biological": 29,
    "organisms": 20,
    "viruses": 14,
    "city": 266,
    "similarly": 29,
    "populated": 14,
    "##ev": 40,
    "##oir": 1,
    "crop": 26,
    "mustard": 4,
    "poisonous": 5,
    "individually": 18,
    "banned": 38,
    "chemicals": 26,
    "definitions": 47,
    "destruction": 69,
    "diet": 86,
    "decline": 18,
    "enthusiastic": 9,
    "lap": 13,
    "##dot": 28,
    "##mity": 106,
    "seed": 35,
    "crush": 10,
    "bruise": 8,
    "heel": 11,
    "commits": 12,
    "devil": 29,
    "grace": 87,
    "greek": 27,
    "##cha": 57,
    "##rito": 1,
    "thee": 15,
    "proto": 14,
    "evan": 14,
    "##gel": 17,
    "promise": 76,
    "savior": 9,
    "##eem": 14,
    "wil": 17,
    "conclude": 60,
    "##lessness": 5,
    "vera": 15,
    "promised": 58,
    "serpent": 13,
    "perfection": 13,
    "grasped": 1,
    "foot": 130,
    "##note": 11,
    "##ami": 15,
    "filled": 78,
    "reduced": 83,
    "conception": 21,
    "agreement": 75,
    "tradition": 88,
    "declaration": 19,
    "cancel": 13,
    "remembered": 29,
    "##eo": 19,
    "##rom": 29,
    "##oc": 125,
    "##yt": 29,
    "##cide": 15,
    "mouse": 262,
    "cell": 62,
    "##genic": 18,
    "primary": 111,
    "##vine": 3,
    "##ren": 28,
    "cortex": 1,
    "christ": 8,
    "ah": 26,
    "pathetic": 16,
    "##ote": 22,
    "chu": 15,
    "##mbo": 11,
    "appointment": 17,
    "lake": 18,
    "motorcycles": 65,
    "era": 34,
    "hardly": 94,
    "mounting": 25,
    "automobiles": 27,
    "##oot": 11,
    "wrecked": 7,
    "abused": 25,
    "garage": 48,
    "1200": 66,
    "polished": 7,
    "cam": 52,
    "adjustable": 19,
    "##rod": 21,
    "##ffle": 18,
    "##meter": 13,
    "fork": 30,
    "springs": 14,
    "seat": 86,
    "sis": 5,
    "chrome": 11,
    "brace": 3,
    "cooler": 8,
    "##rm": 71,
    "rows": 38,
    "textual": 8,
    "tracking": 40,
    "1776": 7,
    "favorable": 18,
    "scheduled": 48,
    "##dorf": 4,
    "##vert": 90,
    "affiliated": 17,
    "delicious": 1,
    "pipeline": 7,
    "##front": 4,
    "##wi": 55,
    "interview": 48,
    "qualify": 30,
    "andy": 21,
    "zones": 9,
    "leagues": 21,
    "hypothesis": 34,
    "talent": 62,
    "rushed": 23,
    "majors": 33,
    "fare": 12,
    "poorly": 32,
    "unusual": 44,
    "ages": 29,
    "struggled": 8,
    "stats": 116,
    "stocked": 3,
    "helping": 44,
    "newspapers": 45,
    "censorship": 19,
    "##ents": 27,
    "##nsor": 12,
    "honest": 93,
    "sporting": 10,
    "liquor": 3,
    "gal": 22,
    "editors": 20,
    "displeasure": 6,
    "288": 22,
    "505": 14,
    "##54": 28,
    "##50": 56,
    "385": 14,
    "##58": 27,
    "##57": 21,
    "540": 10,
    "##40": 91,
    "5th": 41,
    "750": 85,
    "topic": 127,
    "headlines": 5,
    "##ammed": 5,
    "journalism": 14,
    "journalists": 26,
    "succeeded": 28,
    "playing": 194,
    "unconstitutional": 11,
    "conquer": 10,
    "ammunition": 41,
    "hunting": 29,
    "recreational": 12,
    "##zos": 7,
    "generous": 18,
    "communists": 4,
    "communism": 12,
    "solved": 31,
    "productive": 21,
    "raises": 30,
    "embarrassing": 10,
    "slug": 21,
    "##gard": 3,
    "butcher": 18,
    "##lak": 2,
    "neighboring": 17,
    "capitalist": 24,
    "politically": 31,
    "skill": 27,
    "ambition": 2,
    "flee": 17,
    "presently": 23,
    "locking": 14,
    "barbed": 3,
    "mines": 8,
    "fleeing": 13,
    "prison": 51,
    "fiction": 39,
    "crossing": 20,
    "unarmed": 20,
    "socialists": 10,
    "sheer": 9,
    "contentious": 5,
    "choosing": 45,
    "resolved": 19,
    "ultimate": 47,
    "departure": 4,
    "hair": 65,
    "observer": 21,
    "##has": 18,
    "disagreements": 3,
    "stem": 11,
    "widespread": 49,
    "z": 198,
    "leaves": 68,
    "respects": 22,
    "shards": 3,
    "tram": 24,
    "##pled": 16,
    "hierarchy": 36,
    "shocking": 9,
    "hour": 117,
    "followed": 159,
    "##ech": 10,
    "##isms": 5,
    "inn": 22,
    "retirement": 9,
    "waited": 32,
    "recovered": 27,
    "inquired": 2,
    "absence": 37,
    "confirmed": 55,
    "retired": 32,
    "injustice": 10,
    "clergy": 7,
    "churches": 65,
    "celebrate": 20,
    "visit": 86,
    "parish": 24,
    "promptly": 18,
    "enraged": 4,
    "enlist": 3,
    "priest": 42,
    "parishes": 11,
    "legislation": 73,
    "enacted": 13,
    "obligation": 21,
    "petitions": 2,
    "kicked": 23,
    "conform": 44,
    "jointly": 23,
    "##hed": 24,
    "controversy": 15,
    "instant": 22,
    "##ister": 2,
    "##ieu": 7,
    "teachings": 72,
    "pit": 47,
    "##iful": 14,
    "rests": 9,
    "##tray": 21,
    "historically": 19,
    "honored": 10,
    "contention": 25,
    "vested": 7,
    "outcome": 48,
    "religions": 131,
    "slippery": 11,
    "diamond": 9,
    "stadium": 23,
    "marked": 47,
    "champion": 10,
    "loser": 18,
    "treat": 84,
    "##orn": 14,
    "lights": 84,
    "1975": 41,
    "##fen": 4,
    "vintage": 13,
    "enormous": 43,
    "##col": 21,
    "##oured": 7,
    "amber": 12,
    "parking": 42,
    "marker": 15,
    "lamps": 22,
    "luxury": 15,
    "aimed": 53,
    "glossy": 6,
    "bro": 33,
    "##chu": 18,
    "illuminating": 4,
    "hazards": 9,
    "pot": 35,
    "toys": 12,
    "wheels": 53,
    "anxiety": 11,
    "disorder": 22,
    "characterized": 24,
    "obsession": 12,
    "persistent": 17,
    "##rus": 19,
    "entertained": 2,
    "compulsion": 10,
    "repetitive": 14,
    "ritual": 19,
    "intense": 25,
    "psychological": 39,
    "resisted": 5,
    "##sive": 18,
    "repeated": 72,
    "accompanied": 20,
    "##urrent": 7,
    "##las": 28,
    "suppress": 27,
    "realizes": 10,
    "originate": 10,
    "##pu": 87,
    "##ls": 91,
    "constant": 88,
    "washing": 9,
    "##iating": 11,
    "distress": 11,
    "##air": 9,
    "daily": 67,
    "relationships": 16,
    "psycho": 29,
    "##therapy": 1,
    "behavioral": 2,
    "##ants": 21,
    "psychiatric": 4,
    "characters": 110,
    "##wil": 20,
    "mein": 3,
    "zu": 19,
    "wondered": 30,
    "welcome": 132,
    "kits": 25,
    "astronomy": 35,
    "wavelength": 9,
    "telescope": 23,
    "cameras": 33,
    "proportional": 17,
    "counters": 50,
    "accomplish": 44,
    "aboard": 12,
    "1997": 12,
    "assists": 24,
    "trajectory": 12,
    "arrive": 26,
    "2004": 5,
    "arrival": 16,
    "separates": 4,
    "descends": 4,
    "traverse": 4,
    "cloudy": 3,
    "surface": 186,
    "touring": 7,
    "##aj": 15,
    "##ect": 31,
    "##ories": 15,
    "targeted": 15,
    "objectives": 31,
    "##fold": 14,
    "rings": 38,
    "magnet": 24,
    "##osphere": 10,
    "intriguing": 4,
    "lakes": 7,
    "liquid": 43,
    "hydro": 10,
    "##carbon": 6,
    "photo": 89,
    "##chemical": 4,
    "processes": 52,
    "conde": 47,
    "##nse": 18,
    "rain": 42,
    "onboard": 7,
    "radar": 125,
    "peer": 24,
    "clouds": 14,
    "investigate": 35,
    "chemical": 48,
    "named": 127,
    "1625": 3,
    "1712": 1,
    "atmospheric": 24,
    "physicist": 28,
    "1629": 3,
    "1695": 1,
    "09": 140,
    "asteroid": 10,
    "##fur": 10,
    "abandoned": 27,
    "mapping": 53,
    "mapped": 23,
    "map": 96,
    "booster": 27,
    "martian": 5,
    "observing": 22,
    "observations": 70,
    "substantially": 34,
    "ocean": 20,
    "dynamics": 19,
    "transported": 6,
    "poles": 14,
    "particles": 25,
    "##ometer": 26,
    "electron": 15,
    "collectors": 12,
    "ranges": 17,
    "plasma": 13,
    "receivers": 25,
    "stole": 29,
    "planet": 88,
    "sliding": 23,
    "north": 65,
    "pole": 36,
    "##uve": 3,
    "bent": 21,
    "solar": 87,
    "tilted": 6,
    "##hel": 14,
    "surprisingly": 11,
    "##ih": 27,
    "##eli": 20,
    "##bor": 15,
    "studied": 47,
    "articles": 222,
    "contributed": 51,
    "##mada": 3,
    "jp": 121,
    "updates": 36,
    "variations": 21,
    "emission": 2,
    "dwarfs": 2,
    "##sm": 227,
    "flare": 3,
    "nearby": 50,
    "exotic": 13,
    "objects": 141,
    "isolated": 30,
    "neutron": 22,
    "gamma": 22,
    "astro": 66,
    "##physical": 3,
    "investigator": 25,
    "jj": 7,
    "lan": 10,
    "measure": 108,
    "conducts": 2,
    "scientific": 214,
    "retrieved": 14,
    "1994": 51,
    "ions": 4,
    "gases": 6,
    "surrounding": 38,
    "astronomical": 22,
    "electromagnetic": 11,
    "waves": 31,
    "1995": 22,
    "crust": 7,
    "thermal": 27,
    "construction": 71,
    "interior": 34,
    "observatory": 12,
    "mysteries": 11,
    "characteristics": 39,
    "1999": 14,
    "comets": 14,
    "primitive": 35,
    "outer": 40,
    "cosmic": 23,
    "formation": 28,
    "galaxies": 9,
    "planets": 18,
    "distant": 22,
    "infrared": 14,
    "emi": 29,
    "##tting": 10,
    "rover": 5,
    "samples": 46,
    "1996": 13,
    "2005": 5,
    "measurements": 28,
    "vapor": 18,
    "2016": 1,
    "traces": 13,
    "##ins": 32,
    "retail": 25,
    "eliminating": 16,
    "sunni": 1,
    "ja": 41,
    "##ffa": 2,
    "##ri": 123,
    "muslim": 20,
    "islam": 13,
    "hostility": 19,
    "category": 60,
    "##ending": 23,
    "precedent": 25,
    "##ith": 20,
    "ind": 171,
    "##nant": 7,
    "##sa": 145,
    "applies": 86,
    "reward": 37,
    "fat": 68,
    "##wa": 45,
    "assisted": 21,
    "encompass": 9,
    "diplomatic": 16,
    "relations": 49,
    "condemnation": 19,
    "circulation": 10,
    "preliminary": 15,
    "resolving": 6,
    "iss": 9,
    "##uance": 5,
    "blitz": 1,
    "presenting": 28,
    "lone": 19,
    "knight": 5,
    "guarding": 3,
    "sacred": 34,
    "democracy": 44,
    "mocking": 3,
    "beliefs": 191,
    "flames": 65,
    "everywhere": 65,
    "demonstrators": 5,
    "protesting": 13,
    "momentarily": 5,
    "climbed": 8,
    "issued": 75,
    "##zation": 43,
    "##ep": 74,
    "publishers": 6,
    "encompasses": 4,
    "payload": 64,
    "315": 27,
    "kg": 43,
    "launcher": 57,
    "successor": 11,
    "dia": 79,
    "##rou": 50,
    "##nd": 108,
    "loads": 29,
    "shake": 20,
    "fragile": 7,
    "integration": 38,
    "assembled": 47,
    "##tial": 10,
    "bolted": 2,
    "rail": 11,
    "erected": 4,
    "facilities": 75,
    "imported": 13,
    "worrying": 10,
    "implied": 43,
    "advocacy": 16,
    "securing": 8,
    "tapping": 17,
    "crook": 17,
    "flickering": 4,
    "tastes": 13,
    "surplus": 12,
    "worlds": 16,
    "traditions": 22,
    "meaning": 248,
    "surviving": 12,
    "disciples": 64,
    "martyr": 13,
    "het": 31,
    "##ero": 30,
    "##orth": 1,
    "##od": 59,
    "tickets": 52,
    "basketball": 19,
    "trace": 87,
    "geologist": 4,
    "existent": 27,
    "premises": 32,
    "respective": 22,
    "arise": 27,
    "directions": 33,
    "offended": 20,
    "bag": 61,
    "premise": 46,
    "peacefully": 11,
    "gonna": 55,
    "token": 13,
    "##wo": 43,
    "##of": 103,
    "mini": 79,
    "colored": 15,
    "##bm": 31,
    "##ride": 25,
    "comfort": 28,
    "charismatic": 5,
    "##iculate": 16,
    "demonstrates": 27,
    "leadership": 81,
    "qualities": 17,
    "derived": 53,
    "fish": 41,
    "ich": 6,
    "##saurus": 7,
    "dreadful": 3,
    "disputed": 16,
    "fishing": 25,
    "disputes": 8,
    "slogan": 6,
    "dispute": 39,
    "potatoes": 4,
    "option": 203,
    "transactions": 21,
    "##act": 54,
    "##table": 54,
    "fu": 64,
    "##dge": 24,
    "concerning": 98,
    "##market": 19,
    "unhappy": 25,
    "noisy": 21,
    "rich": 63,
    "cafe": 19,
    "amended": 9,
    "mei": 3,
    "scares": 9,
    "##ture": 12,
    "aka": 20,
    "houses": 88,
    "interactions": 6,
    "lessons": 14,
    "roommate": 9,
    "rode": 28,
    "cotton": 14,
    "##breaker": 6,
    "invest": 21,
    "rains": 4,
    "##torm": 3,
    "urban": 28,
    "ski": 38,
    "##dded": 1,
    "ejected": 8,
    "upward": 8,
    "##coming": 16,
    "stopped": 149,
    "someplace": 14,
    "mechanic": 22,
    "eco": 10,
    "##no": 80,
    "##ze": 99,
    "licensing": 26,
    "fees": 33,
    "maintenance": 35,
    "upstate": 1,
    "substantial": 48,
    "annual": 55,
    "noticing": 5,
    "visiting": 25,
    "##rooms": 2,
    "shopping": 23,
    "quoting": 26,
    "hence": 66,
    "superstar": 18,
    "blamed": 25,
    "cup": 56,
    "tendency": 29,
    "knife": 66,
    "semifinals": 1,
    "playoffs": 96,
    "colours": 20,
    "colour": 63,
    "palette": 39,
    "cube": 20,
    "bedroom": 33,
    "spacious": 3,
    "inquiries": 11,
    "messengers": 8,
    "accumulated": 8,
    "##ened": 23,
    "fulfillment": 20,
    "forgiveness": 23,
    "messenger": 18,
    "fears": 18,
    "pleasing": 6,
    "humble": 19,
    "mainstream": 33,
    "mock": 12,
    "##ery": 17,
    "rid": 115,
    "##ule": 19,
    "martyrs": 4,
    "saints": 11,
    "engage": 35,
    "##cker": 6,
    "arguments": 202,
    "bind": 13,
    "muster": 7,
    "saved": 144,
    "extend": 48,
    "indications": 4,
    "acknowledge": 56,
    "atheist": 327,
    "##nostic": 29,
    "remind": 37,
    "prevented": 48,
    "prayed": 8,
    "remained": 38,
    "hesitate": 10,
    "pena": 4,
    "##nce": 110,
    "fruits": 19,
    "##trust": 11,
    "insist": 60,
    "convey": 23,
    "##ss": 78,
    "##ua": 49,
    "dragon": 11,
    "angry": 40,
    "offspring": 8,
    "famine": 7,
    "blessed": 24,
    "prepared": 99,
    "renewed": 9,
    "wherever": 25,
    "shared": 115,
    "blessings": 5,
    "sharing": 44,
    "forgetting": 8,
    "preparing": 21,
    "sanctuary": 5,
    "womb": 12,
    "marries": 1,
    "bride": 5,
    "conceived": 12,
    "flock": 11,
    "greedy": 4,
    "##ari": 68,
    "worthy": 45,
    "align": 9,
    "recommendation": 16,
    "##cea": 7,
    "nur": 7,
    "##turing": 4,
    "##uber": 4,
    "renew": 11,
    "succeeds": 11,
    "enclosed": 11,
    "375": 34,
    "321": 31,
    "279": 13,
    "occurs": 117,
    "preceding": 13,
    "equation": 41,
    "equations": 25,
    "margin": 31,
    "rack": 26,
    "holder": 22,
    "accessories": 22,
    "brackets": 6,
    "fourteen": 5,
    "##ug": 33,
    "seizure": 29,
    "eating": 75,
    "seizures": 29,
    "bowl": 12,
    "frost": 3,
    "cereal": 27,
    "embarrassed": 14,
    "junk": 73,
    "pour": 18,
    "coated": 15,
    "ate": 31,
    "##gated": 14,
    "scratching": 8,
    "inmates": 3,
    "quick": 156,
    "dent": 12,
    "invaders": 6,
    "brad": 10,
    "##ski": 15,
    "##26": 50,
    "storage": 81,
    "##llis": 5,
    "##cope": 10,
    "depended": 5,
    "successive": 8,
    "ham": 44,
    "##fest": 15,
    "terminology": 23,
    "##frame": 33,
    "fiddle": 7,
    "##bla": 16,
    "##hema": 20,
    "observation": 67,
    "rotate": 28,
    "clockwise": 19,
    "northern": 24,
    "hemisphere": 7,
    "##ock": 41,
    "##wise": 20,
    "vegetation": 2,
    "classic": 43,
    "sw": 88,
    "##ast": 34,
    "##ika": 8,
    "sun": 249,
    "clocks": 15,
    "imitation": 3,
    "heavens": 22,
    "uncertainty": 8,
    "twin": 31,
    "opposite": 82,
    "visually": 8,
    "settle": 31,
    "dick": 9,
    "##ene": 15,
    "accelerator": 77,
    "wildly": 8,
    "determining": 31,
    "##iness": 21,
    "sounding": 27,
    "saving": 49,
    "##gin": 14,
    "##tors": 54,
    "sentences": 20,
    "##ti": 158,
    "##tat": 13,
    "internationally": 6,
    "hacker": 35,
    "shit": 78,
    "sized": 43,
    "shift": 85,
    "privately": 25,
    "stunt": 8,
    "silicon": 26,
    "spit": 20,
    "diplomats": 17,
    "spying": 15,
    "workers": 52,
    "astronaut": 27,
    "##ics": 49,
    "assent": 2,
    "##ap": 93,
    "sectional": 5,
    "sr": 45,
    "gallon": 10,
    "grapes": 4,
    "grown": 27,
    "yearly": 14,
    "topped": 4,
    "##dia": 35,
    "hop": 40,
    "##py": 124,
    "lame": 21,
    "##nted": 13,
    "abd": 10,
    "thoroughly": 30,
    "thank": 88,
    "keyboards": 26,
    "wires": 92,
    "cables": 57,
    "tan": 29,
    "fry": 9,
    "brave": 17,
    "##omic": 14,
    "correlation": 22,
    "connections": 58,
    "##ered": 37,
    "##bus": 6,
    "slots": 68,
    "scorer": 16,
    "awarded": 21,
    "pitcher": 59,
    "abroad": 24,
    "##edge": 5,
    "saves": 91,
    "packet": 20,
    "ole": 19,
    "guitar": 16,
    "uk": 204,
    "liv": 9,
    "flaming": 27,
    "administering": 4,
    "serum": 7,
    "##rim": 66,
    "sal": 11,
    "inca": 25,
    "##pac": 4,
    "##itate": 22,
    "protections": 11,
    "incorporate": 25,
    "hodge": 3,
    "##pod": 6,
    "wired": 24,
    "mainly": 80,
    "correction": 27,
    "chuck": 5,
    "grasp": 21,
    "frank": 13,
    "scrap": 15,
    "pittsburgh": 3,
    "sg": 27,
    "##uw": 3,
    "pa": 38,
    "usa": 12,
    "na": 59,
    "confess": 26,
    "##eme": 13,
    "##try": 19,
    "weighs": 7,
    "1100": 58,
    "fr": 97,
    "##eon": 6,
    "jets": 14,
    "pulse": 21,
    "width": 82,
    "alignment": 22,
    "eight": 91,
    "cycle": 70,
    "residual": 7,
    "angular": 4,
    "momentum": 21,
    "spin": 48,
    "stabilization": 2,
    "flip": 21,
    "liter": 28,
    "modules": 35,
    "bolt": 33,
    "magnitude": 35,
    "formats": 149,
    "twist": 27,
    "disappear": 36,
    "clues": 19,
    "secretary": 13,
    "##ram": 14,
    "##bled": 5,
    "filter": 58,
    "scheduling": 7,
    "commenting": 13,
    "withdraw": 37,
    "boots": 44,
    "tanker": 3,
    "fantasies": 10,
    "rebel": 6,
    "oppression": 16,
    "strap": 20,
    "bombs": 18,
    "##bas": 11,
    "##sies": 8,
    "##bia": 20,
    "##sed": 69,
    "observers": 20,
    "lunatic": 25,
    "possibilities": 34,
    "triad": 1,
    "fulfilling": 4,
    "##lf": 22,
    "selective": 21,
    "keepers": 3,
    "holy": 59,
    "riddle": 6,
    "twisted": 24,
    "ravi": 14,
    "fictional": 6,
    "severely": 25,
    "##ider": 21,
    "##cing": 51,
    "##qua": 40,
    "perceptions": 17,
    "##ali": 39,
    "##tative": 11,
    "quantitative": 11,
    "laps": 14,
    "versus": 57,
    "syn": 24,
    "##mous": 3,
    "mist": 28,
    "patches": 77,
    "##ars": 13,
    "expressions": 11,
    "regions": 32,
    "##ue": 50,
    "##eza": 1,
    "##ord": 34,
    "##roy": 7,
    "doctors": 91,
    "cast": 47,
    "transport": 34,
    "##ai": 43,
    "450": 49,
    "lever": 15,
    "fines": 4,
    "##ches": 21,
    "bun": 27,
    "##gee": 11,
    "resting": 8,
    "passenger": 43,
    "peg": 9,
    "##ign": 17,
    "tour": 22,
    "sessions": 21,
    "barracks": 5,
    "stairs": 11,
    "completed": 46,
    "retrieval": 15,
    "lux": 5,
    "##uri": 23,
    "collisions": 9,
    "##belt": 7,
    "##bag": 19,
    "presumably": 53,
    "plans": 91,
    "commissioned": 7,
    "valley": 12,
    "flows": 12,
    "join": 89,
    "divert": 13,
    "diversion": 5,
    "km": 93,
    "mountainous": 7,
    "inaccessible": 7,
    "wells": 12,
    "rumored": 12,
    "border": 104,
    "costly": 17,
    "overall": 107,
    "bilateral": 8,
    "##ciation": 5,
    "regional": 21,
    "withdrawal": 19,
    "##gul": 7,
    "##ets": 23,
    "implement": 69,
    "contracts": 38,
    "professionals": 32,
    "collective": 26,
    "spear": 8,
    "##head": 45,
    "gladly": 17,
    "royalties": 7,
    "implemented": 88,
    "charging": 19,
    "bunker": 10,
    "clever": 32,
    "purchased": 96,
    "##mina": 57,
    "suns": 13,
    "##lby": 1,
    "##wind": 41,
    "2500": 12,
    "##tm": 30,
    "##eter": 29,
    "outlet": 53,
    "625": 25,
    "precision": 41,
    "ideal": 66,
    "yard": 26,
    "cain": 4,
    "401": 20,
    "421": 13,
    "za": 46,
    "##pper": 5,
    "controllers": 31,
    "duck": 17,
    "hunt": 12,
    "##fire": 20,
    "handed": 78,
    "disguised": 7,
    "##door": 27,
    "bribes": 2,
    "espionage": 18,
    "connected": 138,
    "creating": 84,
    "##leg": 18,
    "weaknesses": 18,
    "grow": 47,
    "replacements": 15,
    "alternatives": 49,
    "##kit": 102,
    "abstraction": 11,
    "nickname": 17,
    "##ulator": 29,
    "leaving": 105,
    "burning": 80,
    "cleveland": 12,
    "##nc": 20,
    "arrangement": 25,
    "desk": 47,
    "fei": 8,
    "captured": 36,
    "petroleum": 3,
    "gel": 16,
    "##uted": 26,
    "inhabitants": 53,
    "accepted": 169,
    "underground": 26,
    "burned": 114,
    "catching": 9,
    "cigar": 5,
    "goat": 5,
    "##lli": 14,
    "whoever": 37,
    "rodents": 3,
    "##wr": 38,
    "##app": 24,
    "slick": 9,
    "dilemma": 10,
    "disappearing": 4,
    "profitable": 9,
    "##rgo": 14,
    "tablets": 10,
    "flushed": 6,
    "nasal": 4,
    "spray": 14,
    "varying": 18,
    "max": 97,
    "accelerated": 28,
    "corrected": 39,
    "meanings": 21,
    "dictionary": 49,
    "cruel": 47,
    "reminder": 15,
    "interpreting": 17,
    "passages": 72,
    "somehow": 131,
    "und": 159,
    "##put": 66,
    "cite": 49,
    "scripture": 62,
    "abs": 49,
    "##uti": 21,
    "interpretations": 52,
    "sponsoring": 10,
    "seminar": 27,
    "visual": 165,
    "developments": 20,
    "sol": 36,
    "presentations": 31,
    "length": 145,
    "demonstration": 48,
    "proceedings": 46,
    "##graphs": 10,
    "materials": 58,
    "reproduced": 8,
    "attendees": 16,
    "abstract": 32,
    "2008": 14,
    "##18": 49,
    "lip": 23,
    "##as": 133,
    "dt": 71,
    "affiliation": 23,
    "acceptance": 39,
    "reproduction": 15,
    "stockings": 7,
    "advisory": 14,
    "committee": 107,
    "redesign": 37,
    "academic": 68,
    "participate": 67,
    "utmost": 7,
    "diverse": 22,
    "integrity": 27,
    "independently": 22,
    "assessing": 9,
    "proposing": 21,
    "efficiency": 17,
    "clone": 59,
    "accessed": 24,
    "reacts": 6,
    "reproduce": 19,
    "colleague": 17,
    "dos": 82,
    "##wc": 5,
    "##cd": 10,
    "##drive": 24,
    "##tz": 30,
    "moi": 4,
    "##res": 75,
    "bitch": 19,
    "limitation": 22,
    "splash": 3,
    "resolutions": 37,
    "##resh": 53,
    "##reate": 7,
    "pixels": 55,
    "compute": 35,
    "styled": 4,
    "shaded": 4,
    "transfers": 35,
    "internally": 18,
    "ras": 54,
    "copied": 30,
    "vectors": 9,
    "poly": 137,
    "##ching": 29,
    "slowly": 45,
    "##mark": 32,
    "##mers": 24,
    "testing": 96,
    "blessing": 11,
    "grabs": 13,
    "##ifiers": 14,
    "mn": 22,
    "##emon": 8,
    "handler": 54,
    "lobbying": 11,
    "semantics": 9,
    "translations": 34,
    "resource": 134,
    "##around": 28,
    "descendants": 11,
    "invoked": 16,
    "##tton": 7,
    "establishes": 9,
    "whereas": 57,
    "ancestors": 17,
    "##ances": 13,
    "essence": 57,
    "upset": 53,
    "shaky": 9,
    "mix": 42,
    "##sham": 1,
    "##edly": 1,
    "narratives": 4,
    "comte": 1,
    "##ora": 36,
    "historians": 24,
    "attempt": 207,
    "humanity": 59,
    "inherent": 53,
    "absolute": 156,
    "founded": 53,
    "trooper": 1,
    "learns": 2,
    "shrug": 5,
    "commodity": 3,
    "civilized": 19,
    "mor": 57,
    "monarch": 4,
    "##rg": 36,
    "collapse": 24,
    "blaming": 17,
    "crowe": 2,
    "shining": 11,
    "cultural": 73,
    "##gled": 12,
    "surfaced": 3,
    "officers": 98,
    "handgun": 143,
    "twelve": 26,
    "teachers": 31,
    "earn": 36,
    "semester": 5,
    "intended": 208,
    "##ored": 11,
    "students": 82,
    "excited": 22,
    "learning": 92,
    "simulated": 13,
    "underwater": 5,
    "simulation": 25,
    "trips": 35,
    "instructors": 11,
    "dinner": 27,
    "banquet": 4,
    "flew": 30,
    "continental": 24,
    "breakfast": 13,
    "lunch": 40,
    "##13": 82,
    "##eti": 62,
    "gods": 71,
    "eaten": 25,
    "attained": 7,
    "wages": 20,
    "##test": 19,
    "edited": 42,
    "##ator": 13,
    "smile": 8,
    "pat": 11,
    "beg": 48,
    "##zine": 11,
    "castle": 7,
    "##dro": 7,
    "buys": 13,
    "winner": 59,
    "variant": 23,
    "encompassing": 2,
    "##ented": 46,
    "sustained": 19,
    "optimal": 14,
    "grab": 62,
    "vast": 50,
    "cd": 90,
    "rom": 29,
    "accessible": 31,
    "partition": 28,
    "connor": 4,
    "temporary": 46,
    "switching": 48,
    "bats": 16,
    "finished": 78,
    "410": 27,
    "##ulton": 1,
    "333": 88,
    "875": 20,
    "gala": 3,
    "mitchell": 1,
    "lansing": 1,
    "van": 67,
    "##wal": 2,
    "##nan": 6,
    "##dez": 1,
    "martinez": 1,
    "##well": 19,
    "hayes": 2,
    "##you": 10,
    "mill": 58,
    "##igan": 7,
    "##yk": 4,
    "##stra": 12,
    "405": 22,
    "##ine": 82,
    "plant": 72,
    "gonzalez": 3,
    "296": 28,
    "anthony": 7,
    "cole": 2,
    "sanders": 2,
    "357": 25,
    "berry": 4,
    "273": 40,
    "343": 13,
    "jeff": 11,
    "##eries": 3,
    "269": 14,
    "vans": 9,
    "312": 57,
    "490": 7,
    "butler": 2,
    "##iss": 14,
    "308": 23,
    "##wyn": 1,
    "mer": 37,
    "##ced": 13,
    "murray": 1,
    "521": 5,
    "gil": 4,
    "##key": 14,
    "bon": 17,
    "292": 48,
    "417": 25,
    "370": 21,
    "walters": 1,
    "501": 14,
    "wilson": 11,
    "323": 20,
    "weiss": 1,
    "justice": 112,
    "351": 30,
    "##mith": 13,
    "310": 30,
    "##glia": 3,
    "470": 12,
    "327": 36,
    "hu": 42,
    "##ak": 33,
    "benjamin": 1,
    "345": 34,
    "415": 74,
    "moran": 1,
    "##dini": 1,
    "360": 54,
    "##den": 28,
    "##wari": 1,
    "435": 13,
    "412": 36,
    "##laus": 3,
    "thompson": 4,
    "316": 51,
    "barber": 7,
    "267": 43,
    "sheffield": 2,
    "##rro": 20,
    "williams": 1,
    "##gr": 49,
    "##rard": 1,
    "381": 15,
    "304": 33,
    "santiago": 1,
    "clayton": 1,
    "piazza": 1,
    "larkin": 3,
    "281": 16,
    "garcia": 2,
    "319": 12,
    "326": 13,
    "coleman": 3,
    "kent": 4,
    "roberts": 1,
    "277": 27,
    "lewis": 1,
    "354": 32,
    "finley": 1,
    "clark": 2,
    "268": 35,
    "le": 57,
    "339": 15,
    "mcgee": 1,
    "335": 11,
    "334": 16,
    "oliver": 2,
    "gardner": 1,
    "332": 12,
    "reed": 8,
    "##llins": 2,
    "294": 19,
    "davis": 3,
    "325": 38,
    "pendleton": 1,
    "322": 9,
    "297": 3,
    "strawberry": 6,
    "314": 14,
    "##gio": 11,
    "##adan": 2,
    "##gno": 39,
    "##zzi": 9,
    "299": 13,
    "martin": 8,
    "##chet": 5,
    "tau": 9,
    "##ben": 20,
    "##see": 19,
    "##lick": 1,
    "pose": 25,
    "291": 17,
    "cia": 9,
    "##fr": 67,
    "johnson": 4,
    "274": 20,
    "kelly": 4,
    "nixon": 1,
    "##ford": 8,
    "olson": 5,
    "viz": 5,
    "##ino": 15,
    "sanchez": 1,
    "duncan": 1,
    "chamberlain": 1,
    "##don": 23,
    "##ado": 5,
    "felix": 2,
    "jordan": 5,
    "##hill": 4,
    "ben": 26,
    "##avi": 12,
    "##des": 50,
    "wilkins": 2,
    "cv": 36,
    "encyclopedia": 11,
    "stretch": 48,
    "farm": 33,
    "animal": 60,
    "paula": 5,
    "ko": 63,
    "##ax": 23,
    "approached": 18,
    "teenager": 4,
    "questioned": 29,
    "struck": 40,
    "flashlight": 14,
    "threatening": 34,
    "bail": 11,
    "##zan": 2,
    "complaint": 32,
    "suspended": 22,
    "pending": 16,
    "investigation": 85,
    "excessive": 45,
    "requested": 50,
    "##osing": 17,
    "afterward": 12,
    "hang": 47,
    "summoned": 9,
    "##sca": 60,
    "##thed": 1,
    "survivor": 20,
    "pool": 64,
    "complained": 15,
    "scholarly": 19,
    "##zy": 9,
    "extreme": 73,
    "hawk": 10,
    "doll": 4,
    "famous": 67,
    "bust": 13,
    "pink": 35,
    "complexion": 1,
    "##pres": 32,
    "##entation": 18,
    "queen": 8,
    "hysterical": 9,
    "blond": 3,
    "haired": 2,
    "representations": 6,
    "##our": 27,
    "beard": 2,
    "##ulo": 5,
    "negro": 3,
    "##id": 93,
    "marble": 5,
    "statues": 2,
    "prone": 31,
    "greeks": 6,
    "crosses": 4,
    "##orus": 1,
    "indian": 1,
    "subcontinent": 1,
    "racist": 53,
    "potentially": 32,
    "remark": 125,
    "identification": 57,
    "jews": 21,
    "##cot": 3,
    "medieval": 8,
    "##mit": 25,
    "thesis": 19,
    "roles": 14,
    "korean": 2,
    "racial": 41,
    "##hip": 48,
    "employees": 36,
    "unfamiliar": 10,
    "closet": 12,
    "chained": 2,
    "lets": 71,
    "producers": 7,
    "salaries": 9,
    "shaping": 7,
    "defensive": 111,
    "linked": 78,
    "lee": 25,
    "##rea": 84,
    "hopefully": 55,
    "trimmed": 7,
    "##writing": 10,
    "100th": 1,
    "evaluation": 37,
    "que": 35,
    "##ries": 41,
    "tangent": 7,
    "attributed": 26,
    "remove": 122,
    "signatures": 11,
    "institution": 25,
    "wrapping": 8,
    "terminals": 50,
    "carriage": 12,
    "index": 95,
    "##ique": 20,
    "##tte": 17,
    "orbits": 25,
    "crater": 14,
    "diameter": 39,
    "asteroids": 15,
    "projections": 16,
    "spherical": 14,
    "tri": 98,
    "##metry": 6,
    "simulations": 18,
    "##hem": 27,
    "##eri": 52,
    "dimensional": 24,
    "galaxy": 18,
    "coordinates": 17,
    "histories": 24,
    "schemes": 34,
    "sails": 10,
    "lasers": 9,
    "computation": 21,
    "##elli": 10,
    "launching": 18,
    "landings": 10,
    "composition": 13,
    "photography": 24,
    "##tec": 19,
    "astronauts": 18,
    "activist": 5,
    "specified": 78,
    "largely": 60,
    "absorbed": 8,
    "archives": 63,
    "announcements": 23,
    "managed": 105,
    "##47": 28,
    "##ima": 15,
    "ak": 9,
    "##erman": 3,
    "queens": 2,
    "##weig": 13,
    "ao": 28,
    "##ab": 47,
    "tides": 3,
    "aw": 22,
    "wat": 10,
    "##gl": 12,
    "waterloo": 8,
    "kelvin": 6,
    "rat": 23,
    "bern": 1,
    "trier": 2,
    "bros": 3,
    "arc": 65,
    "bsc": 1,
    "##hl": 14,
    "##inger": 1,
    "ns": 44,
    "##sd": 38,
    "gs": 41,
    "##fc": 41,
    "cbn": 14,
    "##nni": 8,
    "##da": 100,
    "cy": 89,
    "##ama": 20,
    "##mot": 7,
    "##lr": 12,
    "dat": 16,
    "viewing": 53,
    "dave": 36,
    "dl": 22,
    "##bre": 10,
    "usl": 6,
    "hs": 18,
    "eugene": 5,
    "introduction": 61,
    "french": 13,
    "##une": 135,
    "amateur": 30,
    "ga": 91,
    "cfa": 6,
    "grand": 41,
    "##ao": 11,
    "greer": 1,
    "uta": 10,
    "##nx": 1,
    "henry": 11,
    "zoo": 13,
    "toronto": 27,
    "higgins": 2,
    "##nal": 33,
    "##sat": 22,
    "hm": 19,
    "##sun": 19,
    "##bh": 6,
    "##28": 34,
    "ui": 116,
    "services": 137,
    "##nh": 2,
    "##ead": 8,
    "lp": 22,
    "arizona": 18,
    "scale": 143,
    "heights": 5,
    "##tti": 11,
    "##roll": 3,
    "orion": 7,
    "##la": 69,
    "##rga": 11,
    "##ury": 6,
    "marko": 1,
    "##witz": 1,
    "##gate": 29,
    "mbe": 6,
    "##llon": 1,
    "##dur": 1,
    "mcc": 6,
    "phoenix": 8,
    "careers": 13,
    "mw": 27,
    "cm": 175,
    "nick": 6,
    "sussex": 7,
    "##aina": 3,
    "ai": 48,
    "panama": 1,
    "portal": 19,
    "comet": 18,
    "paul": 15,
    "##lase": 1,
    "##js": 28,
    "plato": 1,
    "uno": 37,
    "##mah": 5,
    "rd": 20,
    "coca": 4,
    "au": 172,
    "##ja": 21,
    "phil": 36,
    "##jun": 5,
    "##gc": 63,
    "roe": 5,
    "##lle": 6,
    "##hua": 8,
    "leonardo": 1,
    "skipper": 1,
    "photos": 28,
    "##pit": 19,
    "stephen": 3,
    "gp": 9,
    "stern": 6,
    "warp": 15,
    "##ook": 21,
    "maps": 50,
    "anderson": 3,
    "terry": 5,
    "typhoon": 1,
    "atm": 7,
    "harris": 5,
    "##ik": 26,
    "##ko": 9,
    "helsinki": 3,
    "##a1": 2,
    "##oro": 21,
    "##nto": 12,
    "##mba": 16,
    "##star": 21,
    "ames": 33,
    "memo": 11,
    "##riam": 2,
    "tongues": 15,
    "problematic": 14,
    "angels": 35,
    "misleading": 38,
    "angel": 16,
    "tongue": 18,
    "testament": 11,
    "disturbing": 26,
    "verification": 27,
    "circumstances": 88,
    "fabrication": 19,
    "linguistic": 8,
    "syllable": 2,
    "##fies": 18,
    "##fle": 9,
    "##ction": 58,
    "##wang": 2,
    "depend": 72,
    "automobile": 41,
    "difficulty": 48,
    "beam": 30,
    "730": 26,
    "##30": 146,
    "ing": 93,
    "##gra": 35,
    "1701": 2,
    "1700": 7,
    "##49": 14,
    "##86": 61,
    "numbered": 16,
    "responds": 23,
    "##ost": 68,
    "wai": 39,
    "##vis": 35,
    "prevalent": 9,
    "##har": 28,
    "##int": 76,
    "##eres": 7,
    "reinstated": 2,
    "8th": 28,
    "inspirational": 1,
    "finishing": 9,
    "clicked": 8,
    "voting": 34,
    "demonstrated": 49,
    "##making": 7,
    "passes": 41,
    "club": 118,
    "albeit": 21,
    "tremendous": 36,
    "killer": 20,
    "banner": 5,
    "bothered": 43,
    "groin": 9,
    "brighter": 14,
    "clouded": 3,
    "willingness": 13,
    "wonders": 13,
    "fore": 73,
    "##che": 45,
    "##cking": 6,
    "impress": 13,
    "dispersal": 11,
    "camp": 46,
    "contender": 4,
    "supplemental": 8,
    "##ffey": 2,
    "##imated": 4,
    "shy": 11,
    "tea": 39,
    "midway": 14,
    "indicative": 10,
    "tore": 20,
    "minors": 37,
    "chances": 84,
    "bait": 21,
    "##pressed": 27,
    "projecting": 4,
    "survive": 49,
    "enforce": 38,
    "patent": 57,
    "exemption": 7,
    "copyright": 90,
    "exempt": 25,
    "experiment": 66,
    "detected": 23,
    "sued": 19,
    "eve": 13,
    "farewell": 1,
    "cleanup": 7,
    "belongings": 4,
    "flattened": 2,
    "paper": 235,
    "useless": 71,
    "unsure": 9,
    "sentence": 110,
    "targets": 52,
    "victim": 62,
    "atrocities": 37,
    "chiefly": 2,
    "winger": 18,
    "##worthy": 28,
    "predicted": 37,
    "suggests": 66,
    "intervene": 20,
    "##lov": 16,
    "##lu": 105,
    "880": 13,
    "##tics": 28,
    "receiver": 62,
    "carrier": 23,
    "chase": 24,
    "##rift": 3,
    "module": 81,
    "##balance": 17,
    "provision": 18,
    "##yr": 30,
    "separation": 47,
    "contamination": 13,
    "lid": 14,
    "mirror": 76,
    "tug": 3,
    "costing": 16,
    "cancelled": 11,
    "rifle": 33,
    "rare": 65,
    "magnum": 6,
    "##vie": 19,
    "bullets": 31,
    "whites": 54,
    "pet": 23,
    "##hc": 21,
    "connects": 20,
    "descending": 6,
    "mobility": 6,
    "rotten": 7,
    "factors": 89,
    "excel": 12,
    "dome": 3,
    "comfortably": 3,
    "football": 30,
    "snow": 73,
    "hurdles": 1,
    "##flight": 7,
    "regulars": 12,
    "##upt": 21,
    "mr": 20,
    "##kis": 3,
    "honourable": 2,
    "europeans": 4,
    "corrupt": 41,
    "pity": 17,
    "makers": 25,
    "recognizing": 13,
    "blocked": 16,
    "facilitate": 16,
    "underway": 16,
    "reuters": 1,
    "lengthy": 24,
    "reunite": 2,
    "978": 9,
    "1659": 2,
    "wong": 2,
    "pic": 39,
    "ee": 88,
    "downloaded": 28,
    "activate": 7,
    "segments": 30,
    "rao": 7,
    "maintains": 26,
    "1948": 35,
    "cease": 29,
    "shrines": 1,
    "violated": 34,
    "##do": 62,
    "##nes": 9,
    "fitness": 1,
    "centered": 10,
    "##gram": 38,
    "spite": 29,
    "estimates": 32,
    "optimistic": 11,
    "airline": 15,
    "attract": 11,
    "captures": 6,
    "##naire": 11,
    "deaf": 15,
    "pleased": 32,
    "inquiry": 26,
    "educated": 28,
    "teacher": 38,
    "posse": 8,
    "musical": 11,
    "creativity": 6,
    "musician": 4,
    "performer": 5,
    "loud": 48,
    "folk": 25,
    "songs": 8,
    "commandant": 3,
    "surge": 13,
    "damaging": 19,
    "cents": 18,
    "contemplating": 5,
    "placing": 20,
    "trash": 56,
    "stating": 52,
    "vertically": 6,
    "shaking": 8,
    "rocking": 3,
    "chair": 30,
    "guessing": 30,
    "pots": 7,
    "ignorant": 75,
    "commit": 77,
    "circles": 19,
    "##ifies": 29,
    "##bert": 9,
    "##erian": 5,
    "##rac": 53,
    "adjustment": 18,
    "adjustments": 23,
    "dear": 42,
    "camping": 11,
    "relieve": 22,
    "mastering": 15,
    "explicitly": 75,
    "slave": 76,
    "synonymous": 10,
    "expanded": 34,
    "scenario": 35,
    "grant": 100,
    "communicate": 30,
    "infinitely": 17,
    "deity": 45,
    "##hm": 35,
    "##uck": 15,
    "##cta": 53,
    "hides": 5,
    "observes": 1,
    "observed": 44,
    "mutually": 12,
    "concluding": 6,
    "absent": 20,
    "accountable": 14,
    "eng": 29,
    "synthesis": 10,
    "simultaneous": 13,
    "voices": 21,
    "tim": 16,
    "experimenting": 9,
    "adding": 66,
    "pouch": 8,
    "slides": 15,
    "##how": 13,
    "manipulate": 25,
    "mixer": 23,
    "enhance": 30,
    "sharpe": 13,
    "dub": 7,
    "##bing": 20,
    "##cor": 26,
    "unreliable": 11,
    "erratic": 5,
    "usage": 114,
    "cracked": 18,
    "pressures": 10,
    "recommended": 88,
    "psi": 11,
    "inner": 48,
    "##tub": 4,
    "sizes": 31,
    "metric": 20,
    "matching": 23,
    "lasting": 17,
    "predictable": 5,
    "rim": 13,
    "##wall": 18,
    "##vn": 14,
    "winds": 18,
    "##creen": 6,
    "##bar": 86,
    "restore": 40,
    "representation": 23,
    "bureau": 30,
    "regulator": 15,
    "duties": 23,
    "legislative": 26,
    "borders": 55,
    "##wer": 31,
    "boat": 20,
    "converts": 21,
    "contraction": 2,
    "uniform": 54,
    "stretching": 12,
    "contracting": 3,
    "uniformly": 13,
    "rotating": 19,
    "treating": 33,
    "distorted": 22,
    "projection": 18,
    "bump": 11,
    "3d": 50,
    "treatments": 31,
    "custom": 93,
    "##wire": 12,
    "sequences": 45,
    "##ifier": 25,
    "pressed": 34,
    "comfortable": 50,
    "##nging": 4,
    "##aks": 5,
    "tt": 36,
    "chunk": 17,
    "hail": 6,
    "donations": 9,
    "ideological": 18,
    "fathers": 24,
    "passion": 6,
    "constructing": 10,
    "museums": 8,
    "collections": 16,
    "educate": 17,
    "supremacy": 6,
    "skeletons": 3,
    "1942": 10,
    "520": 24,
    "anthropological": 2,
    "researches": 2,
    "prisoners": 29,
    "execution": 35,
    "1944": 14,
    "spectacle": 1,
    "libertarian": 65,
    "ideals": 15,
    "combat": 31,
    "##du": 113,
    "theo": 24,
    "##riz": 7,
    "invaded": 22,
    "utopia": 10,
    "dreams": 22,
    "confronted": 17,
    "proving": 20,
    "##ress": 107,
    "binary": 79,
    "largest": 49,
    "realized": 74,
    "##bble": 26,
    "tiles": 4,
    "spelled": 16,
    "monkey": 11,
    "moments": 24,
    "consulting": 18,
    "dir": 33,
    "##fs": 38,
    "spreads": 20,
    "##hee": 25,
    "mercy": 31,
    "##zing": 47,
    "rejected": 49,
    "1967": 42,
    "##af": 22,
    "forbidden": 13,
    "taxis": 1,
    "yellow": 33,
    "arrows": 5,
    "torn": 27,
    "arrow": 19,
    "##eger": 2,
    "##tries": 3,
    "sai": 5,
    "knights": 1,
    "meet": 136,
    "tournaments": 2,
    "distinctive": 7,
    "ringing": 9,
    "unpublished": 6,
    "picks": 25,
    "##ema": 7,
    "##rke": 7,
    "##ters": 87,
    "meaningless": 42,
    "##xi": 37,
    "##cating": 2,
    "closest": 34,
    "infectious": 17,
    "floats": 1,
    "##ists": 164,
    "emptiness": 1,
    "seek": 79,
    "oneself": 21,
    "interpreted": 47,
    "mv": 20,
    "polar": 27,
    "##ods": 5,
    "operational": 30,
    "families": 65,
    "flown": 13,
    "##isk": 8,
    "580": 21,
    "050": 15,
    "700": 133,
    "670": 11,
    "760": 7,
    "780": 8,
    "720": 26,
    "430": 20,
    "365": 15,
    "525": 21,
    "##km": 29,
    "330": 25,
    "620": 19,
    "##ptic": 6,
    "##ision": 10,
    "##cript": 77,
    "##ica": 41,
    "homes": 68,
    "jet": 24,
    "pei": 8,
    "specifications": 35,
    "##dp": 35,
    "processed": 28,
    "impatient": 2,
    "rendered": 24,
    "demo": 96,
    "insisting": 10,
    "grip": 27,
    "##name": 234,
    "highway": 43,
    "##anger": 10,
    "referred": 75,
    "obeyed": 11,
    "biography": 5,
    "occasions": 31,
    "##ulating": 17,
    "incidents": 17,
    "heroes": 7,
    "crunch": 18,
    "performing": 35,
    "lotus": 2,
    "motorsports": 1,
    "##pw": 15,
    "automotive": 23,
    "appearing": 23,
    "membership": 72,
    "administrative": 28,
    "ari": 15,
    "##osi": 14,
    "utah": 17,
    "bmw": 7,
    "##town": 12,
    "digest": 43,
    "british": 3,
    "##type": 17,
    "##vs": 7,
    "mons": 8,
    "##anto": 5,
    "boogie": 7,
    "bryan": 3,
    "pegasus": 1,
    "competition": 47,
    "vet": 11,
    "##mage": 18,
    "roads": 58,
    "stealth": 14,
    "##post": 48,
    "talon": 1,
    "ev": 26,
    "##mir": 4,
    "claremont": 9,
    "##achi": 9,
    "ford": 7,
    "pickup": 33,
    "italian": 2,
    "brown": 33,
    "rods": 11,
    "dixie": 2,
    "mazda": 2,
    "##ix": 50,
    "hc": 16,
    "mia": 3,
    "##kur": 1,
    "cas": 11,
    "##bah": 3,
    "nw": 15,
    "1973": 24,
    "mustang": 3,
    "fc": 8,
    "gt": 13,
    "gate": 48,
    "porsche": 5,
    "##phile": 9,
    "pd": 29,
    "##race": 7,
    "rally": 28,
    "cb": 34,
    "##lp": 28,
    "##hs": 17,
    "##pus": 19,
    "saturn": 5,
    "pen": 85,
    "vic": 6,
    "toyota": 6,
    "##ack": 59,
    "swedish": 6,
    "##brick": 1,
    "rochester": 6,
    "wanna": 33,
    "##bes": 6,
    "##tow": 2,
    "##ingdon": 1,
    "motif": 47,
    "##win": 34,
    "##the": 46,
    "##del": 11,
    "sprayed": 9,
    "bed": 75,
    "xi": 39,
    "liner": 19,
    "##ell": 15,
    "1720": 3,
    "bat": 69,
    "intentional": 26,
    "relied": 8,
    "failures": 25,
    "hints": 67,
    "slowed": 12,
    "germans": 6,
    "descended": 8,
    "swept": 16,
    "similarity": 14,
    "747": 11,
    "aerodynamic": 10,
    "##lets": 9,
    "70s": 20,
    "aircraft": 69,
    "ours": 39,
    "supportive": 16,
    "##nai": 2,
    "confident": 27,
    "habit": 35,
    "acquiring": 12,
    "pilots": 24,
    "fold": 23,
    "##bie": 28,
    "##vira": 2,
    "trio": 3,
    "duo": 7,
    "reputation": 33,
    "90s": 4,
    "instability": 5,
    "sonic": 4,
    "convincing": 45,
    "##non": 8,
    "##sonic": 6,
    "##wave": 17,
    "produced": 120,
    "ff": 23,
    "##rit": 38,
    "##be": 77,
    "##43": 33,
    "proud": 46,
    "imperfect": 18,
    "liable": 16,
    "##ente": 6,
    "bare": 40,
    "palm": 14,
    "reign": 15,
    "##tee": 68,
    "transition": 23,
    "kicking": 28,
    "heels": 5,
    "##wee": 11,
    "##aa": 21,
    "##ay": 28,
    "rusty": 5,
    "penn": 6,
    "insult": 32,
    "devotion": 12,
    "almighty": 6,
    "stat": 130,
    "publishes": 18,
    "quan": 61,
    "##fia": 18,
    "situations": 81,
    "matched": 20,
    "altogether": 41,
    "trumpet": 9,
    "gibson": 4,
    "##bc": 30,
    "##athi": 14,
    "##oz": 9,
    "##opsis": 3,
    "chick": 1,
    "cock": 7,
    "1968": 53,
    "swapped": 8,
    "entering": 60,
    "appoint": 11,
    "##cos": 32,
    "##orestation": 4,
    "redwood": 5,
    "applying": 29,
    "distinct": 20,
    "##ums": 22,
    "##cial": 27,
    "##kind": 16,
    "defeated": 44,
    "interfered": 9,
    "temporarily": 23,
    "circumstance": 16,
    "##lica": 15,
    "frustrated": 9,
    "willingly": 10,
    "redemption": 10,
    "utterly": 33,
    "triumphant": 3,
    "overcoming": 1,
    "enabling": 8,
    "expecting": 32,
    "proven": 99,
    "whatsoever": 49,
    "prefix": 20,
    "brains": 32,
    "humor": 39,
    "faults": 8,
    "##let": 21,
    "smoke": 132,
    "conflicting": 16,
    "consistency": 12,
    "ina": 71,
    "cone": 13,
    "admitting": 19,
    "adhere": 10,
    "##ogical": 10,
    "dog": 152,
    "ripped": 18,
    "##wt": 9,
    "pri": 33,
    "##vil": 3,
    "##ages": 8,
    "turkey": 8,
    "invisible": 26,
    "unicorn": 18,
    "shutter": 8,
    "shin": 6,
    "##gles": 5,
    "antibiotics": 20,
    "oral": 31,
    "antique": 5,
    "upright": 11,
    "pianos": 1,
    "haul": 12,
    "tuning": 16,
    "county": 16,
    "lengths": 10,
    "rumbling": 1,
    "restrain": 11,
    "rolls": 8,
    "bends": 4,
    "invites": 5,
    "reno": 18,
    "##unce": 16,
    "##bit": 131,
    "mask": 83,
    "skyline": 1,
    "bees": 5,
    "sharp": 40,
    "##kell": 19,
    "sas": 31,
    "cried": 19,
    "wolf": 2,
    "eighties": 8,
    "adult": 59,
    "comic": 22,
    "winning": 106,
    "coloured": 6,
    "paint": 72,
    "hacked": 13,
    "lovers": 8,
    "romantic": 10,
    "werewolf": 1,
    "##azi": 9,
    "chopped": 8,
    "discontinued": 5,
    "tale": 16,
    "easiest": 25,
    "eccentric": 7,
    "occurred": 82,
    "recurring": 6,
    "medication": 23,
    "chat": 9,
    "nervous": 20,
    "##ttered": 2,
    "medications": 11,
    "rap": 27,
    "insulting": 15,
    "resented": 1,
    "implication": 34,
    "apology": 12,
    "mistakenly": 10,
    "manage": 51,
    "##xie": 4,
    "##tou": 8,
    "overly": 24,
    "tough": 94,
    "marijuana": 22,
    "##ude": 40,
    "expresses": 7,
    "451": 14,
    "wills": 9,
    "energies": 7,
    "council": 18,
    "profits": 15,
    "rip": 27,
    "hydra": 2,
    "initiate": 7,
    "##enting": 10,
    "rams": 3,
    "throat": 23,
    "reveals": 15,
    "contempt": 11,
    "disclosure": 27,
    "accountability": 10,
    "howling": 10,
    "louder": 11,
    "weekly": 46,
    "rabbis": 4,
    "rebuild": 18,
    "furnishings": 2,
    "preparation": 20,
    "##nish": 11,
    "rebuilt": 21,
    "temple": 57,
    "striking": 14,
    "awaiting": 17,
    "startling": 7,
    "archeological": 2,
    "discovery": 24,
    "##ied": 32,
    "mosque": 17,
    "rebuilding": 11,
    "spark": 16,
    "##uming": 2,
    "sacrifices": 20,
    "sisters": 19,
    "batteries": 46,
    "darryl": 5,
    "tx": 38,
    "1540": 6,
    "tips": 35,
    "freely": 63,
    "reprinted": 9,
    "profit": 82,
    "ter": 26,
    "descriptions": 41,
    "##27": 32,
    "automatically": 94,
    "speeding": 28,
    "managers": 45,
    "enabled": 18,
    "estimated": 35,
    "unbelievable": 12,
    "horribly": 10,
    "countless": 11,
    "occupies": 6,
    "occasionally": 36,
    "restart": 22,
    "exiting": 10,
    "corrupted": 29,
    "vice": 75,
    "versa": 32,
    "changing": 118,
    "marginal": 31,
    "mentioning": 25,
    "stops": 58,
    "encounter": 34,
    "adjust": 44,
    "needles": 29,
    "wear": 76,
    "transferred": 25,
    "hog": 18,
    "transferring": 15,
    "##ds": 59,
    "lowered": 9,
    "archie": 43,
    "##cs": 70,
    "crashed": 20,
    "downwards": 5,
    "intentionally": 31,
    "combinations": 21,
    "starving": 2,
    "extract": 38,
    "##orted": 19,
    "disabled": 37,
    "##iva": 48,
    "fidelity": 7,
    "sampling": 37,
    "fragmentation": 3,
    "verified": 21,
    "parameter": 42,
    "mentions": 25,
    "gig": 12,
    "##aby": 8,
    "interfaces": 40,
    "##hand": 69,
    "configurations": 17,
    "##tel": 37,
    "##41": 36,
    "dev": 76,
    "##si": 103,
    "ordered": 108,
    "##tracted": 2,
    "##scu": 24,
    "drastically": 14,
    "film": 72,
    "films": 12,
    "ache": 12,
    "databases": 44,
    "simulator": 14,
    "notices": 10,
    "stepping": 12,
    "scene": 34,
    "contiguous": 7,
    "simpler": 28,
    "distracted": 5,
    "focusing": 17,
    "priority": 34,
    "fundamentally": 14,
    "texture": 18,
    "crawling": 2,
    "jagged": 4,
    "edges": 46,
    "distraction": 10,
    "immersed": 1,
    "libraries": 95,
    "developer": 23,
    "##atter": 5,
    "confined": 13,
    "randy": 10,
    "##tek": 9,
    "drink": 61,
    "##grad": 20,
    "breath": 48,
    "replaces": 15,
    "chunks": 10,
    "forbid": 33,
    "quit": 52,
    "hurling": 1,
    "##path": 27,
    "preferring": 2,
    "##tium": 5,
    "dash": 30,
    "funny": 77,
    "disadvantage": 22,
    "undercover": 7,
    "menacing": 3,
    "##neer": 7,
    "tun": 1,
    "bumper": 31,
    "gap": 16,
    "drunk": 32,
    "endemic": 11,
    "vulnerable": 28,
    "witnessed": 28,
    "participants": 40,
    "restrictive": 14,
    "##pon": 52,
    "wishes": 36,
    "##thing": 6,
    "shifting": 22,
    "wagon": 20,
    "concentrate": 33,
    "radios": 36,
    "##hearted": 10,
    "envy": 8,
    "handing": 19,
    "outlets": 64,
    "##ogan": 20,
    "##print": 123,
    "drawings": 12,
    "modify": 74,
    "analyze": 24,
    "scooped": 1,
    "##lved": 2,
    "extensive": 56,
    "sparked": 3,
    "pluto": 22,
    "##nium": 14,
    "scenarios": 8,
    "explosion": 27,
    "##plane": 12,
    "##tary": 8,
    "##cit": 27,
    "landed": 22,
    "intact": 26,
    "##enter": 4,
    "jett": 7,
    "##ison": 7,
    "corrosion": 7,
    "resistant": 25,
    "870": 12,
    "pursue": 29,
    "1987": 80,
    "reviews": 34,
    "1977": 43,
    "##35": 50,
    "remainder": 25,
    "modelling": 9,
    "organized": 113,
    "##pher": 62,
    "kilograms": 8,
    "assumes": 47,
    "variability": 5,
    "volcanic": 2,
    "influence": 55,
    "decrease": 21,
    "globally": 6,
    "averaged": 8,
    "##gli": 30,
    "##gible": 13,
    "halo": 11,
    "1858": 1,
    "1859": 1,
    "lungs": 19,
    "scuba": 1,
    "divers": 1,
    "ascending": 1,
    "##drum": 1,
    "tubes": 34,
    "explode": 14,
    "freeze": 23,
    "instantly": 10,
    "consciousness": 33,
    "##burn": 6,
    "swelling": 14,
    "underlying": 31,
    "tissue": 33,
    "oxygen": 20,
    "accumulate": 10,
    "limits": 78,
    "329": 19,
    "eds": 10,
    "buried": 37,
    "cargo": 7,
    "sensible": 22,
    "vicinity": 18,
    "specialized": 18,
    "##cise": 33,
    "humanoid": 1,
    "imagery": 16,
    "appearance": 58,
    "western": 63,
    "championed": 2,
    "artificial": 38,
    "##rest": 33,
    "##rial": 15,
    "civilization": 23,
    "##cede": 31,
    "resemblance": 5,
    "smiley": 21,
    "faced": 24,
    "lava": 5,
    "meantime": 22,
    "alt": 220,
    "alien": 26,
    "visitors": 5,
    "interdisciplinary": 2,
    "speculative": 9,
    "formations": 1,
    "1926": 16,
    "1933": 15,
    "fra": 47,
    "##mat": 35,
    "##urity": 6,
    "##top": 17,
    "##hil": 31,
    "##ates": 25,
    "norm": 17,
    "venture": 28,
    "##ffen": 2,
    "viewpoint": 47,
    "semitic": 15,
    "1930": 8,
    "militant": 7,
    "practiced": 23,
    "contributing": 18,
    "exodus": 8,
    "frightened": 9,
    "feared": 21,
    "piss": 15,
    "controlled": 111,
    "density": 39,
    "relating": 31,
    "motive": 16,
    "conserve": 7,
    "periodic": 9,
    "additions": 22,
    "##lga": 6,
    "##rd": 68,
    "javelin": 3,
    "museum": 16,
    "consensus": 37,
    "creative": 45,
    "##meric": 23,
    "lightning": 14,
    "rod": 19,
    "subtle": 35,
    "##lge": 12,
    "shares": 16,
    "bone": 42,
    "##heads": 9,
    "##nie": 10,
    "sur": 56,
    "##mounted": 1,
    "pinnacle": 3,
    "grove": 6,
    "pac": 14,
    "lang": 20,
    "##uis": 31,
    "queue": 13,
    "gasp": 7,
    "horrors": 8,
    "employers": 14,
    "##eno": 12,
    "##min": 43,
    "##ota": 12,
    "##rize": 4,
    "##athic": 5,
    "biker": 34,
    "beverages": 2,
    "fluids": 55,
    "##kla": 8,
    "##vah": 2,
    "bala": 2,
    "##ava": 7,
    "helmets": 12,
    "fog": 13,
    "spine": 30,
    "bird": 21,
    "deer": 16,
    "whistle": 11,
    "restaurants": 20,
    "racing": 24,
    "personalities": 8,
    "##dre": 10,
    "friendship": 15,
    "centers": 59,
    "university": 63,
    "wreck": 20,
    "posters": 59,
    "##odies": 2,
    "poke": 4,
    "stereotypes": 3,
    "enthusiast": 7,
    "designated": 31,
    "retro": 13,
    "##active": 19,
    "meetings": 36,
    "appealed": 8,
    "issuing": 7,
    "pins": 78,
    "donated": 9,
    "plaque": 9,
    "hangs": 28,
    "concentrations": 8,
    "barbecue": 9,
    "homecoming": 2,
    "conjunction": 10,
    "heritage": 20,
    "hub": 19,
    "##wl": 24,
    "pathways": 4,
    "wheeled": 4,
    "##ara": 8,
    "spirits": 5,
    "motto": 30,
    "insults": 13,
    "##ttal": 10,
    "clad": 8,
    "describing": 51,
    "inevitably": 25,
    "dump": 40,
    "steep": 16,
    "mystic": 7,
    "philosophers": 9,
    "locker": 12,
    "rooms": 23,
    "bays": 9,
    "halls": 6,
    "##ade": 5,
    "eternity": 29,
    "halt": 19,
    "topological": 2,
    "route": 56,
    "wished": 10,
    "wishing": 8,
    "##wart": 7,
    "##hit": 19,
    "amusement": 8,
    "##nies": 16,
    "signing": 40,
    "vision": 59,
    "yearning": 2,
    "##lt": 45,
    "##rds": 8,
    "socks": 8,
    "sneakers": 1,
    "awesome": 18,
    "ratios": 9,
    "##hes": 27,
    "volunteers": 23,
    "organize": 17,
    "albums": 3,
    "circulating": 10,
    "san": 22,
    "races": 24,
    "poker": 3,
    "participant": 6,
    "collects": 6,
    "daemon": 9,
    "##uh": 2,
    "mud": 20,
    "alike": 32,
    "##tort": 16,
    "guilt": 34,
    "hero": 17,
    "##lling": 11,
    "virtues": 10,
    "cane": 5,
    "##ka": 13,
    "reinforcements": 1,
    "gag": 12,
    "coaster": 3,
    "pere": 4,
    "##nia": 34,
    "yer": 15,
    "ain": 36,
    "##umi": 21,
    "##can": 24,
    "##hort": 5,
    "infamous": 16,
    "stir": 9,
    "##rup": 22,
    "ventral": 2,
    "chewing": 20,
    "gum": 15,
    "rider": 50,
    "zoom": 36,
    "dorsal": 1,
    "robot": 5,
    "transformers": 12,
    "rigged": 6,
    "roar": 8,
    "disciple": 15,
    "thunder": 9,
    "nothin": 1,
    "song": 30,
    "thrill": 7,
    "skies": 11,
    "roared": 1,
    "boomed": 1,
    "doomed": 9,
    "childish": 12,
    "aired": 8,
    "viewer": 63,
    "discretion": 12,
    "advised": 22,
    "sterile": 5,
    "mechanical": 45,
    "pencil": 10,
    "referring": 60,
    "cow": 11,
    "towing": 5,
    "##him": 10,
    "##sir": 2,
    "nos": 19,
    "sir": 16,
    "builds": 10,
    "deepest": 3,
    "valleys": 5,
    "##uts": 12,
    "terror": 30,
    "ladies": 14,
    "leather": 48,
    "jacket": 44,
    "fringe": 16,
    "assaulted": 5,
    "##rong": 1,
    "shower": 12,
    "nails": 9,
    "leaking": 9,
    "##mac": 24,
    "tenor": 7,
    "ry": 3,
    "eats": 15,
    "refrain": 26,
    "ck": 7,
    "bra": 24,
    "mama": 3,
    "joke": 73,
    "##ples": 4,
    "rose": 28,
    "occasion": 16,
    "replied": 56,
    "theme": 28,
    "##form": 49,
    "contributions": 49,
    "organizing": 9,
    "album": 7,
    "tours": 11,
    "vanish": 10,
    "locations": 37,
    "##wk": 7,
    "excerpts": 19,
    "##tos": 15,
    "dod": 12,
    "bruce": 14,
    "tanner": 3,
    "##cards": 2,
    "labeled": 23,
    "creations": 3,
    "consumed": 15,
    "doo": 7,
    "##dad": 5,
    "decides": 34,
    "filling": 21,
    "anarchy": 8,
    "merchandise": 11,
    "license": 159,
    "shirts": 10,
    "polo": 5,
    "buckle": 6,
    "magnus": 6,
    "ohio": 33,
    "gratitude": 5,
    "donation": 7,
    "##feld": 5,
    "governing": 13,
    "maintained": 62,
    "bob": 34,
    "pak": 2,
    "loki": 4,
    "accessory": 9,
    "excerpt": 9,
    "##val": 31,
    "gems": 6,
    "valued": 10,
    "mcgill": 24,
    "rm": 38,
    "##ain": 8,
    "template": 15,
    "script": 71,
    "tends": 67,
    "tunnel": 6,
    "dirt": 45,
    "monster": 11,
    "strokes": 8,
    "staged": 20,
    "gathers": 3,
    "blaine": 1,
    "assumed": 73,
    "virgin": 17,
    "spouse": 13,
    "girl": 44,
    "deemed": 13,
    "subjects": 60,
    "##han": 28,
    "appalachian": 1,
    "mountains": 51,
    "1800": 12,
    "1820": 3,
    "central": 62,
    "whaling": 5,
    "coincidentally": 3,
    "minerals": 7,
    "rene": 4,
    "transcript": 14,
    "recruitment": 6,
    "deported": 8,
    "kidnapping": 3,
    "refugee": 5,
    "1964": 40,
    "clerk": 4,
    "dedicated": 50,
    "jihad": 1,
    "collaborate": 5,
    "enemy": 42,
    "prey": 21,
    "cunning": 2,
    "traps": 18,
    "enemies": 39,
    "##lite": 8,
    "##rate": 32,
    "plague": 10,
    "collaboration": 30,
    "collaborators": 23,
    "##date": 27,
    "##rogate": 9,
    "lure": 6,
    "confront": 7,
    "executing": 16,
    "collaborator": 16,
    "tricked": 2,
    "##dee": 2,
    "recruited": 4,
    "imperative": 10,
    "##some": 13,
    "trap": 55,
    "blackmail": 7,
    "##qa": 5,
    "demons": 19,
    "narcotics": 2,
    "distribute": 30,
    "unbearable": 3,
    "battalions": 6,
    "seize": 14,
    "##nished": 2,
    "interrogation": 13,
    "accuse": 31,
    "##claim": 21,
    "innocence": 12,
    "ir": 96,
    "denies": 28,
    "sincere": 22,
    "confessed": 9,
    "disclosed": 13,
    "executions": 5,
    "##rogated": 4,
    "confesses": 2,
    "complied": 4,
    "hundreds": 99,
    "strangled": 4,
    "restaurant": 25,
    "tables": 45,
    "##ulous": 20,
    "squeak": 6,
    "buck": 22,
    "inflated": 22,
    "profession": 13,
    "##oting": 5,
    "reckless": 15,
    "controversial": 16,
    "magical": 16,
    "sole": 51,
    "##fus": 92,
    "##nate": 24,
    "##omp": 84,
    "##ncy": 32,
    "med": 106,
    "anal": 48,
    "psychotic": 4,
    "yeast": 59,
    "engaged": 45,
    "lac": 5,
    "##tose": 6,
    "begged": 5,
    "##ller": 24,
    "aug": 10,
    "ia": 32,
    "israel": 14,
    "diverted": 4,
    "lebanon": 1,
    "quarrel": 11,
    "gently": 10,
    "captive": 2,
    "disgrace": 7,
    "questioning": 22,
    "mothers": 21,
    "##rip": 16,
    "tu": 46,
    "##rained": 4,
    "endeavor": 8,
    "##ul": 54,
    "pleasant": 17,
    "gloss": 7,
    "mystery": 48,
    "truths": 46,
    "wrath": 12,
    "mythical": 9,
    "jazz": 7,
    "honesty": 18,
    "##sum": 34,
    "##ption": 60,
    "seeking": 45,
    "knocks": 5,
    "opens": 20,
    "folly": 6,
    "glance": 10,
    "absurd": 50,
    "comprehension": 1,
    "thirsty": 8,
    "glory": 38,
    "kings": 13,
    "draws": 19,
    "##ever": 22,
    "mocked": 2,
    "pleasure": 25,
    "##oning": 10,
    "celebrated": 5,
    "cynical": 11,
    "apostle": 11,
    "weighed": 9,
    "##ana": 32,
    "##tin": 20,
    "##bara": 16,
    "##hp": 17,
    "quicker": 17,
    "indiana": 53,
    "##ui": 12,
    "nic": 36,
    "attractive": 23,
    "studio": 11,
    "##rrow": 6,
    "##bi": 30,
    "slip": 32,
    "telling": 141,
    "ascended": 4,
    "##\u00b9": 4,
    "baptized": 10,
    "overlooked": 11,
    "verses": 57,
    "crucial": 32,
    "hideous": 8,
    "polling": 6,
    "##peed": 4,
    "##lem": 6,
    "##rove": 27,
    "eliminated": 32,
    "##rar": 16,
    "##ena": 23,
    "benz": 10,
    "knuckles": 5,
    "curves": 11,
    "surprising": 40,
    "mp": 54,
    "civic": 4,
    "markedly": 6,
    "diesel": 17,
    "gasoline": 41,
    "honda": 2,
    "accord": 17,
    "smell": 22,
    "##iest": 10,
    "offenders": 8,
    "sometime": 49,
    "##ras": 26,
    "classify": 8,
    "pioneers": 4,
    "attacks": 165,
    "##tr": 44,
    "##uth": 11,
    "backpack": 7,
    "sleeping": 20,
    "convenience": 31,
    "accidents": 50,
    "italy": 1,
    "capita": 11,
    "debt": 34,
    "perceive": 19,
    "election": 38,
    "##zia": 4,
    "referendum": 11,
    "emerge": 22,
    "dominate": 12,
    "dei": 12,
    "electoral": 1,
    "##hiff": 4,
    "secretly": 12,
    "modular": 16,
    "battered": 6,
    "killings": 18,
    "honestly": 37,
    "qui": 22,
    "attacker": 26,
    "confuse": 34,
    "detectors": 45,
    "locate": 36,
    "detector": 75,
    "thin": 40,
    "##ulus": 8,
    "intersecting": 7,
    "vo": 55,
    "determination": 22,
    "sighting": 5,
    "absorption": 9,
    "crystal": 32,
    "afi": 10,
    "##eld": 19,
    "popping": 11,
    "mainland": 10,
    "##ony": 115,
    "sadly": 13,
    "mistaken": 43,
    "duly": 5,
    "lecture": 16,
    "##ologist": 16,
    "breakup": 8,
    "shops": 17,
    "happier": 13,
    "tended": 22,
    "geese": 7,
    "##ening": 15,
    "trickle": 11,
    "piled": 3,
    "stark": 4,
    "foothills": 1,
    "##llie": 8,
    "january": 1,
    "predicting": 12,
    "grim": 5,
    "resignation": 4,
    "helicopter": 31,
    "##rrie": 2,
    "ducks": 4,
    "outlying": 1,
    "villages": 139,
    "spoken": 47,
    "az": 13,
    "defenders": 14,
    "slaughter": 57,
    "crying": 30,
    "filmed": 6,
    "##izzly": 2,
    "trail": 11,
    "forested": 2,
    "villagers": 8,
    "refuge": 21,
    "##nel": 22,
    "wandered": 3,
    "corridors": 1,
    "vent": 35,
    "fury": 3,
    "foreigners": 3,
    "##ooped": 5,
    "hills": 13,
    "scattered": 19,
    "afterwards": 25,
    "seized": 28,
    "frozen": 15,
    "squat": 10,
    "thump": 5,
    "underside": 3,
    "starboard": 2,
    "rocked": 3,
    "swung": 8,
    "deafening": 1,
    "cannon": 10,
    "tipped": 9,
    "dive": 10,
    "##tour": 24,
    "blasts": 4,
    "emerged": 10,
    "escorting": 1,
    "enclave": 11,
    "cannons": 7,
    "embarked": 2,
    "rescue": 18,
    "consisted": 17,
    "helicopters": 15,
    "nicknamed": 3,
    "crocodile": 2,
    "covering": 51,
    "##gration": 7,
    "airfield": 2,
    "heated": 9,
    "hillside": 5,
    "gunners": 6,
    "hill": 24,
    "gazed": 1,
    "limbs": 5,
    "mort": 6,
    "tragedy": 35,
    "shave": 5,
    "continents": 2,
    "1945": 9,
    "brethren": 14,
    "sentiments": 8,
    "##inging": 7,
    "##wn": 17,
    "uncommon": 17,
    "regarded": 39,
    "revolutionary": 20,
    "surgical": 12,
    "extracts": 4,
    "dated": 23,
    "journal": 33,
    "neighbors": 117,
    "remotely": 21,
    "havoc": 7,
    "proponents": 14,
    "1957": 5,
    "##virus": 9,
    "##rag": 24,
    "##iza": 6,
    "hurts": 26,
    "naive": 34,
    "firmly": 34,
    "attributes": 35,
    "unsigned": 20,
    "##mas": 28,
    "zero": 82,
    "height": 98,
    "vin": 26,
    "tad": 17,
    "accurately": 21,
    "basin": 12,
    "##sie": 4,
    "acting": 52,
    "jason": 10,
    "##nding": 6,
    "##stan": 38,
    "flawed": 22,
    "christianity": 22,
    "elephants": 3,
    "dance": 15,
    "fairy": 4,
    "##resses": 7,
    "ambitious": 8,
    "travers": 5,
    "##class": 20,
    "scroll": 34,
    "##ela": 10,
    "cpu": 26,
    "##ration": 37,
    "##trip": 8,
    "arrives": 12,
    "rags": 6,
    "bum": 11,
    "mach": 24,
    "##wash": 19,
    "##gent": 32,
    "john": 27,
    "electrical": 85,
    "cooking": 12,
    "masks": 22,
    "wholly": 14,
    "##oli": 18,
    "##gist": 19,
    "##sation": 1,
    "affair": 29,
    "senators": 21,
    "bomb": 85,
    "##arded": 5,
    "senator": 5,
    "##bill": 6,
    "stimulus": 58,
    "sworn": 8,
    "##ones": 24,
    "garner": 4,
    "hon": 23,
    "##arable": 6,
    "scenes": 24,
    "shade": 18,
    "shadows": 12,
    "reflections": 8,
    "environmental": 53,
    "advises": 2,
    "dripping": 5,
    "flexibility": 8,
    "insanity": 5,
    "dancing": 7,
    "##rting": 14,
    "guidelines": 77,
    "##words": 15,
    "##ders": 20,
    "administrator": 38,
    "spectator": 4,
    "encouraged": 45,
    "ownership": 59,
    "presumed": 12,
    "mar": 23,
    "##ques": 7,
    "avenue": 7,
    "gateway": 27,
    "modifying": 20,
    "peculiar": 13,
    "motorsport": 2,
    "misunderstood": 15,
    "chan": 14,
    "endless": 19,
    "wary": 16,
    "arts": 16,
    "##rek": 6,
    "partially": 28,
    "clapped": 2,
    "girlfriend": 33,
    "likes": 38,
    "1750": 3,
    "injection": 37,
    "pointless": 26,
    "reaches": 16,
    "parochial": 3,
    "canada": 10,
    "nj": 7,
    "##fy": 26,
    "assumptions": 61,
    "decidedly": 5,
    "lemon": 20,
    "admits": 11,
    "announcing": 13,
    "##xious": 15,
    "bald": 8,
    "stale": 4,
    "factual": 17,
    "protects": 18,
    "nationality": 21,
    "cab": 33,
    "whoa": 5,
    "deciding": 16,
    "cora": 7,
    "##phy": 27,
    "transmitting": 15,
    "certified": 17,
    "profiles": 6,
    "experimented": 4,
    "hamish": 2,
    "tenth": 21,
    "simulate": 17,
    "##nous": 12,
    "realizing": 13,
    "sockets": 41,
    "resistance": 89,
    "fancy": 54,
    "processors": 33,
    "painfully": 9,
    "democrat": 12,
    "riots": 24,
    "##night": 1,
    "trim": 34,
    "mercury": 2,
    "endowed": 7,
    "##nable": 22,
    "shortstop": 15,
    "seventy": 3,
    "forty": 25,
    "infection": 57,
    "substance": 73,
    "walled": 2,
    "drainage": 1,
    "noises": 8,
    "metal": 99,
    "layers": 18,
    "temperature": 83,
    "rises": 7,
    "seventh": 23,
    "ample": 12,
    "ounce": 13,
    "transient": 13,
    "autopsy": 3,
    "tremor": 5,
    "pal": 44,
    "##lid": 11,
    "##oto": 12,
    "dimensions": 31,
    "brakes": 56,
    "vomiting": 9,
    "poisoning": 11,
    "ingredient": 14,
    "condemning": 20,
    "ingredients": 14,
    "reacted": 10,
    "highlighted": 7,
    "##rite": 24,
    "disco": 38,
    "madness": 5,
    "engagement": 9,
    "elaborate": 27,
    "namely": 36,
    "meta": 35,
    "##physics": 8,
    "flourish": 8,
    "##ified": 55,
    "bog": 34,
    "resume": 18,
    "6th": 30,
    "305": 25,
    "desirable": 33,
    "modeling": 19,
    "declined": 22,
    "##gging": 24,
    "endured": 6,
    "recovering": 6,
    "contradiction": 80,
    "##tight": 5,
    "blank": 61,
    "stares": 1,
    "accounts": 82,
    "##dle": 8,
    "##unk": 12,
    "##ata": 15,
    "legitimacy": 7,
    "derive": 15,
    "tribe": 14,
    "rushing": 9,
    "##omo": 26,
    "gee": 22,
    "rank": 16,
    "27th": 16,
    "salary": 25,
    "designing": 36,
    "database": 115,
    "leak": 25,
    "audit": 10,
    "butt": 51,
    "presidential": 12,
    "nad": 17,
    "##lation": 13,
    "leaks": 15,
    "vt": 37,
    "stamp": 15,
    "##astic": 5,
    "measured": 43,
    "##most": 6,
    "##fusion": 20,
    "beings": 71,
    "doubts": 22,
    "convictions": 14,
    "legend": 16,
    "alarms": 14,
    "linguist": 6,
    "languages": 33,
    "shaggy": 1,
    "##fe": 39,
    "pagan": 46,
    "eggs": 37,
    "nowadays": 12,
    "rites": 12,
    "suburbs": 8,
    "prevention": 33,
    "alarmed": 5,
    "lehigh": 9,
    "hal": 33,
    "##jord": 1,
    "##phi": 61,
    "permit": 73,
    "licence": 24,
    "cary": 4,
    "aggressive": 30,
    "##ener": 15,
    "liver": 26,
    "historian": 13,
    "##ita": 49,
    "europe": 8,
    "masses": 31,
    "affects": 19,
    "candy": 9,
    "defence": 39,
    "##erated": 13,
    "##with": 12,
    "##ju": 34,
    "306": 22,
    "counterparts": 10,
    "gideon": 1,
    "declares": 6,
    "messiah": 34,
    "curse": 10,
    "##rel": 44,
    "speaks": 46,
    "tab": 55,
    "##acle": 24,
    "dwell": 6,
    "vile": 5,
    "despised": 7,
    "bribe": 10,
    "nee": 6,
    "##foot": 2,
    "milestone": 3,
    "reg": 33,
    "cassette": 22,
    "##lice": 15,
    "editing": 31,
    "lighted": 2,
    "##sw": 18,
    "##itch": 6,
    "prints": 28,
    "cue": 10,
    "brass": 12,
    "linen": 1,
    "cues": 1,
    "variables": 39,
    "##ert": 58,
    "##inal": 16,
    "allocation": 53,
    "manipulation": 56,
    "##cre": 46,
    "sigh": 14,
    "##hale": 6,
    "asthma": 12,
    "relief": 57,
    "ste": 63,
    "##roid": 7,
    "##oid": 13,
    "313": 31,
    "##33": 52,
    "441": 24,
    "invented": 40,
    "advertised": 21,
    "proposals": 41,
    "argued": 50,
    "##uously": 4,
    "proponent": 8,
    "publicity": 22,
    "independence": 29,
    "misses": 5,
    "inventions": 5,
    "nominate": 4,
    "helm": 2,
    "delegate": 5,
    "elections": 14,
    "celebrates": 3,
    "40th": 3,
    "anniversary": 15,
    "executive": 37,
    "overseas": 12,
    "chairman": 8,
    "sketches": 3,
    "##ees": 24,
    "tenure": 9,
    "colleges": 6,
    "universities": 29,
    "1954": 7,
    "1958": 23,
    "1963": 21,
    "founder": 16,
    "kevin": 10,
    "##bbled": 17,
    "##ane": 24,
    "##emy": 4,
    "sob": 6,
    "##ege": 25,
    "clause": 33,
    "owns": 34,
    "pillar": 3,
    "bleeding": 12,
    "##lok": 1,
    "rs": 53,
    "##fight": 7,
    "beacon": 11,
    "divide": 44,
    "behaviour": 58,
    "ib": 19,
    "autonomous": 5,
    "tyrant": 16,
    "##logies": 8,
    "earthly": 9,
    "earnings": 3,
    "purse": 6,
    "umpire": 20,
    "##ope": 3,
    "##xy": 2,
    "midst": 13,
    "motors": 32,
    "modulation": 17,
    "##mable": 26,
    "ceramic": 7,
    "minimum": 72,
    "tha": 16,
    "##tch": 19,
    "kawasaki": 3,
    "warmer": 3,
    "##oj": 2,
    "23rd": 3,
    "chicken": 17,
    "tomorrow": 80,
    "##rock": 12,
    "disliked": 4,
    "jing": 4,
    "casual": 24,
    "divisional": 11,
    "honour": 14,
    "additionally": 4,
    "builders": 5,
    "egg": 19,
    "unanimous": 4,
    "streak": 15,
    "pitchers": 37,
    "mantle": 5,
    "worries": 13,
    "##version": 15,
    "intelligence": 88,
    "pizza": 8,
    "compliment": 9,
    "symposium": 20,
    "sixth": 27,
    "scrolls": 8,
    "archaeological": 1,
    "artifacts": 8,
    "excavated": 1,
    "loan": 29,
    "1947": 12,
    "desert": 34,
    "scholarship": 14,
    "backgrounds": 12,
    "##spar": 14,
    "remarks": 70,
    "professor": 36,
    "emeritus": 3,
    "keynote": 2,
    "closing": 38,
    "picking": 35,
    "distinguished": 11,
    "preview": 40,
    "curator": 1,
    "shrine": 1,
    "associate": 18,
    "##vat": 3,
    "origins": 24,
    "1938": 10,
    "##mont": 10,
    "##hly": 9,
    "##week": 4,
    "english": 10,
    "##nig": 2,
    "clarkson": 9,
    "dj": 18,
    "##gp": 12,
    "##na": 56,
    "outta": 7,
    "##sr": 27,
    "mike": 30,
    "hopper": 8,
    "##alo": 11,
    "##lings": 6,
    "disgust": 9,
    "crushing": 2,
    "privy": 1,
    "babies": 27,
    "arch": 31,
    "##ivist": 17,
    "plot": 80,
    "privilege": 9,
    "lovely": 14,
    "ian": 10,
    "painting": 8,
    "canvas": 10,
    "diamonds": 1,
    "inclined": 24,
    "45th": 6,
    "##lb": 28,
    "stores": 43,
    "1974": 42,
    "democratic": 51,
    "concentration": 29,
    "vanished": 7,
    "releasing": 16,
    "clandestine": 2,
    "inception": 4,
    "imposed": 19,
    "anytime": 22,
    "mediated": 3,
    "politician": 11,
    "##ill": 26,
    "peoples": 31,
    "myth": 34,
    "custody": 11,
    "eta": 5,
    "governed": 13,
    "dude": 14,
    "tracks": 16,
    "cory": 4,
    "berkeley": 75,
    "##sio": 2,
    "ace": 18,
    "fantastic": 17,
    "dreamed": 6,
    "probable": 40,
    "hoax": 15,
    "resurrection": 67,
    "##acy": 66,
    "pottery": 1,
    "facing": 29,
    "flesh": 34,
    "knees": 15,
    "scream": 22,
    "agony": 6,
    "raw": 50,
    "malls": 6,
    "##ein": 6,
    "##utation": 19,
    "servers": 118,
    "##eed": 7,
    "puzzled": 6,
    "motions": 8,
    "drag": 75,
    "floating": 38,
    "##iso": 14,
    "adjusting": 13,
    "cod": 17,
    "shipped": 35,
    "mk": 62,
    "##bai": 9,
    "wheat": 14,
    "##esa": 5,
    "##rily": 27,
    "preached": 29,
    "##eve": 27,
    "translator": 11,
    "##guide": 7,
    "lifestyle": 27,
    "purely": 49,
    "coincide": 11,
    "nevertheless": 13,
    "delivery": 39,
    "dip": 31,
    "cans": 12,
    "spa": 44,
    "##ckle": 6,
    "mall": 25,
    "lumber": 5,
    "monsoon": 1,
    "nailed": 7,
    "bridge": 16,
    "abu": 14,
    "##tment": 8,
    "apartment": 156,
    "burger": 3,
    "fries": 3,
    "stuffed": 9,
    "##vd": 5,
    "vanilla": 12,
    "poll": 37,
    "asks": 51,
    "woke": 10,
    "remembrance": 3,
    "feast": 7,
    "meal": 27,
    "meals": 6,
    "##plify": 15,
    "wine": 17,
    "drift": 9,
    "racer": 4,
    "##boy": 5,
    "sticky": 11,
    "heal": 14,
    "horsepower": 18,
    "threads": 30,
    "broadcasts": 9,
    "ratings": 28,
    "fewer": 56,
    "affiliates": 2,
    "contributor": 9,
    "athlete": 3,
    "hurting": 11,
    "athletes": 8,
    "athletic": 4,
    "mb": 33,
    "##400": 19,
    "luigi": 4,
    "strongest": 13,
    "prevailing": 9,
    "irrelevant": 68,
    "averages": 13,
    "sooner": 31,
    "warmed": 6,
    "soap": 13,
    "bubble": 17,
    "charitable": 6,
    "platoon": 16,
    "valuable": 63,
    "##tering": 6,
    "logs": 9,
    "institutions": 32,
    "enterprise": 16,
    "fia": 11,
    "initials": 6,
    "translit": 2,
    "##ilo": 4,
    "ito": 4,
    "beast": 34,
    "##rey": 7,
    "lanes": 9,
    "asshole": 27,
    "fable": 6,
    "rr": 10,
    "thankful": 13,
    "prosecution": 24,
    "anticipating": 4,
    "shootout": 4,
    "erupted": 3,
    "sniper": 17,
    "induced": 17,
    "barrel": 33,
    "arrest": 46,
    "informant": 13,
    "indicted": 1,
    "proximity": 6,
    "confrontation": 15,
    "protests": 11,
    "courthouse": 9,
    "affiliate": 10,
    "footage": 14,
    "impromptu": 3,
    "neo": 26,
    "nazi": 10,
    "protest": 41,
    "##db": 27,
    "##its": 26,
    "flatly": 3,
    "volunteer": 31,
    "defendants": 9,
    "shoulders": 16,
    "##ount": 12,
    "monitored": 7,
    "blazing": 1,
    "peaks": 4,
    "subsequently": 14,
    "displaying": 41,
    "condo": 29,
    "begins": 58,
    "##tur": 22,
    "preceded": 11,
    "concluded": 51,
    "hasty": 5,
    "segment": 43,
    "dd": 28,
    "xp": 61,
    "forming": 19,
    "consortium": 8,
    "##mill": 14,
    "##mate": 23,
    "craft": 50,
    "designs": 45,
    "eliminate": 44,
    "canceled": 7,
    "japan": 1,
    "generals": 6,
    "detecting": 18,
    "framing": 5,
    "receipt": 11,
    "stayed": 48,
    "telecast": 13,
    "stink": 15,
    "underwear": 6,
    "prostitute": 7,
    "compelling": 16,
    "##rts": 3,
    "prostitutes": 5,
    "##mine": 16,
    "irrational": 30,
    "##hei": 196,
    "hammer": 40,
    "wrought": 5,
    "crows": 3,
    "elves": 2,
    "sway": 2,
    "boasted": 7,
    "reversed": 21,
    "mammal": 6,
    "blooded": 19,
    "mammals": 3,
    "primate": 9,
    "enduring": 7,
    "striped": 8,
    "constitution": 44,
    "prohibits": 14,
    "localities": 5,
    "rei": 25,
    "layout": 49,
    "peripheral": 24,
    "deposit": 22,
    "assigns": 3,
    "##ory": 25,
    "strained": 1,
    "favors": 5,
    "smells": 6,
    "redesigned": 6,
    "livelihood": 5,
    "trailer": 7,
    "lasts": 8,
    "loves": 32,
    "towers": 34,
    "kitchen": 23,
    "thicker": 9,
    "vinyl": 12,
    "che": 38,
    "eagles": 3,
    "farther": 14,
    "squid": 16,
    "ryan": 12,
    "cousin": 17,
    "##eau": 10,
    "##pd": 22,
    "quest": 18,
    "pan": 79,
    "paranoia": 19,
    "reins": 30,
    "##ori": 5,
    "offset": 40,
    "pirates": 13,
    "technique": 88,
    "##anal": 25,
    "depressed": 16,
    "hoover": 1,
    "occurrences": 4,
    "landmark": 8,
    "turbo": 56,
    "determines": 21,
    "liberty": 46,
    "reprint": 18,
    "sue": 24,
    "##dating": 20,
    "cornell": 17,
    "curve": 40,
    "algebraic": 13,
    "##unt": 36,
    "cuff": 2,
    "theorem": 3,
    "divides": 6,
    "compact": 35,
    "intersects": 4,
    "geometric": 15,
    "modeled": 7,
    "1985": 97,
    "infinite": 32,
    "importantly": 21,
    "arises": 18,
    "expressive": 3,
    "difficulties": 23,
    "finite": 23,
    "td": 5,
    "alice": 3,
    "bleak": 3,
    "hung": 36,
    "reduction": 38,
    "ii": 18,
    "##mma": 8,
    "intersection": 27,
    "coin": 23,
    "sv": 18,
    "derivative": 9,
    "##ioms": 12,
    "##iom": 13,
    "solemn": 6,
    "consonant": 1,
    "steward": 8,
    "transaction": 23,
    "attorney": 28,
    "overlap": 24,
    "praying": 28,
    "verbal": 22,
    "petition": 7,
    "analogous": 11,
    "aligned": 7,
    "talents": 7,
    "delegation": 17,
    "responsibilities": 25,
    "##ula": 13,
    "advancement": 10,
    "desperation": 4,
    "thanksgiving": 3,
    "uttered": 6,
    "##nis": 34,
    "soc": 48,
    "##while": 34,
    "cheers": 22,
    "sausage": 4,
    "rubbish": 7,
    "parade": 6,
    "dictator": 12,
    "impose": 27,
    "##iring": 5,
    "dislike": 24,
    "rn": 9,
    "neon": 12,
    "delighted": 7,
    "repeal": 9,
    "##tty": 8,
    "nightmare": 13,
    "concealed": 52,
    "horror": 20,
    "safer": 31,
    "staunch": 10,
    "##smo": 21,
    "tracked": 5,
    "favour": 25,
    "polls": 19,
    "researchers": 52,
    "mildly": 12,
    "faction": 3,
    "##uch": 15,
    "providers": 23,
    "nominally": 5,
    "societies": 20,
    "expenditure": 2,
    "##oint": 13,
    "earned": 20,
    "##ising": 13,
    "pace": 18,
    "butterflies": 1,
    "overs": 40,
    "##tures": 4,
    "persuaded": 9,
    "##jo": 23,
    "##icing": 3,
    "rulers": 16,
    "ave": 16,
    "strict": 51,
    "plotted": 4,
    "##iving": 29,
    "radicals": 9,
    "##aine": 8,
    "grandparents": 14,
    "1914": 54,
    "cousins": 4,
    "elderly": 20,
    "oppressive": 10,
    "culminated": 8,
    "rejects": 10,
    "predecessors": 13,
    "timeless": 4,
    "##ution": 18,
    "unite": 12,
    "appeal": 42,
    "inventory": 5,
    "sheep": 30,
    "##tp": 19,
    "##ick": 26,
    "railway": 6,
[...]
