{
  "freqs": {
    "[UNK]": 1220162,
    "acceptable": 206,
    ".": 342482,
    "and": 80610,
    "have": 25286,
    "a": 81540,
    "right": 3478,
    "to": 104152,
    "determine": 306,
    "if": 11672,
    "they": 15262,
    "wish": 482,
    "return": 768,
    "the": 189936,
    "situation": 662,
    "prior": 216,
    "invasion": 70,
    "where": 3220,
    "were": 8026,
    "both": 2248,
    "part": 2126,
    "of": 92088,
    "same": 3394,
    "\"": 80284,
    "mandate": 60,
    "territory": 142,
    "-": 341032,
    "read": 2206,
    "colony": 38,
    "has": 10432,
    "no": 7636,
    "what": 9222,
    "happens": 410,
    "in": 58802,
    "another": 2046,
    "country": 778,
    "because": 4464,
    "you": 32136,
    "consider": 780,
    "them": 7014,
    "threat": 216,
    "is": 58642,
    "precisely": 100,
    "way": 3976,
    "that": 53604,
    "almost": 896,
    "all": 11580,
    "wars": 126,
    "aggression": 38,
    "started": 924,
    "territorial": 52,
    "expansion": 246,
    "by": 15648,
    "force": 612,
    "defines": 74,
    "as": 20732,
    "occupied": 168,
    "are": 25220,
    "recognised": 20,
    "such": 3918,
    "every": 1732,
    "nation": 270,
    "on": 27880,
    "earth": 382,
    "(": 81292,
    "excluding": 42,
    "one": 11382,
    "small": 1164,
    "car": 1696,
    "##ibe": 86,
    "##an": 120,
    "island": 82,
    ")": 79788,
    "thinks": 196,
    "peace": 408,
    "possible": 1614,
    "with": 24708,
    "continued": 180,
    "occupation": 118,
    "military": 658,
    "presence": 188,
    "?": 45848,
    "completely": 522,
    "un": 2322,
    "##sus": 14,
    "##tain": 44,
    "##able": 1122,
    "bankrupt": 16,
    "simply": 942,
    "cannot": 1114,
    "afford": 166,
    "finance": 40,
    "ec": 158,
    "##con": 312,
    "##omy": 24,
    "any": 8302,
    "more": 7868,
    "money": 1074,
    "for": 37238,
    "an": 14524,
    "moved": 248,
    "deliberate": 34,
    "policy": 430,
    "prevent": 380,
    "territories": 86,
    "described": 362,
    "reasoning": 184,
    "clear": 788,
    "intention": 72,
    "was": 18756,
    "create": 608,
    "constituency": 4,
    "which": 8932,
    "bel": 134,
    "##ei": 120,
    "##ved": 116,
    "could": 4624,
    "not": 23392,
    "be": 27484,
    "deprived": 30,
    "land": 500,
    "stolen": 126,
    "from": 15438,
    "indigenous": 10,
    "population": 534,
    "pre": 942,
    "##text": 334,
    "##s": 18314,
    "under": 2408,
    "settlers": 14,
    "##qui": 178,
    "##red": 178,
    "through": 2474,
    "red": 548,
    "##ef": 94,
    "##ini": 88,
    "##tion": 480,
    "much": 4068,
    "used": 3690,
    "common": 766,
    "public": 1532,
    "assertion": 140,
    "village": 162,
    "depends": 226,
    "food": 492,
    "belongs": 72,
    "invade": 48,
    "##r": 2554,
    "individual": 536,
    "title": 450,
    "clearly": 434,
    "excuse": 206,
    "build": 782,
    "condom": 12,
    "##inium": 2,
    "aliens": 6,
    "brought": 406,
    "occupy": 12,
    "foreign": 186,
    "power": 1840,
    "there": 10216,
    "breach": 22,
    "convention": 42,
    "st": 904,
    "##ip": 148,
    "##ulates": 36,
    "use": 6250,
    "must": 2588,
    "changed": 468,
    "amount": 464,
    "self": 674,
    "justify": 160,
    "##ing": 4224,
    "hard": 1626,
    "lin": 40,
    "##ner": 82,
    "app": 572,
    "##ologists": 24,
    "will": 12940,
    "change": 1170,
    "fact": 1926,
    "majority": 386,
    "world": 1622,
    "governments": 182,
    ",": 232988,
    "those": 3526,
    "actually": 1354,
    "condemned": 40,
    "this": 22398,
    "practice": 338,
    "also": 5418,
    "liability": 68,
    "talking": 704,
    "about": 11228,
    "civilian": 156,
    "en": 1180,
    "##camp": 6,
    "##ments": 120,
    "would": 11976,
    "last": 2302,
    "than": 6470,
    "hours": 414,
    "against": 1816,
    "tanks": 202,
    "'": 231742,
    "t": 21714,
    "fool": 114,
    "yourself": 544,
    "gulf": 8,
    "war": 716,
    "negotiating": 46,
    "table": 328,
    "their": 7686,
    "back": 3000,
    "##ers": 694,
    "had": 6952,
    "secure": 480,
    "base": 488,
    "ins": 388,
    "##rt": 112,
    "##ru": 208,
    "##cted": 70,
    "negotiate": 44,
    "or": 20232,
    "else": 1372,
    "creation": 296,
    "settlements": 22,
    "gone": 388,
    "longer": 600,
    "cut": 588,
    "supply": 406,
    "at": 15076,
    "can": 14988,
    "chose": 94,
    "live": 892,
    "arab": 50,
    "state": 1352,
    "existence": 496,
    "com": 3936,
    "##uni": 74,
    "##ty": 400,
    "does": 4258,
    "give": 1800,
    "annex": 14,
    "##e": 1878,
    "new": 3818,
    "boundaries": 44,
    "drawn": 98,
    "up": 7596,
    "48": 936,
    "precious": 30,
    "little": 1910,
    "authority": 380,
    "agree": 924,
    "anything": 1850,
    "real": 1592,
    "issue": 1064,
    "treaty": 44,
    "but": 15300,
    "trade": 398,
    "remain": 246,
    "heavily": 86,
    "dependent": 94,
    "indefinitely": 14,
    "it": 38532,
    "gu": 154,
    "##aran": 22,
    "##tor": 212,
    "factor": 244,
    "lands": 100,
    "confiscated": 16,
    "within": 830,
    "di": 1356,
    "##sman": 32,
    "##tling": 14,
    "shadow": 68,
    "structures": 72,
    "allow": 654,
    "discrimination": 74,
    "non": 1704,
    "nominal": 18,
    "##y": 1608,
    "secular": 126,
    "irony": 30,
    "guarantee": 158,
    "palestinian": 8,
    "des": 298,
    "##cr": 640,
    "##imi": 152,
    "##nation": 70,
    "law": 1742,
    "order": 1464,
    "protect": 470,
    "remaining": 138,
    "going": 2786,
    "forced": 180,
    "##ot": 348,
    "position": 722,
    "mean": 1486,
    "outlaw": 42,
    "prevents": 60,
    "arabs": 30,
    "buying": 306,
    "using": 2752,
    "posted": 746,
    "couple": 796,
    "weeks": 540,
    "ago": 1130,
    "doesn": 2090,
    "seem": 1154,
    "appeared": 184,
    "news": 1720,
    "##group": 720,
    "haven": 646,
    "reply": 496,
    "moderator": 58,
    "having": 1314,
    "intermittent": 24,
    "problems": 1456,
    "our": 3494,
    "mail": 2724,
    "time": 5788,
    "me": 9042,
    "seen": 1346,
    "before": 2452,
    "fight": 244,
    "week": 682,
    "some": 8646,
    "questions": 1044,
    "fighting": 220,
    "whether": 1122,
    "things": 2432,
    "just": 6638,
    "##if": 234,
    "##iable": 66,
    "looking": 1322,
    "into": 4570,
    "these": 4446,
    "jo": 48,
    "##tted": 18,
    "down": 2266,
    "my": 10828,
    "findings": 90,
    "go": 2872,
    "answered": 172,
    "his": 5958,
    "yet": 1126,
    "know": 6984,
    "here": 3256,
    "slightly": 272,
    "different": 1892,
    "tack": 38,
    "possibly": 402,
    "ll": 2638,
    "able": 1490,
    "get": 6996,
    "deeply": 66,
    "later": 896,
    "post": 1512,
    "info": 1358,
    "soon": 644,
    "duty": 160,
    "neighbour": 16,
    ":": 66722,
    "good": 4436,
    "men": 776,
    "6": 7354,
    "10": 3424,
    "ourselves": 178,
    "22": 886,
    "39": 556,
    "toward": 276,
    "who": 8484,
    "may": 4302,
    "trouble": 408,
    "therefore": 368,
    "render": 156,
    "assistance": 148,
    "injured": 108,
    "man": 1276,
    "should": 4970,
    "organisation": 48,
    "causes": 282,
    "people": 7786,
    "harm": 172,
    "even": 4000,
    "medical": 362,
    "corps": 32,
    "army": 252,
    "etc": 2396,
    "faith": 788,
    "citizens": 452,
    "commonwealth": 6,
    "2": 17206,
    "11": 1746,
    "12": 1962,
    "recognise": 28,
    "rules": 630,
    "kingdoms": 4,
    "we": 9710,
    "taking": 580,
    "struggles": 14,
    "nations": 172,
    "due": 702,
    "strangers": 24,
    "pilgrims": 6,
    "amongst": 52,
    "so": 8614,
    "passing": 122,
    "national": 376,
    "aspirations": 16,
    "applied": 176,
    "politics": 250,
    "s": 24516,
    "story": 536,
    "supposed": 450,
    "strive": 32,
    "resist": 196,
    "evil": 322,
    "suffer": 142,
    "yourselves": 30,
    "def": 294,
    "##ra": 240,
    "##uded": 38,
    "inc": 458,
    "##osis": 42,
    "##ten": 132,
    "##t": 2692,
    "us": 3370,
    "assist": 84,
    "preserving": 18,
    "destroy": 170,
    "when": 6146,
    "he": 9372,
    "returns": 146,
    "set": 2036,
    "kingdom": 110,
    "unto": 104,
    "20": 2188,
    "25": 1966,
    "soul": 166,
    "subject": 796,
    "higher": 554,
    "powers": 110,
    ";": 31636,
    "ordained": 8,
    "##eth": 70,
    "ordinance": 26,
    "13": 1340,
    "1": 22950,
    "sake": 108,
    "king": 96,
    "supreme": 46,
    "well": 3484,
    "doing": 1306,
    "ye": 136,
    "put": 1686,
    "silence": 58,
    "ignorance": 140,
    "foolish": 66,
    "15": 2166,
    "scriptures": 66,
    "make": 3872,
    "submission": 54,
    "divine": 150,
    "command": 564,
    "equally": 136,
    "5": 9702,
    "19": 1008,
    "29": 598,
    "runs": 654,
    "counter": 156,
    "refuse": 108,
    "reason": 1352,
    "bond": 36,
    "servants": 14,
    "service": 704,
    "life": 1504,
    "task": 186,
    "example": 1594,
    "type": 982,
    "thing": 2008,
    "3": 16642,
    "23": 854,
    "bonds": 22,
    "##er": 2680,
    "##vant": 26,
    "work": 3266,
    "heart": 328,
    "##ily": 72,
    "boss": 66,
    "i": 2200,
    "e": 2614,
    "shaken": 14,
    "together": 636,
    "running": 1124,
    "over": 3984,
    "o": 1490,
    "##ops": 82,
    "bit": 2626,
    "side": 1016,
    "track": 256,
    "contests": 44,
    "between": 2120,
    "battle": 136,
    "testify": 38,
    "truth": 706,
    "believe": 2680,
    "embrace": 28,
    "promises": 70,
    "become": 736,
    "fellow": 128,
    "interested": 1066,
    "associations": 20,
    "relation": 60,
    "unions": 12,
    "tells": 266,
    "lay": 178,
    "aside": 166,
    "weight": 290,
    "run": 1768,
    "race": 262,
    "wise": 132,
    "disc": 398,
    "##ard": 60,
    "association": 64,
    "re": 4740,
    "##tar": 68,
    "##d": 2810,
    "progress": 106,
    "endure": 18,
    "hardness": 2,
    "soldier": 50,
    "##ret": 70,
    "##h": 1130,
    "##tangle": 60,
    "##th": 362,
    "himself": 566,
    "affairs": 74,
    "please": 1522,
    "him": 2984,
    "hat": 90,
    "chosen": 166,
    "4": 9842,
    "warns": 34,
    "une": 118,
    "##qual": 22,
    "##ly": 2714,
    "yo": 140,
    "##ked": 58,
    "##bel": 50,
    "##ie": 394,
    "##vers": 94,
    "obvious": 404,
    "applications": 516,
    "marriage": 168,
    "covers": 102,
    "like": 7642,
    "business": 604,
    "partnerships": 4,
    "other": 7448,
    "form": 734,
    "close": 620,
    "person": 1416,
    "persons": 186,
    "believing": 132,
    "case": 2134,
    "principle": 164,
    "comes": 942,
    "remember": 912,
    "being": 3372,
    "animals": 218,
    "strengths": 10,
    "clean": 226,
    "uncle": 20,
    "ideas": 496,
    "strongly": 172,
    "stressed": 24,
    "18": 1334,
    "suggest": 482,
    "##king": 120,
    "aspect": 100,
    "ser": 38,
    "##vi": 56,
    "##tu": 72,
    "##de": 312,
    "says": 1352,
    "take": 2468,
    "##ke": 252,
    "upon": 620,
    "then": 4846,
    "already": 1254,
    "7": 9118,
    "question": 2102,
    "asked": 798,
    "thou": 68,
    "help": 2264,
    "##go": 212,
    "##dly": 36,
    "lucky": 140,
    "escape": 148,
    "facts": 258,
    "made": 2410,
    "affinity": 18,
    "sold": 378,
    "wicked": 38,
    "##ness": 572,
    "21": 990,
    "alliance": 10,
    "agreed": 152,
    "said": 3444,
    "am": 4268,
    "art": 346,
    "thy": 30,
    "##to": 294,
    "firm": 122,
    "refusing": 28,
    "advice": 346,
    "false": 332,
    "prophets": 62,
    "insisted": 38,
    "hearing": 160,
    "prophet": 162,
    "trying": 1292,
    "do": 10672,
    "found": 1608,
    "couldn": 600,
    "break": 488,
    "away": 1226,
    "out": 8756,
    "among": 686,
    "separate": 314,
    "touch": 180,
    "receive": 350,
    "shall": 446,
    "sons": 60,
    "daughters": 34,
    "17": 1498,
    "less": 1472,
    "far": 1772,
    "m": 5338,
    "still": 2624,
    "don": 7128,
    "think": 5938,
    "ve": 3990,
    "raised": 206,
    "summary": 206,
    "few": 2110,
    "essential": 140,
    "relationship": 220,
    "14": 1896,
    "dedication": 8,
    "course": 1860,
    "action": 548,
    "required": 534,
    "compromise": 186,
    "followers": 138,
    "8": 7572,
    "separated": 62,
    "involves": 98,
    "master": 182,
    "servant": 42,
    "16": 2102,
    "serve": 186,
    "two": 4126,
    "masters": 34,
    "24": 1580,
    "lust": 24,
    "pride": 48,
    "quite": 1290,
    "opposed": 214,
    "nature": 468,
    "deliver": 64,
    "delivered": 66,
    "rights": 812,
    "swear": 58,
    "allegiance": 10,
    "anyone": 2840,
    "gentle": 24,
    "apply": 372,
    "avoiding": 44,
    "strife": 10,
    "throughout": 170,
    "lives": 410,
    "wage": 50,
    "weapons": 540,
    "armour": 12,
    "probably": 1860,
    "look": 1844,
    "further": 564,
    "fascist": 94,
    "killing": 338,
    "invading": 38,
    "soil": 52,
    "lack": 374,
    "ha": 260,
    "explanation": 194,
    "fa": 590,
    "##sis": 86,
    "##ye": 28,
    "dam": 18,
    "##gal": 30,
    "##a": 890,
    "son": 350,
    "ken": 12,
    "##di": 188,
    "##ler": 180,
    "##i": 804,
    "##tl": 24,
    "##ig": 114,
    "##in": 624,
    "ala": 50,
    "##sin": 56,
    "ya": 156,
    "##pin": 36,
    "##ca": 180,
    "ac": 654,
    "ka": 114,
    "##ld": 138,
    "##ila": 48,
    "da": 88,
    "yi": 10,
    "##cek": 4,
    "##k": 1160,
    "amc": 2,
    "##asi": 56,
    "bu": 338,
    "se": 374,
    "##fer": 140,
    "##lik": 4,
    "af": 130,
    "##fed": 30,
    "de": 968,
    "yu": 36,
    "pl": 222,
    "##aka": 10,
    "nu": 144,
    "##mara": 2,
    "##ni": 308,
    "##lim": 64,
    "note": 638,
    "design": 488,
    "implementation": 242,
    "behind": 620,
    "chip": 1132,
    "moves": 102,
    "pawn": 8,
    "elect": 40,
    "president": 154,
    "united": 18,
    "states": 510,
    "immediately": 252,
    "pack": 88,
    "bags": 40,
    "replaced": 232,
    "team": 1390,
    "fresh": 72,
    "young": 480,
    "government": 2146,
    "say": 3642,
    "96": 422,
    "%": 30110,
    "appointed": 58,
    "hired": 50,
    "rather": 1484,
    "elected": 70,
    "device": 564,
    "been": 6690,
    "production": 178,
    "six": 336,
    "months": 656,
    "foundation": 78,
    "currently": 530,
    "body": 754,
    "sky": 108,
    "hasn": 228,
    "fallen": 64,
    "how": 4818,
    "convert": 620,
    "tar": 546,
    "##ga": 172,
    "similar": 912,
    "picture": 318,
    "list": 1838,
    "values": 436,
    "after": 2708,
    "operations": 216,
    "p": 1508,
    "ix": 10,
    "##els": 20,
    "codes": 130,
    "ex": 1238,
    ">": 166536,
    "000": 1664,
    "##100": 310,
    "##25": 170,
    "##5": 1772,
    "##pi": 208,
    "##x": 2456,
    "##el": 260,
    "001": 202,
    "##200": 42,
    "##20": 188,
    "##1": 2634,
    "##et": 410,
    "##c": 1572,
    "someone": 1878,
    "explain": 482,
    "data": 2284,
    "ore": 22,
    "file": 2952,
    "its": 3272,
    "stored": 144,
    "##gas": 14,
    "ft": 1004,
    "##p": 3170,
    "site": 596,
    "wu": 170,
    "##ar": 322,
    "##chi": 124,
    "##ve": 468,
    "um": 264,
    "##ich": 74,
    "something": 3098,
    "off": 2962,
    "beaten": 60,
    "path": 248,
    "motives": 50,
    "often": 978,
    "while": 2016,
    "publicly": 124,
    "criticizing": 20,
    "sale": 508,
    "taken": 718,
    "advantage": 278,
    "prices": 242,
    "paid": 292,
    "barren": 8,
    "many": 3604,
    "times": 1136,
    "price": 950,
    "fertile": 18,
    "^": 24362,
    "hear": 646,
    "answer": 1066,
    "para": 186,
    "##ph": 246,
    "##rase": 92,
    "means": 1328,
    "mother": 648,
    "##board": 370,
    "cop": 208,
    "##ro": 372,
    "##ces": 276,
    "##sor": 152,
    "*": 62034,
    "yours": 202,
    "add": 688,
    "/": 52124,
    "desktop": 126,
    "230": 132,
    "##wat": 20,
    "usual": 254,
    "connector": 278,
    "five": 454,
    "floppy": 414,
    "drives": 672,
    "three": 1482,
    "visible": 194,
    "internal": 432,
    "slot": 218,
    "38": 1012,
    "##6": 3034,
    "##m": 2806,
    "##z": 376,
    "64": 644,
    "##b": 1686,
    "cache": 286,
    "##mb": 118,
    "80": 1400,
    "##us": 522,
    "sim": 174,
    "##ms": 388,
    "worth": 660,
    "$": 32600,
    "150": 316,
    "alone": 408,
    "math": 208,
    "90": 846,
    "0": 17404,
    "rating": 86,
    "26": 778,
    "version": 1460,
    "email": 1154,
    "saying": 1016,
    "only": 6628,
    "9": 6290,
    "95": 528,
    "including": 1078,
    "free": 1408,
    "toast": 20,
    "!": 31304,
    "certain": 838,
    "find": 2660,
    "cheaper": 234,
    "board": 688,
    "without": 2218,
    "breaking": 110,
    "sweat": 16,
    "several": 1396,
    "hundred": 232,
    "dollar": 94,
    "premium": 62,
    "high": 1534,
    "quality": 568,
    "components": 184,
    "known": 948,
    "very": 4358,
    "reliable": 192,
    "compatible": 322,
    "systems": 990,
    "various": 636,
    "points": 704,
    "past": 678,
    "ads": 94,
    "pages": 280,
    "want": 3456,
    "see": 3922,
    "differential": 58,
    "495": 40,
    "complete": 532,
    "100": 1320,
    "need": 3216,
    "fully": 312,
    "guaranteed": 128,
    "details": 568,
    "understanding": 368,
    "ted": 16,
    "turner": 2,
    "owner": 218,
    "braves": 2,
    "tv": 106,
    "station": 368,
    "nationwide": 28,
    "games": 1050,
    "dubbed": 4,
    "america": 18,
    "least": 1866,
    "whose": 404,
    "across": 430,
    "now": 3230,
    "wo": 68,
    "beautiful": 90,
    "sec": 224,
    "##au": 68,
    "##cus": 74,
    "mets": 4,
    "w": 1014,
    "##gn": 34,
    "chicago": 6,
    "##sb": 56,
    "boston": 6,
    "super": 288,
    "##station": 28,
    "east": 88,
    "coast": 74,
    "cubs": 76,
    "sox": 4,
    "show": 934,
    "h": 796,
    "##ym": 90,
    "##ow": 74,
    "##itz": 10,
    "@": 37948,
    "cs": 1078,
    "j": 408,
    "##hu": 56,
    "ed": 4754,
    "##u": 5324,
    "mel": 48,
    "##low": 10,
    "dead": 672,
    "your": 9952,
    "laid": 58,
    "attitude": 260,
    "solve": 176,
    "problem": 3042,
    "myself": 660,
    "willing": 532,
    "second": 1420,
    "password": 132,
    "secret": 440,
    "key": 2456,
    "whenever": 132,
    "logged": 12,
    "solution": 454,
    "once": 944,
    "installed": 470,
    "effort": 360,
    "##less": 504,
    "start": 1232,
    "x": 2858,
    "##hos": 70,
    "control": 1270,
    "access": 1008,
    "got": 2314,
    "##li": 200,
    "##ge": 236,
    "##ous": 304,
    "storing": 22,
    "keys": 940,
    "multi": 512,
    "##user": 36,
    "computers": 216,
    "pointer": 202,
    "reading": 692,
    "liked": 104,
    "idea": 1246,
    "unrelated": 24,
    "sources": 652,
    "strong": 636,
    "mixing": 42,
    "function": 542,
    "unless": 700,
    "missed": 222,
    "source": 1122,
    "suggested": 222,
    "hardware": 858,
    "seems": 1660,
    "available": 2452,
    "##gues": 6,
    "##sable": 78,
    "intruder": 24,
    "boot": 286,
    "##ed": 2916,
    "buffer": 282,
    "related": 626,
    "network": 506,
    "traffic": 334,
    "basically": 254,
    "uses": 810,
    "strategy": 108,
    "requiring": 92,
    "reach": 264,
    "kernel": 58,
    "heard": 1262,
    "sounded": 42,
    "folks": 396,
    "experiencing": 24,
    "30": 1774,
    "60": 1050,
    "seconds": 218,
    "reasonably": 136,
    "configured": 56,
    "works": 1330,
    "##tation": 266,
    "delay": 90,
    "log": 272,
    "process": 682,
    "approach": 420,
    "ether": 46,
    "##fin": 72,
    "|": 6816,
    "##press": 146,
    "skip": 72,
    "takes": 478,
    "considering": 296,
    "writing": 400,
    "end": 1714,
    "solutions": 106,
    "launches": 96,
    "simultaneously": 62,
    "tries": 90,
    "suck": 114,
    "bits": 532,
    "net": 1308,
    "sitting": 180,
    "_": 54076,
    "idle": 52,
    "compression": 236,
    "finishes": 14,
    "deter": 124,
    "##mini": 38,
    "##stic": 52,
    "upper": 120,
    "bound": 126,
    "extra": 492,
    "identity": 140,
    "sy": 418,
    "##llo": 28,
    "##gis": 30,
    "valid": 352,
    "however": 894,
    "##dicate": 26,
    "invalid": 92,
    "first": 3680,
    "pointed": 236,
    "designate": 32,
    "pants": 62,
    "rarely": 84,
    "pockets": 36,
    "most": 3424,
    "too": 3036,
    "shallow": 20,
    "important": 1054,
    "woman": 384,
    "her": 1732,
    "hand": 1098,
    "she": 1394,
    "goes": 754,
    "building": 542,
    "herself": 64,
    "ass": 260,
    "##nts": 72,
    "broadcasting": 26,
    "definite": 74,
    "place": 1468,
    "sa": 72,
    "##ft": 162,
    "ie": 306,
    "locked": 76,
    "wal": 8,
    "looks": 564,
    "ugly": 62,
    "breaks": 84,
    "lines": 740,
    "makes": 1066,
    "rear": 202,
    "wide": 426,
    "cows": 20,
    "habits": 30,
    "clothing": 66,
    "pr": 130,
    "##use": 112,
    "functions": 404,
    "mater": 12,
    "wearing": 126,
    "nude": 6,
    "bi": 236,
    "women": 652,
    "suit": 112,
    "coat": 56,
    "outside": 562,
    "none": 374,
    "inside": 454,
    "coats": 10,
    "##tal": 116,
    "fair": 328,
    "wears": 18,
    "clothes": 66,
    "tell": 1678,
    "fun": 294,
    "##al": 746,
    "dressed": 26,
    "wallet": 30,
    "pocket": 64,
    "coven": 2,
    "##ent": 534,
    "better": 2278,
    "unlock": 32,
    "quickly": 306,
    "locks": 72,
    "fast": 738,
    "##mo": 244,
    "##ut": 118,
    "aware": 322,
    "necks": 8,
    "yelling": 24,
    "lbs": 42,
    "inches": 98,
    "why": 2380,
    "told": 1150,
    "care": 838,
    "lot": 1692,
    "worried": 98,
    "putting": 300,
    "health": 492,
    "home": 1096,
    "##opa": 62,
    "##thy": 34,
    "really": 2704,
    "knowing": 252,
    "getting": 1164,
    "6000": 100,
    "##thic": 24,
    "practices": 100,
    "documented": 84,
    "investigations": 38,
    "principles": 124,
    "book": 1164,
    "weekend": 156,
    "turned": 386,
    "section": 712,
    "medicine": 172,
    "paragraph": 176,
    "informed": 94,
    "##ths": 38,
    "feel": 926,
    "obliged": 24,
    "provide": 910,
    "sort": 806,
    "author": 496,
    "stated": 376,
    "though": 1664,
    "virtue": 36,
    "sc": 636,
    "##ept": 144,
    "##ical": 138,
    "narrow": 66,
    "minded": 80,
    "big": 1068,
    "witch": 12,
    "doctor": 330,
    "flexible": 64,
    "te": 244,
    "##mp": 464,
    "files": 1624,
    "check": 992,
    "environment": 378,
    "variable": 162,
    "drive": 2072,
    "directory": 682,
    "pretty": 986,
    "standard": 1064,
    "own": 2316,
    "opinion": 576,
    "bearing": 60,
    "organization": 380,
    "employer": 78,
    "monitors": 184,
    "knows": 572,
    "replacing": 54,
    "cap": 194,
    "cost": 876,
    "falls": 86,
    "bad": 1298,
    "batch": 76,
    "supplier": 28,
    "local": 1164,
    "repair": 118,
    "shop": 170,
    "prop": 302,
    "##he": 136,
    "##cies": 118,
    "sure": 2160,
    "credibility": 46,
    "wrote": 412,
    "called": 1716,
    "prediction": 70,
    "bought": 506,
    "gold": 132,
    "hurt": 222,
    "financially": 20,
    "800": 758,
    "half": 596,
    "stuck": 142,
    "mind": 888,
    "worked": 398,
    "tend": 314,
    "predictions": 98,
    "come": 1990,
    "true": 1680,
    "forget": 332,
    "ones": 712,
    "didn": 2072,
    "la": 168,
    "perhaps": 640,
    "mentioned": 592,
    "definitely": 210,
    "might": 2406,
    "silly": 140,
    "ask": 1106,
    "anyway": 592,
    "purchasing": 74,
    "66": 556,
    "computer": 1072,
    "places": 468,
    "sell": 688,
    "machines": 454,
    "brand": 208,
    "formerly": 92,
    "since": 2292,
    "manufacturer": 132,
    "never": 2128,
    "leaning": 52,
    "towards": 294,
    "machine": 954,
    "impression": 120,
    "solid": 232,
    "tech": 200,
    "support": 1580,
    "hr": 36,
    "days": 1046,
    "warrant": 428,
    "##ee": 118,
    "years": 2708,
    "recently": 582,
    "trust": 362,
    "company": 594,
    "appreciate": 404,
    "input": 582,
    "choice": 472,
    "positive": 254,
    "negative": 172,
    "either": 1652,
    "ever": 1166,
    "##boards": 32,
    "advance": 692,
    "information": 2574,
    "ranks": 34,
    "greatest": 102,
    "blu": 24,
    "##nder": 30,
    "mention": 422,
    "ice": 282,
    "committed": 278,
    "decided": 454,
    "incapable": 34,
    "leader": 164,
    "stripped": 30,
    "1990": 418,
    "whole": 1114,
    "default": 468,
    "du": 158,
    "##pe": 208,
    "blind": 112,
    "sided": 32,
    "dumped": 42,
    "season": 816,
    "starting": 324,
    "sign": 300,
    "contract": 154,
    "humiliating": 8,
    "stripping": 22,
    "trading": 58,
    "guy": 500,
    "loss": 330,
    "lesser": 40,
    "extent": 136,
    "series": 548,
    "dec": 594,
    "##imating": 24,
    "player": 460,
    "personality": 60,
    "fan": 374,
    "awareness": 44,
    "##car": 36,
    "##ious": 96,
    "today": 966,
    "[": 23264,
    "did": 3144,
    "##side": 32,
    "acquired": 52,
    "roster": 56,
    "]": 25812,
    "card": 1516,
    "bull": 138,
    "curious": 180,
    "plan": 498,
    "making": 896,
    "requirement": 106,
    "always": 1266,
    "presented": 254,
    "ge": 216,
    "aid": 186,
    "anybody": 674,
    "planning": 152,
    "sha": 144,
    "##ving": 70,
    "head": 720,
    "logic": 356,
    "correct": 812,
    "spelling": 52,
    "supplies": 56,
    "thinking": 556,
    "education": 296,
    "suppliers": 16,
    "schools": 138,
    "##art": 74,
    "companies": 364,
    "greatly": 342,
    "appreciated": 590,
    "best": 1738,
    "knowledge": 570,
    "pictures": 220,
    "organic": 18,
    "object": 408,
    "charged": 76,
    "plates": 38,
    "energy": 268,
    "patterns": 64,
    "spikes": 12,
    "around": 2064,
    "photographed": 12,
    "depending": 190,
    "vary": 130,
    "##pol": 86,
    "##ate": 284,
    "proves": 68,
    "universe": 282,
    "signature": 114,
    "racetrack": 2,
    "original": 994,
    "statement": 636,
    "nonsense": 88,
    "leg": 150,
    "##is": 322,
    "##late": 46,
    "morality": 248,
    "pass": 472,
    "laws": 632,
    "single": 812,
    "moral": 422,
    "act": 464,
    "manner": 222,
    "actions": 354,
    "reflection": 22,
    "unwilling": 50,
    "risk": 326,
    "punishment": 174,
    "nothing": 1318,
    "distinction": 82,
    "fine": 728,
    "image": 1190,
    "monitor": 634,
    "video": 804,
    "##ta": 440,
    "harder": 114,
    "outputs": 46,
    "format": 892,
    "television": 120,
    "equipment": 356,
    "conversion": 150,
    "hands": 384,
    "costs": 370,
    "output": 1222,
    "transfer": 432,
    "types": 380,
    "graphic": 112,
    "mode": 1316,
    "tape": 544,
    "frame": 266,
    "lead": 412,
    "##va": 182,
    "##bly": 206,
    "scratch": 62,
    "animation": 130,
    "program": 2648,
    "barr": 16,
    "evidence": 1076,
    "contrary": 168,
    "der": 138,
    "##ange": 8,
    "##atic": 126,
    "thought": 1344,
    "nec": 102,
    "##sar": 112,
    "bunch": 272,
    "children": 1092,
    "satisfy": 66,
    "del": 346,
    "##usion": 16,
    "mania": 20,
    "circa": 28,
    "1993": 1472,
    "fruit": 94,
    "##cake": 6,
    "demonstrating": 26,
    "corruption": 52,
    "centuries": 104,
    "ridiculous": 132,
    "aren": 608,
    "designed": 518,
    "evolved": 30,
    "discomfort": 22,
    "humans": 240,
    "birth": 118,
    "sacrificed": 20,
    "increased": 234,
    "brain": 242,
    "cr": 498,
    "##anial": 10,
    "size": 956,
    "easier": 298,
    "horses": 36,
    "typically": 168,
    "worse": 356,
    "family": 540,
    "tree": 112,
    "complicated": 134,
    "pioneer": 26,
    "great": 1452,
    "grandfather": 40,
    "wives": 44,
    "figure": 486,
    "wife": 370,
    "each": 1948,
    "child": 458,
    "happened": 676,
    "reached": 178,
    "fort": 32,
    "##ies": 608,
    "prosperous": 4,
    "farmers": 12,
    "lost": 526,
    "rig": 60,
    "##ors": 142,
    "childbirth": 4,
    "graveyard": 4,
    "contain": 212,
    "graves": 16,
    "##tones": 10,
    "##f": 1672,
    "baby": 90,
    "1853": 4,
    "ten": 272,
    "consequences": 118,
    "devastating": 8,
    "direct": 322,
    "experience": 744,
    "dozen": 96,
    "victims": 156,
    "foul": 62,
    "bree": 6,
    "##ch": 468,
    "isn": 1202,
    "fatal": 80,
    "adequate": 88,
    "permanently": 36,
    "damages": 30,
    "bodies": 218,
    "believer": 62,
    "evolution": 98,
    "favor": 170,
    "births": 8,
    "wr": 58,
    "##oth": 88,
    "outrageous": 30,
    "straw": 56,
    "attack": 500,
    "practically": 46,
    "mouth": 172,
    "foam": 30,
    "statistical": 70,
    "sophisticated": 70,
    "enough": 1696,
    "balance": 102,
    "risks": 94,
    "produce": 356,
    "exact": 274,
    "statistics": 154,
    "looked": 518,
    "rest": 756,
    "assured": 70,
    "balanced": 82,
    "wouldn": 814,
    "encourage": 104,
    "indicated": 86,
    "grounds": 146,
    "waiting": 256,
    "until": 1134,
    "emergency": 100,
    "bear": 274,
    "took": 916,
    "decisions": 188,
    "talked": 200,
    "main": 646,
    "hers": 10,
    "advocates": 32,
    "bother": 208,
    "relative": 164,
    "significant": 302,
    "nice": 752,
    "surroundings": 26,
    "view": 684,
    "intensity": 44,
    "doubt": 522,
    "importance": 142,
    "advocating": 34,
    "lo": 158,
    "##ps": 368,
    "##ided": 12,
    "fairly": 360,
    "serious": 480,
    "permanent": 130,
    "preserve": 72,
    "est": 72,
    "##hetic": 8,
    "consideration": 184,
    "##ter": 876,
    "usually": 790,
    "selecting": 24,
    "proper": 300,
    "menu": 264,
    "entry": 922,
    "sample": 232,
    "sl": 164,
    "999": 28,
    "n": 1516,
    "l": 422,
    "##12": 152,
    "r": 786,
    "##log": 56,
    "&": 23406,
    "options": 350,
    "text": 724,
    "window": 1362,
    "icon": 136,
    "tc": 126,
    "##sh": 162,
    "wonderful": 138,
    "extension": 158,
    "following": 1500,
    "alias": 102,
    "##cm": 42,
    "echo": 206,
    "\\": 25624,
    "{": 1680,
    "}": 2386,
    "cw": 62,
    "~": 2858,
    "##rc": 450,
    "special": 586,
    "##w": 988,
    "executed": 96,
    "printing": 128,
    "prompt": 102,
    "current": 1182,
    "host": 272,
    "name": 1914,
    "bar": 226,
    "500": 540,
    "460": 22,
    "##0": 3010,
    "50": 1798,
    "+": 27306,
    "49": 542,
    "231": 68,
    "75": 862,
    "61": 734,
    "##42": 94,
    "65": 578,
    "##55": 116,
    "mark": 218,
    "##hof": 6,
    "inform": 144,
    "##ati": 96,
    "dortmund": 10,
    "multiple": 416,
    "##pace": 138,
    "bottom": 238,
    "screen": 870,
    "allows": 372,
    "select": 188,
    "overcome": 38,
    "stacks": 18,
    "windows": 894,
    "open": 1058,
    "spread": 172,
    "independent": 310,
    "screens": 88,
    "flick": 8,
    "article": 1128,
    "<": 30850,
    "02": 690,
    "##46": 62,
    "##7": 2352,
    "##j": 290,
    "##v": 760,
    "##2": 2340,
    "#": 26946,
    "modification": 38,
    "74": 428,
    "speed": 1092,
    "consumption": 48,
    "obsolete": 66,
    "comparable": 100,
    "lower": 416,
    "round": 386,
    "##st": 698,
    "variety": 232,
    "devices": 426,
    "blaze": 22,
    "generally": 454,
    "hate": 270,
    "disagree": 272,
    "smart": 152,
    "project": 426,
    "lots": 418,
    "stuff": 1034,
    "slow": 368,
    "parallel": 212,
    "mild": 58,
    "designer": 22,
    "working": 978,
    "serial": 548,
    "cu": 402,
    "##ssed": 16,
    "swore": 16,
    "ultra": 54,
    "tiny": 80,
    "line": 1846,
    "g": 1358,
    "##lit": 78,
    "hi": 130,
    "##ck": 76,
    "##up": 430,
    "eye": 296,
    "##bl": 102,
    "##ink": 32,
    "bang": 30,
    "##ggle": 14,
    "counted": 64,
    "whatever": 638,
    "count": 384,
    "vol": 202,
    "guess": 772,
    "stood": 90,
    "push": 198,
    "avoid": 480,
    "d": 3362,
    "replace": 274,
    "understood": 160,
    "exist": 826,
    "published": 434,
    "rec": 848,
    "##ens": 124,
    "##ion": 450,
    "bizarre": 52,
    "gospels": 38,
    "texts": 78,
    "share": 482,
    "strange": 190,
    "readings": 32,
    "stands": 174,
    "elsewhere": 138,
    "space": 1618,
    "engineering": 148,
    "employment": 44,
    "educational": 116,
    "opportunities": 74,
    "area": 880,
    "responses": 214,
    "feed": 154,
    "try": 1574,
    "addresses": 224,
    "federal": 356,
    "mu": 290,
    "##le": 610,
    "charges": 122,
    "crimes": 206,
    "nr": 50,
    "##oma": 36,
    "##lly": 72,
    "occur": 324,
    "pissed": 50,
    "interest": 550,
    "intent": 162,
    "perpetrators": 12,
    "pursuit": 30,
    "preventing": 70,
    "violations": 82,
    "civil": 324,
    "broke": 156,
    "long": 2124,
    "##rra": 34,
    "##ssing": 26,
    "blacks": 84,
    "specifically": 290,
    "recognized": 130,
    "constitutional": 84,
    "group": 1402,
    "bash": 58,
    "minority": 208,
    "defeat": 60,
    "south": 96,
    "stick": 332,
    "normally": 238,
    "themselves": 784,
    "walking": 100,
    "##ped": 110,
    "##iti": 60,
    "##ously": 38,
    "tried": 896,
    "jailed": 4,
    "nobody": 228,
    "wanted": 756,
    "anymore": 146,
    "14th": 28,
    "amendment": 134,
    "equal": 272,
    "protection": 312,
    "crime": 594,
    "severe": 128,
    "penalty": 220,
    "involving": 98,
    "needed": 648,
    "human": 982,
    "hated": 16,
    "somebody": 320,
    "call": 1448,
    "guard": 80,
    "school": 484,
    "girls": 84,
    "during": 1100,
    "##eg": 144,
    "##re": 760,
    "##gation": 24,
    "1950": 36,
    "##ize": 448,
    "militia": 224,
    "turn": 700,
    "guns": 648,
    "point": 2566,
    "thousands": 290,
    "crowd": 194,
    "shoot": 134,
    "obey": 116,
    "face": 674,
    "death": 690,
    "firing": 102,
    "squad": 18,
    "failing": 54,
    "arms": 356,
    "god": 402,
    "southern": 74,
    "boys": 74,
    "fixed": 258,
    "bay": 100,
    "##one": 134,
    "##ts": 354,
    "governor": 20,
    "left": 1366,
    "standing": 188,
    "arrested": 50,
    "marshall": 14,
    "ability": 390,
    "jurisdiction": 74,
    "scanner": 126,
    "limiting": 50,
    "selection": 166,
    "models": 336,
    "document": 282,
    "feeder": 14,
    "kyle": 2,
    "ni": 316,
    "##mm": 162,
    "im": 466,
    "aa": 72,
    "front": 620,
    "jerk": 74,
    "day": 1782,
    "raining": 22,
    "cats": 18,
    "dogs": 110,
    "##for": 60,
    "limit": 306,
    "bike": 684,
    "driving": 324,
    "meters": 58,
    "next": 1272,
    "light": 682,
    "calmly": 16,
    "walked": 98,
    "rolled": 40,
    "total": 498,
    "idiot": 94,
    "sounds": 386,
    "cage": 106,
    "tail": 88,
    "##gating": 14,
    "effective": 376,
    "flash": 64,
    "brake": 130,
    "pumping": 16,
    "pedal": 76,
    "obviously": 318,
    "play": 1190,
    "##ern": 50,
    "flashing": 28,
    "directly": 470,
    "wrong": 1324,
    "meaningful": 70,
    "##cc": 346,
    "##ant": 236,
    "exception": 114,
    "opinions": 426,
    "demonstrate": 94,
    "physically": 88,
    "parked": 22,
    "latter": 194,
    "slim": 16,
    "chance": 472,
    "pause": 14,
    "1a": 30,
    "sometimes": 502,
    "windshield": 26,
    "bug": 254,
    "natural": 308,
    "tomatoes": 8,
    "terribly": 50,
    "allergic": 64,
    "peanuts": 6,
    "onions": 4,
    "milk": 50,
    "won": 1206,
    "cause": 910,
    "foods": 108,
    "taste": 116,
    "shouldn": 302,
    "eat": 246,
    "spicy": 4,
    "neighbor": 138,
    "ul": 64,
    "##cer": 116,
    "modified": 222,
    "additive": 52,
    "chile": 2,
    "black": 528,
    "pepper": 10,
    "salt": 66,
    "cream": 26,
    "sauce": 22,
    "cloud": 50,
    "flavor": 52,
    "tasted": 10,
    "diner": 4,
    "coming": 602,
    "fall": 512,
    "93": 1260,
    "peers": 16,
    "direction": 274,
    "16th": 28,
    "20th": 66,
    "contact": 638,
    "300": 504,
    "##19": 62,
    "##4": 2214,
    "272": 36,
    "phone": 784,
    "number": 2416,
    "##8": 2738,
    "41": 516,
    "##3": 2382,
    "year": 2820,
    "notebook": 22,
    "meg": 310,
    "ram": 136,
    "huge": 234,
    "##dis": 200,
    "##q": 390,
    "##view": 82,
    "constantly": 92,
    "crash": 132,
    "commonly": 136,
    "citing": 16,
    "memory": 988,
    "par": 234,
    "##ity": 658,
    "error": 646,
    "tick": 36,
    "counts": 62,
    "startup": 104,
    "copy": 750,
    "instead": 784,
    "disk": 1264,
    "installing": 92,
    "##en": 528,
    "frequency": 152,
    "likely": 858,
    "##hood": 88,
    "happening": 224,
    "win": 932,
    "vs": 714,
    "crashes": 60,
    "frequently": 206,
    "nonetheless": 22,
    "incredibly": 88,
    "bored": 32,
    "considered": 626,
    "plunged": 6,
    "establish": 130,
    "printers": 98,
    "receipts": 14,
    "letters": 176,
    "specify": 152,
    "printer": 406,
    "print": 638,
    "handle": 380,
    "leave": 534,
    "move": 610,
    "circular": 52,
    "wi": 1028,
    "##dgets": 260,
    "release": 428,
    "love": 660,
    "knob": 30,
    "##dget": 592,
    "slide": 110,
    "dream": 110,
    "demands": 72,
    "sit": 154,
    "outstanding": 40,
    "issues": 524,
    "rep": 516,
    "##arat": 40,
    "##ions": 98,
    "recognition": 64,
    "properties": 90,
    "returned": 210,
    "rightful": 22,
    "owners": 248,
    "showed": 252,
    "region": 188,
    "subjected": 50,
    "genocide": 304,
    "beyond": 346,
    "belief": 488,
    "planned": 164,
    "##minate": 28,
    "tortured": 30,
    "massacre": 274,
    "millions": 154,
    "defense": 692,
    "civilians": 218,
    "assemble": 64,
    "innocent": 242,
    "mosques": 8,
    "burn": 126,
    "buildings": 84,
    "methods": 272,
    "traveler": 4,
    "seldom": 28,
    "stomach": 74,
    "recommend": 248,
    "references": 304,
    "##n": 1216,
    "1982": 212,
    "1978": 82,
    "nun": 22,
    "1970": 78,
    "cemetery": 14,
    "members": 564,
    "friends": 342,
    "gr": 282,
    "burial": 18,
    "killed": 746,
    "hugged": 12,
    "coffin": 22,
    "containing": 250,
    "remains": 152,
    "brother": 170,
    "atop": 8,
    "92": 1008,
    "weep": 18,
    "holding": 180,
    "relatives": 54,
    "yesterday": 222,
    "amid": 8,
    "died": 380,
    "seven": 202,
    "shot": 470,
    "chest": 64,
    "range": 418,
    "120": 276,
    "refugees": 82,
    "treated": 158,
    "hospital": 186,
    "include": 1088,
    "stab": 20,
    "wounds": 30,
    "28": 754,
    "leads": 240,
    "interpreter": 38,
    "preferred": 90,
    "address": 1118,
    "below": 578,
    "sic": 50,
    "wasn": 584,
    "rely": 124,
    "keep": 1350,
    "fe": 228,
    "##tish": 12,
    "##es": 988,
    "besides": 132,
    "beef": 32,
    "##sas": 26,
    "##se": 404,
    "##mble": 28,
    "molecular": 42,
    "level": 810,
    "flawless": 28,
    "cosmetic": 16,
    "surgery": 88,
    "store": 254,
    "shelf": 58,
    "priced": 58,
    "coded": 28,
    "goods": 50,
    "catch": 146,
    "errors": 332,
    "mentally": 22,
    "edit": 114,
    "spell": 70,
    "posed": 36,
    "caller": 36,
    "selling": 274,
    "genes": 58,
    "##mes": 58,
    "basic": 430,
    "units": 186,
    "culture": 230,
    "genetics": 16,
    "stand": 448,
    "brink": 10,
    "##me": 320,
    "amp": 276,
    "##fication": 98,
    "technologies": 110,
    "restricted": 92,
    "destructive": 38,
    "rampant": 12,
    "countryside": 12,
    "laying": 38,
    "waste": 226,
    "benefits": 146,
    "future": 652,
    "technology": 612,
    "offer": 676,
    "busy": 104,
    "whip": 22,
    "emotions": 40,
    "genetically": 14,
    "engineered": 30,
    "development": 456,
    "##venting": 18,
    "harmful": 42,
    "virtual": 196,
    "##met": 50,
    "##ic": 498,
    "delightful": 8,
    "message": 1048,
    "interesting": 672,
    "kindly": 18,
    "written": 742,
    "surprised": 210,
    "##pro": 228,
    "survey": 92,
    "roughly": 118,
    "gay": 306,
    "page": 342,
    "headline": 18,
    "effect": 676,
    "shocked": 32,
    "sex": 310,
    "although": 682,
    "promoting": 44,
    "lie": 242,
    "scare": 28,
    "politicians": 68,
    "obedience": 58,
    "typical": 236,
    "sorts": 124,
    "notice": 282,
    "aces": 2,
    "##sing": 124,
    "flop": 108,
    "##pies": 132,
    "everything": 880,
    "crawl": 22,
    "imagine": 310,
    "backup": 210,
    "##hing": 48,
    "fights": 18,
    "loses": 36,
    "glad": 166,
    "medium": 88,
    "supposedly": 126,
    "bus": 692,
    "favorite": 168,
    "340": 64,
    "faster": 448,
    "door": 388,
    "needs": 652,
    "handling": 152,
    "fly": 214,
    "seriously": 280,
    "alarm": 62,
    "certainly": 758,
    "done": 1522,
    "repeat": 176,
    "drill": 44,
    "hatch": 28,
    "hide": 134,
    "lock": 224,
    "00": 2646,
    "finally": 350,
    "escaped": 52,
    "cleaning": 64,
    "morning": 314,
    "##powered": 12,
    "office": 386,
    "fled": 70,
    "lab": 158,
    "heading": 70,
    "general": 1036,
    "export": 490,
    "lc": 232,
    "mit": 510,
    "nearly": 252,
    "per": 1402,
    "answers": 472,
    "con": 1610,
    "##tri": 498,
    "xv": 124,
    "blast": 72,
    "vacation": 48,
    "capital": 146,
    "guys": 320,
    "convince": 184,
    "everyone": 760,
    "unrest": 26,
    "##ricted": 10,
    "encryption": 1038,
    "mole": 68,
    "##ster": 78,
    "word": 1012,
    "suspect": 376,
    "convicted": 60,
    "operating": 212,
    "drug": 396,
    "ring": 126,
    "jail": 72,
    "cells": 134,
    "enforcement": 470,
    "agency": 212,
    "conducting": 54,
    "wire": 718,
    "political": 518,
    "opponent": 82,
    "senior": 46,
    "administration": 262,
    "official": 306,
    "intercept": 56,
    "conversation": 156,
    "changes": 386,
    "interpretation": 226,
    "event": 468,
    "yes": 548,
    "sense": 764,
    "security": 700,
    "agencies": 366,
    "justification": 104,
    "deny": 184,
    "##on": 604,
    "##ven": 124,
    "##ient": 106,
    "impossible": 312,
    "abuses": 64,
    "minimize": 44,
    "allowing": 180,
    "legitimate": 258,
    "huh": 74,
    "predict": 110,
    "debut": 6,
    "full": 1068,
    "technical": 392,
    "sci": 520,
    "crypt": 1166,
    "impact": 210,
    "es": 744,
    "##crow": 498,
    "system": 3436,
    "lied": 32,
    "##os": 364,
    "##yst": 208,
    "##em": 314,
    "withstand": 22,
    "scrutiny": 38,
    "algorithm": 520,
    "##co": 240,
    "##gni": 52,
    "##zed": 146,
    "vu": 58,
    "##ln": 56,
    "##era": 82,
    "##bilities": 44,
    "decade": 78,
    "gotta": 50,
    "careful": 186,
    "showing": 204,
    "male": 156,
    "homosexual": 302,
    "partners": 76,
    "apparent": 132,
    "dramatically": 46,
    "prom": 94,
    "##cu": 190,
    "admit": 264,
    "member": 344,
    "sexual": 186,
    "homosexuality": 156,
    "highly": 320,
    "##cious": 22,
    "writes": 232,
    "versions": 352,
    "expert": 134,
    "referenced": 26,
    "above": 1472,
    "unix": 166,
    "discussed": 216,
    "mixed": 86,
    "confused": 138,
    "##fu": 64,
    "##ddled": 2,
    "genuinely": 20,
    "entirely": 320,
    "load": 300,
    "forever": 106,
    "held": 430,
    "walk": 178,
    "campus": 70,
    "spring": 144,
    "##ailed": 6,
    "fire": 662,
    "br": 92,
    "##im": 154,
    "##stone": 6,
    "preacher": 22,
    "metaphor": 62,
    "limited": 436,
    "respect": 346,
    "teaching": 162,
    "criminal": 328,
    "trusting": 6,
    "aspects": 176,
    "religion": 772,
    "package": 996,
    "graphics": 894,
    "library": 442,
    "ru": 52,
    "##diment": 10,
    "##ry": 682,
    "tasks": 68,
    "hidden": 134,
    "removal": 44,
    "##ding": 254,
    "recommendations": 76,
    "others": 1374,
    "actual": 348,
    "classified": 148,
    "thrust": 74,
    "cellular": 132,
    "phones": 184,
    "radio": 410,
    "identify": 126,
    "##pl": 358,
    "court": 466,
    "orders": 164,
    "magic": 106,
    "present": 602,
    "house": 474,
    "fraction": 68,
    "final": 430,
    "component": 92,
    "average": 484,
    "instance": 288,
    "heads": 222,
    "platt": 28,
    "expensive": 356,
    "parts": 632,
    "assembly": 132,
    "third": 680,
    "electronics": 140,
    "noise": 204,
    "numbers": 776,
    "percentage": 156,
    "=": 80766,
    "exclusive": 66,
    "entire": 488,
    "sets": 250,
    "enhanced": 68,
    "fails": 142,
    "204": 110,
    "bytes": 298,
    "nowhere": 72,
    "near": 616,
    "click": 92,
    "var": 52,
    "##ible": 216,
    "shell": 318,
    "setting": 328,
    "value": 824,
    "behavior": 246,
    "fail": 200,
    "##fi": 576,
    "##gur": 154,
    "timing": 146,
    "vertical": 70,
    "porch": 6,
    "composite": 48,
    "sync": 146,
    "odd": 134,
    "tearing": 28,
    "top": 860,
    "sensitive": 126,
    "expect": 618,
    "scanned": 52,
    "fields": 202,
    "onto": 236,
    "sheet": 138,
    "##lar": 108,
    "pinched": 8,
    "corner": 170,
    "fingers": 74,
    "tear": 120,
    "tube": 148,
    "##izing": 154,
    "pulses": 22,
    "inter": 456,
    "##lace": 54,
    "rock": 104,
    "turns": 192,
    "accurate": 238,
    "bet": 224,
    "vendors": 132,
    "interests": 166,
    "institute": 14,
    "voluntary": 78,
    "equipped": 70,
    "individuals": 246,
    "corporations": 32,
    "determined": 162,
    "basis": 436,
    "language": 490,
    "gun": 1250,
    "bills": 74,
    "pushing": 80,
    "otherwise": 464,
    "supporting": 156,
    "rational": 220,
    "excuses": 38,
    "fed": 144,
    "media": 426,
    "cases": 656,
    "items": 254,
    "accident": 160,
    "philosophy": 136,
    "controls": 170,
    "controlling": 62,
    "##connected": 12,
    "defend": 194,
    "ea": 124,
    "##ves": 98,
    "##drop": 70,
    "##ping": 212,
    "unlawful": 36,
    "totally": 304,
    "unacceptable": 36,
    "outlook": 8,
    "cards": 540,
    "chips": 572,
    "##code": 362,
    "passport": 20,
    "guise": 14,
    "stream": 374,
    "##lining": 36,
    "jewels": 2,
    "sees": 92,
    "extremely": 212,
    "ominous": 10,
    "trend": 66,
    "1984": 128,
    "late": 440,
    "turning": 134,
    "amazingly": 16,
    "prophecy": 136,
    "wake": 52,
    "hurry": 30,
    "warning": 148,
    "bell": 66,
    "danger": 116,
    "flag": 134,
    "seeks": 26,
    "itself": 714,
    "apart": 162,
    "regard": 194,
    "##pr": 154,
    "##iv": 70,
    "##ile": 72,
    "##ged": 140,
    "citizen": 152,
    "ne": 364,
    "##bu": 362,
    "##lous": 18,
    "safeguard": 68,
    "maintaining": 74,
    "rogue": 10,
    "allowed": 432,
    "safe": 366,
    "duplicate": 42,
    "combination": 128,
    "submitted": 60,
    "##keeping": 16,
    "difference": 802,
    "philosophical": 52,
    "eva": 62,
    "##por": 26,
    "tools": 398,
    "cp": 144,
    "46": 594,
    "201": 62,
    "1991": 416,
    "resolution": 252,
    "45": 1130,
    "183": 30,
    "account": 374,
    "int": 584,
    "##ada": 36,
    "economic": 270,
    "social": 292,
    "policies": 184,
    "restrictions": 124,
    "external": 288,
    "losses": 54,
    "result": 620,
    "crisis": 82,
    "increasing": 108,
    "develop": 274,
    "economy": 192,
    "persist": 38,
    "report": 484,
    "appreciation": 10,
    "##vern": 14,
    "##mental": 4,
    "governmental": 44,
    "organizations": 256,
    "provided": 400,
    "international": 264,
    "community": 408,
    "sustain": 26,
    "increase": 366,
    "cooperation": 100,
    "treatment": 290,
    "transit": 18,
    "exports": 24,
    "imports": 12,
    "neighbouring": 10,
    "ports": 198,
    "exit": 158,
    "calls": 396,
    "granting": 18,
    "concessions": 26,
    "concrete": 60,
    "prefer": 452,
    "##ential": 18,
    "measures": 132,
    "certificates": 14,
    "origin": 148,
    "immediate": 100,
    "lifting": 64,
    "obstacles": 32,
    "hind": 26,
    "##ering": 62,
    "projects": 176,
    "providing": 228,
    "223": 84,
    "##ci": 376,
    "##lita": 8,
    "establishment": 84,
    "banks": 92,
    "investment": 132,
    "income": 122,
    "47th": 2,
    "session": 254,
    "sham": 12,
    "voters": 26,
    "accepting": 76,
    "borrow": 30,
    "spend": 302,
    "expand": 106,
    "charge": 334,
    "trillion": 36,
    "credit": 200,
    "deal": 770,
    "spending": 148,
    "expands": 22,
    "short": 782,
    "term": 610,
    "shrink": 40,
    "numerous": 136,
    "reasons": 470,
    "taxpayers": 24,
    "kept": 372,
    "campaign": 110,
    "budget": 242,
    "1983": 154,
    "raise": 166,
    "taxes": 194,
    "pun": 84,
    "deficit": 96,
    "awhile": 22,
    "collect": 90,
    "matter": 962,
    "graduate": 64,
    "major": 722,
    "background": 314,
    "experienced": 142,
    "programmer": 134,
    "##ology": 122,
    "##word": 52,
    "alleged": 102,
    "filters": 66,
    "sk": 92,
    "physics": 144,
    "age": 386,
    "fl": 108,
    "##ake": 92,
    "expectations": 50,
    "colors": 346,
    "talk": 748,
    "##age": 274,
    "geek": 14,
    "enjoys": 22,
    "squash": 22,
    "science": 574,
    "write": 848,
    "occasional": 58,
    "posts": 482,
    "minimal": 116,
    "mythology": 14,
    "react": 56,
    "differently": 92,
    "groups": 816,
    "admitted": 128,
    "contra": 168,
    "##rian": 2,
    "shouts": 18,
    "##ath": 46,
    "certainty": 62,
    "positions": 178,
    "challenge": 110,
    "conventional": 104,
    "wisdom": 106,
    "luck": 286,
    "figuring": 36,
    "based": 1642,
    "liberal": 128,
    "degree": 220,
    "humanist": 22,
    "thread": 272,
    "describes": 138,
    "portion": 150,
    "users": 666,
    "incorrect": 130,
    "assumption": 154,
    "processing": 298,
    "sugar": 68,
    "bee": 102,
    "f": 840,
    "##ol": 124,
    "sodium": 16,
    "chloride": 4,
    "excess": 54,
    "symptoms": 140,
    "except": 712,
    "rapid": 44,
    "heartbeat": 6,
    "uncomfortable": 34,
    "feeling": 212,
    "pressure": 318,
    "quadrant": 8,
    "1969": 62,
    "friend": 584,
    "kids": 252,
    "hiking": 12,
    "##olate": 16,
    "mountain": 58,
    "sudden": 66,
    "large": 1102,
    "rocks": 76,
    "began": 254,
    "saw": 814,
    "punk": 8,
    "glee": 14,
    "##fully": 60,
    "letting": 102,
    "loose": 86,
    "##ash": 12,
    "feet": 270,
    "screaming": 24,
    "cover": 574,
    "shriek": 2,
    "laughter": 20,
    "yelled": 10,
    "knock": 66,
    "responded": 116,
    "drew": 22,
    "pistols": 12,
    "fired": 194,
    "trees": 52,
    "ran": 314,
    "pound": 60,
    "proceeded": 42,
    "journey": 38,
    "let": 1476,
    "evolve": 32,
    "violent": 164,
    "understand": 944,
    "cope": 24,
    "anger": 84,
    "society": 434,
    "##till": 6,
    "cross": 456,
    "patch": 196,
    "optional": 132,
    "ol": 134,
    "##it": 378,
    "##pile": 200,
    "clients": 224,
    "b": 940,
    "##mt": 46,
    "##oa": 82,
    "##pc": 42,
    "##ct": 386,
    "gram": 20,
    "lex": 6,
    "events": 434,
    "res": 356,
    "ut": 260,
    "##il": 158,
    "##mg": 66,
    "##rso": 170,
    "icons": 62,
    "li": 578,
    "extensions": 92,
    "##so": 170,
    "##cke": 14,
    "##ns": 306,
    "##l": 1566,
    "ld": 80,
    "attempted": 96,
    "inclusion": 32,
    "symbol": 70,
    "referencing": 18,
    "code": 1202,
    "gang": 96,
    "##firmed": 8,
    "rumor": 50,
    "disappeared": 56,
    "confirm": 64,
    "judge": 274,
    "denied": 98,
    "trial": 298,
    "motion": 112,
    "witnesses": 96,
    "truck": 140,
    "kind": 1164,
    "scary": 48,
    "realize": 342,
    "judges": 136,
    "denying": 44,
    "trials": 70,
    "##dict": 170,
    "led": 238,
    "previous": 412,
    "ruling": 64,
    "appear": 406,
    "believed": 238,
    "jury": 68,
    "shows": 394,
    "pro": 826,
    "##claiming": 16,
    "bias": 140,
    "old": 1614,
    "verdict": 52,
    "ju": 56,
    "##ror": 54,
    "objective": 376,
    "wants": 510,
    "bars": 82,
    "reaction": 168,
    "##ary": 104,
    "conspiracy": 84,
    "theory": 428,
    "idiots": 42,
    "rave": 18,
    "erosion": 16,
    "pop": 196,
    "##uli": 22,
    "eli": 48,
    "##tist": 18,
    "eventual": 24,
    "undo": 40,
    "arrogant": 94,
    "tide": 2,
    "sweeping": 32,
    "begin": 306,
    "er": 384,
    "##rant": 76,
    "robbed": 16,
    "freedoms": 42,
    "ar": 544,
    "##rogen": 8,
    "socialist": 38,
    "entertaining": 20,
    "conclusions": 132,
    "sends": 42,
    "##aries": 170,
    "roof": 52,
    "##atory": 12,
    "si": 212,
    "##zzling": 10,
    "debating": 28,
    "skills": 114,
    "lacking": 62,
    "leftist": 22,
    "ideology": 32,
    "hopes": 60,
    "concentrated": 32,
    "loaded": 198,
    "defined": 298,
    "academics": 20,
    "movement": 208,
    "acute": 44,
    "##op": 204,
    "perspective": 150,
    "arrogance": 72,
    "utter": 62,
    "stupidity": 38,
    "perfect": 386,
    "opponents": 56,
    "established": 250,
    "pol": 68,
    "##itic": 10,
    "arguing": 124,
    "virtually": 138,
    "elimination": 22,
    "tired": 92,
    "operates": 40,
    "ought": 146,
    "hopeless": 18,
    "closed": 274,
    "minds": 136,
    "specific": 698,
    "incident": 136,
    "regarding": 346,
    "nor": 492,
    "prohibiting": 52,
    "exercise": 116,
    "thereof": 52,
    "translation": 202,
    "districts": 20,
    "iconic": 6,
    "content": 186,
    "displays": 182,
    "imp": 386,
    "##osition": 32,
    "job": 600,
    "historical": 198,
    "modern": 304,
    "communication": 154,
    "deleted": 518,
    "profound": 20,
    "proportions": 14,
    "##ful": 398,
    "success": 220,
    "attribute": 64,
    "primarily": 186,
    "differences": 252,
    "successful": 202,
    "operation": 318,
    "knee": 48,
    "resentment": 6,
    "lottery": 6,
    "winners": 120,
    "cong": 46,
    "##rat": 70,
    "##ulate": 116,
    "fortune": 14,
    "hardest": 14,
    "centralized": 8,
    "partnership": 24,
    "indeed": 384,
    "nemesis": 2,
    "literary": 14,
    "piece": 308,
    "recent": 440,
    "venom": 16,
    "murdered": 126,
    "racism": 56,
    "tone": 120,
    "neglect": 34,
    "listened": 40,
    "continuously": 42,
    "encourages": 18,
    "audience": 74,
    "blindly": 34,
    "included": 628,
    "bones": 50,
    "strictly": 62,
    "adopt": 60,
    "satirical": 4,
    "##sume": 70,
    "intelligent": 96,
    "distinguish": 76,
    "satire": 10,
    "seriousness": 8,
    "contrast": 96,
    "mass": 316,
    "intellectual": 100,
    "lowest": 68,
    "den": 224,
    "##omi": 44,
    "##nator": 20,
    "kidding": 52,
    "##minated": 58,
    "##verse": 24,
    "worship": 218,
    "unlikely": 178,
    "characterization": 24,
    "highest": 178,
    "fits": 124,
    "doctrine": 184,
    "religious": 600,
    "vastly": 30,
    "record": 500,
    "funded": 92,
    "history": 716,
    "suppose": 270,
    "pointing": 96,
    "equivalent": 238,
    "reaching": 60,
    "wee": 46,
    "suggestion": 146,
    "entertainment": 28,
    "industry": 292,
    "advocate": 58,
    "criticism": 84,
    "##ave": 42,
    "##po": 102,
    "##uses": 34,
    "ad": 586,
    "##vocation": 20,
    "teach": 144,
    "early": 632,
    "hyper": 60,
    "##bol": 24,
    "indicates": 164,
    "##uated": 10,
    "implicit": 68,
    "plea": 20,
    "career": 198,
    "selected": 182,
    "cat": 234,
    "##ego": 24,
    "##rization": 4,
    "larger": 258,
    "represented": 58,
    "populace": 18,
    "sound": 682,
    "unreasonable": 48,
    "##uation": 20,
    "fashion": 88,
    "reporters": 48,
    "personal": 626,
    "##uous": 52,
    "mega": 154,
    "##lom": 16,
    "##ania": 10,
    "##cal": 116,
    "##ager": 16,
    "##rated": 118,
    "unlike": 114,
    "reporting": 68,
    "pu": 146,
    "##rp": 98,
    "##ort": 116,
    "achieve": 114,
    "##ivity": 62,
    "reflect": 74,
    "oppose": 62,
    "##pressing": 36,
    "##ia": 176,
    "tires": 182,
    "##ome": 114,
    "paradigm": 16,
    "##iting": 8,
    "conservative": 86,
    "engaging": 36,
    "lu": 162,
    "##dic": 68,
    "##rous": 52,
    "comparisons": 56,
    "##ning": 86,
    "challenged": 36,
    "##cie": 96,
    "mon": 92,
    "##ger": 108,
    "spreading": 34,
    "hatred": 92,
    "reverse": 154,
    "involvement": 74,
    "fascism": 12,
    "levels": 254,
    "taxation": 20,
    "skipped": 10,
    "vocabulary": 6,
    "classes": 152,
    "grade": 92,
    "million": 594,
    "##ned": 66,
    "hooked": 44,
    "op": 310,
    "##iate": 44,
    "addicted": 10,
    "analogy": 108,
    "closer": 168,
    "##written": 40,
    "em": 592,
    "aerial": 12,
    "surveillance": 92,
    "fires": 40,
    "press": 440,
    "conference": 268,
    "reporter": 54,
    "##rain": 2,
    "##gement": 12,
    "shouted": 46,
    "knocking": 36,
    "lanterns": 6,
    "1st": 408,
    "abbreviated": 2,
    "pretend": 68,
    "descend": 16,
    "study": 616,
    "claims": 456,
    "descendant": 10,
    "learn": 424,
    "experiments": 76,
    "tony": 18,
    "wayne": 14,
    "uv": 22,
    "##38": 132,
    "virginia": 40,
    "okay": 144,
    "attacking": 110,
    "soldiers": 348,
    "claim": 862,
    "confusing": 86,
    "explaining": 78,
    "exactly": 714,
    "##missible": 24,
    "shields": 22,
    "conditions": 232,
    "particular": 788,
    "terrorists": 112,
    "launch": 506,
    "missiles": 30,
    "helmet": 174,
    "passed": 346,
    "ok": 216,
    "save": 528,
    "dropped": 142,
    "##hd": 18,
    "##rator": 36,
    "easily": 498,
    "heat": 270,
    "watt": 50,
    "bulb": 46,
    "wooden": 24,
    "box": 590,
    "ventilation": 12,
    "holes": 146,
    "air": 486,
    "flow": 152,
    "cake": 24,
    "racks": 12,
    "spaced": 16,
    "electricity": 52,
    "oven": 36,
    "electric": 124,
    "gas": 502,
    "low": 846,
    "dried": 24,
    "cookie": 24,
    "tin": 68,
    "140": 146,
    "degrees": 150,
    "spoon": 8,
    "stays": 44,
    "inch": 124,
    "##flow": 22,
    "dr": 198,
    "##hy": 80,
    "##dra": 34,
    "sheets": 72,
    "halfway": 16,
    "sub": 834,
    "gerald": 2,
    "belt": 92,
    "ozone": 84,
    "##hole": 40,
    "miss": 146,
    "aim": 64,
    "improving": 42,
    "riding": 212,
    "cities": 236,
    "came": 1190,
    "conflict": 216,
    "police": 684,
    "lane": 84,
    "splitting": 24,
    "listed": 240,
    "earlier": 354,
    "anti": 752,
    "kindness": 12,
    "continue": 466,
    "##za": 40,
    "##bo": 148,
    "##book": 62,
    "07": 258,
    "via": 826,
    "71": 534,
    "markets": 44,
    "illumination": 8,
    "orbiting": 38,
    "mirrors": 106,
    "##vir": 22,
    "##nt": 436,
    "disaster": 70,
    "##iter": 32,
    "developed": 372,
    "tourism": 10,
    "relay": 86,
    "satellites": 180,
    "ta": 104,
    "sarcasm": 44,
    "stop": 700,
    "screwed": 84,
    "given": 1188,
    "drugs": 310,
    "legal": 670,
    "illegal": 316,
    "lively": 4,
    "sac": 62,
    "##raf": 12,
    "##ice": 86,
    "insurance": 392,
    "rates": 334,
    "bikes": 194,
    "##ure": 140,
    "127": 120,
    "27": 936,
    "ground": 806,
    "dealer": 282,
    "completion": 32,
    "ride": 254,
    "properly": 312,
    "beginning": 328,
    "motorcycle": 180,
    "naked": 30,
    "280": 102,
    "1760": 10,
    "echoed": 12,
    "reports": 398,
    "wonder": 354,
    "amused": 14,
    "alternative": 250,
    "award": 98,
    "practitioners": 18,
    "twice": 234,
    "rate": 710,
    "diseases": 126,
    "patients": 336,
    "##rable": 20,
    "disease": 332,
    "strikes": 52,
    "nine": 118,
    "##urable": 16,
    "cure": 112,
    "91": 626,
    "therapy": 86,
    "##tre": 100,
    "##atable": 52,
    "ethical": 76,
    "##sp": 382,
    "##ense": 40,
    "##bos": 10,
    "mathematics": 38,
    "hope": 848,
    "calculations": 76,
    "610": 88,
    "03": 578,
    "switch": 442,
    "smaller": 226,
    "configuration": 196,
    "512": 102,
    "adapt": 320,
    "##or": 536,
    "83": 378,
    "62": 410,
    "discovered": 186,
    "plug": 328,
    "##ging": 134,
    "scrolling": 30,
    "enter": 220,
    "flaw": 40,
    "listening": 136,
    "finding": 204,
    "color": 1208,
    "##bs": 186,
    "v": 626,
    "exists": 440,
    "somewhere": 360,
    "bin": 270,
    "##xed": 24,
    "sony": 14,
    "1604": 14,
    "pick": 422,
    "missing": 304,
    "driver": 708,
    "along": 600,
    "figured": 88,
    "concurrently": 8,
    "kin": 16,
    "##ks": 72,
    "compiled": 142,
    "warnings": 52,
    "appropriate": 452,
    "flags": 54,
    "interface": 576,
    "supported": 346,
    "socket": 118,
    "ioc": 62,
    "server": 1108,
    "fix": 434,
    "respond": 306,
    "immortal": 20,
    "##ized": 316,
    "dying": 74,
    "straight": 324,
    "unit": 502,
    "easy": 666,
    "##ons": 262,
    "##truct": 84,
    "transmission": 172,
    "pairs": 58,
    "##sto": 42,
    "nasty": 78,
    "taps": 14,
    "necessary": 616,
    "distrust": 22,
    "game": 1546,
    "goal": 620,
    "59": 444,
    "3rd": 278,
    "period": 906,
    "beer": 44,
    "imaginary": 24,
    "results": 522,
    "##cure": 14,
    "becomes": 266,
    "argue": 272,
    "una": 222,
    "##pp": 174,
    "##roved": 20,
    "concern": 154,
    "camel": 18,
    "nose": 104,
    "tent": 14,
    "hum": 44,
    "became": 322,
    "trivial": 102,
    "scheme": 248,
    "proposed": 278,
    "digit": 160,
    "##ial": 214,
    "restraints": 20,
    "##ography": 278,
    "pm": 166,
    "##etz": 40,
    "shear": 60,
    "##son": 112,
    "riders": 74,
    "league": 426,
    "coach": 148,
    "##ub": 74,
    "finish": 134,
    "offensive": 182,
    "##ago": 72,
    "starter": 62,
    "fade": 28,
    "strike": 102,
    "##pie": 26,
    "##rien": 8,
    "##ce": 460,
    "su": 288,
    "##gg": 60,
    "##ito": 20,
    "macintosh": 10,
    "35": 830,
    "pitching": 190,
    "staff": 152,
    "again": 1572,
    "exhibition": 24,
    "shut": 218,
    "##outs": 98,
    "gotten": 250,
    "baseball": 328,
    "contend": 54,
    "fans": 272,
    "teams": 474,
    "records": 156,
    "managing": 34,
    "gives": 448,
    "damn": 196,
    "contenders": 14,
    "fifth": 134,
    "four": 678,
    "rotation": 90,
    "##are": 46,
    "##nl": 30,
    "resigned": 22,
    "signed": 146,
    "released": 258,
    "ci": 296,
    "##um": 236,
    "##vent": 94,
    "rule": 356,
    "resigning": 2,
    "agents": 236,
    "neither": 316,
    "bright": 72,
    "##jon": 14,
    "donald": 10,
    "aix": 14,
    "kingston": 12,
    "ibm": 140,
    "athena": 24,
    "model": 632,
    "application": 860,
    "dial": 192,
    "##og": 194,
    "gets": 652,
    "popped": 38,
    "field": 470,
    "focus": 172,
    "perfectly": 206,
    "pure": 130,
    "relevant": 242,
    "##gs": 304,
    "initial": 258,
    "void": 112,
    "greeting": 16,
    "recall": 308,
    "seeing": 280,
    "blur": 42,
    "kit": 132,
    "magazines": 112,
    "norway": 4,
    "pulled": 144,
    "mo": 336,
    "##uld": 16,
    "sp": 516,
    "ku": 66,
    "adapted": 48,
    "beetle": 4,
    "floor": 234,
    "##pan": 44,
    "suspension": 84,
    "travel": 132,
    "stock": 192,
    "market": 542,
    "road": 438,
    "hood": 42,
    "fender": 24,
    "spare": 128,
    "mounted": 94,
    "slope": 30,
    "visibility": 8,
    "sharply": 16,
    "rounded": 20,
    "lightly": 36,
    "luggage": 8,
    "##xa": 62,
    "##gon": 236,
    "shaped": 58,
    "nut": 86,
    "tire": 140,
    "unfortunately": 100,
    "stopping": 82,
    "bookstore": 46,
    "copying": 48,
    "mag": 132,
    "calling": 320,
    "calculate": 42,
    "kc": 34,
    "89": 506,
    "odds": 48,
    "pull": 262,
    "bodily": 44,
    "##ifice": 14,
    "prominent": 50,
    "involved": 606,
    "apologize": 86,
    "standings": 76,
    "update": 134,
    "153": 72,
    "157": 58,
    "148": 94,
    "149": 106,
    "152": 110,
    "##9": 2248,
    "143": 92,
    "151": 74,
    "47": 522,
    "141": 98,
    "68": 446,
    "145": 1596,
    "142": 112,
    "31": 616,
    "147": 212,
    "42": 626,
    "139": 70,
    "138": 80,
    "144": 186,
    "32": 1124,
    "136": 90,
    "40": 1428,
    "giants": 10,
    "137": 92,
    "1400": 54,
    "135": 120,
    "134": 98,
    "131": 90,
    "130": 272,
    "128": 554,
    "52": 394,
    "132": 142,
    "33": 680,
    "133": 146,
    "129": 198,
    "123": 102,
    "34": 1160,
    "126": 84,
    "125": 188,
    "36": 788,
    "101": 358,
    "37": 754,
    "122": 114,
    "118": 108,
    "43": 652,
    "44": 694,
    "116": 100,
    "124": 94,
    "87": 328,
    "119": 104,
    "legion": 10,
    "54": 498,
    "55": 1010,
    "51": 670,
    "53": 398,
    "115": 144,
    "56": 442,
    "57": 482,
    "58": 452,
    "sport": 162,
    "hockey": 502,
    "choices": 108,
    "63": 426,
    "buffalo": 40,
    "114": 130,
    "##my": 22,
    "##ba": 118,
    "##by": 248,
    "121": 102,
    "117": 158,
    "67": 352,
    "72": 462,
    "69": 356,
    "70": 812,
    "smith": 20,
    "73": 418,
    "110": 260,
    "77": 436,
    "shooting": 172,
    "seamen": 4,
    "76": 500,
    "111": 292,
    "78": 408,
    "79": 392,
    "112": 134,
    "88": 424,
    "81": 482,
    "1086": 2,
    "164": 38,
    "85": 472,
    "82": 458,
    "113": 118,
    "108": 142,
    "84": 378,
    "garry": 8,
    "##ola": 26,
    "86": 614,
    "94": 496,
    "106": 212,
    "98": 292,
    "97": 340,
    "99": 386,
    "109": 156,
    "105": 230,
    "103": 226,
    "102": 494,
    "104": 198,
    "107": 140,
    "gary": 8,
    "bout": 42,
    "163": 72,
    "156": 50,
    "146": 116,
    "convex": 28,
    "stars": 122,
    "160": 146,
    "154": 134,
    "155": 82,
    "159": 56,
    "174": 46,
    "162": 54,
    "980": 20,
    "161": 96,
    "fur": 54,
    "##ley": 38,
    "173": 22,
    "165": 48,
    "158": 70,
    "166": 22,
    "167": 70,
    "175": 74,
    "168": 44,
    "169": 42,
    "178": 40,
    "170": 94,
    "171": 40,
    "172": 64,
    "176": 42,
    "pine": 12,
    "177": 44,
    "185": 54,
    "179": 44,
    "186": 34,
    "180": 90,
    "182": 82,
    "181": 38,
    "187": 36,
    "189": 36,
    "184": 50,
    "188": 46,
    "voyage": 8,
    "##urs": 34,
    "190": 54,
    "930": 44,
    "191": 24,
    "197": 22,
    "192": 136,
    "193": 28,
    "194": 30,
    "198": 66,
    "195": 50,
    "196": 52,
    "199": 78,
    "950": 110,
    "209": 44,
    "200": 534,
    "207": 74,
    "202": 168,
    "205": 118,
    "203": 52,
    "208": 54,
    "206": 98,
    "210": 128,
    "960": 102,
    "211": 72,
    "213": 96,
    "212": 124,
    "219": 64,
    "214": 102,
    "215": 72,
    "216": 54,
    "217": 72,
    "218": 36,
    "220": 130,
    "221": 94,
    "222": 98,
    "fred": 18,
    "mc": 134,
    "##kim": 10,
    "400": 332,
    "224": 52,
    "pig": 52,
    "vomit": 16,
    "225": 104,
    "226": 56,
    "227": 82,
    "228": 32,
    "dayton": 6,
    "bomber": 16,
    "236": 34,
    "229": 38,
    "232": 56,
    "233": 60,
    "237": 40,
    "234": 44,
    "235": 48,
    "238": 50,
    "239": 30,
    "240": 224,
    "242": 42,
    "241": 44,
    "246": 52,
    "243": 42,
    "910": 30,
    "244": 34,
    "245": 62,
    "247": 24,
    "248": 60,
    "##tc": 52,
    "900": 218,
    "249": 50,
    "##runner": 22,
    "250": 446,
    "251": 46,
    "253": 86,
    "252": 58,
    "254": 48,
    "255": 108,
    "820": 24,
    "256": 406,
    "257": 40,
    "les": 26,
    "258": 36,
    "259": 40,
    "260": 90,
    "261": 44,
    "262": 48,
    "andrew": 92,
    "ida": 26,
    "##com": 394,
    "hp": 214,
    "403": 26,
    "06": 466,
    "##66": 90,
    "remembers": 10,
    "suicide": 144,
    "persecution": 92,
    "capture": 86,
    "raid": 66,
    "reminiscent": 10,
    "fitting": 54,
    "marking": 6,
    "50th": 4,
    "ann": 130,
    "##iver": 32,
    "##ser": 104,
    "dates": 78,
    "raids": 14,
    "troops": 224,
    "uniforms": 46,
    "carrying": 204,
    "automatic": 248,
    "backed": 80,
    "armored": 68,
    "vehicles": 128,
    "minorities": 100,
    "practicing": 42,
    "sexually": 26,
    "devi": 64,
    "ho": 262,
    "##arding": 14,
    "ps": 250,
    "tr": 218,
    "##ou": 72,
    "##bling": 80,
    "david": 70,
    "increasingly": 52,
    "becoming": 150,
    "annoying": 104,
    "especially": 690,
    "ally": 14,
    "protector": 26,
    "mentor": 14,
    "##rent": 36,
    "professional": 172,
    "thief": 32,
    "vehicle": 302,
    "thieves": 12,
    "ignition": 40,
    "kill": 624,
    "fuel": 214,
    "decent": 246,
    "steering": 106,
    "wheel": 186,
    "sufficient": 234,
    "persuade": 46,
    "target": 176,
    "jack": 100,
    "helped": 168,
    "somewhat": 262,
    "anonymous": 832,
    "nc": 224,
    "##sl": 164,
    "gov": 622,
    "pub": 1078,
    "##ne": 300,
    "##ws": 116,
    "301": 128,
    "##17": 96,
    "announced": 274,
    "initiative": 106,
    "bring": 436,
    "improve": 188,
    "privacy": 616,
    "telephone": 270,
    "communications": 340,
    "meeting": 278,
    "involve": 124,
    "products": 366,
    "accelerate": 38,
    "advanced": 124,
    "telecommunications": 82,
    "networks": 152,
    "wireless": 30,
    "links": 86,
    "dialogue": 34,
    "private": 686,
    "sector": 160,
    "resolve": 68,
    "tension": 78,
    "vital": 52,
    "challenges": 44,
    "protecting": 110,
    "accommodate": 36,
    "competing": 68,
    "growth": 134,
    "pitted": 10,
    "electronic": 288,
    "funds": 220,
    "secrets": 54,
    "unauthorized": 52,
    "dealers": 186,
    "criminals": 306,
    "micro": 314,
    "##uit": 114,
    "engineers": 82,
    "represents": 88,
    "relatively": 208,
    "inexpensive": 78,
    "attached": 132,
    "ordinary": 140,
    "scramble": 34,
    "powerful": 204,
    "commercial": 484,
    "proprietary": 74,
    "conversations": 150,
    "transmitted": 82,
    "electronically": 48,
    "preserves": 18,
    "lawful": 58,
    "ensure": 148,
    "ab": 444,
    "##idi": 148,
    "##ng": 400,
    "unique": 150,
    "authorized": 106,
    "deco": 228,
    "messages": 340,
    "encoded": 38,
    "manufactured": 62,
    "deposited": 18,
    "separately": 96,
    "bases": 116,
    "officials": 208,
    "authorization": 68,
    "conduct": 134,
    "provides": 394,
    "authorities": 228,
    "effectiveness": 48,
    "purchase": 254,
    "thousand": 176,
    "addition": 462,
    "respected": 50,
    "experts": 180,
    "offered": 186,
    "confidential": 64,
    "assess": 38,
    "capabilities": 156,
    "step": 348,
    "addressing": 94,
    "dual": 140,
    "edge": 250,
    "sword": 58,
    "helps": 258,
    "shield": 50,
    "approaches": 94,
    "activities": 246,
    "trends": 30,
    "explore": 40,
    "directed": 140,
    "comprehensive": 146,
    "employ": 52,
    "voice": 384,
    "purposes": 266,
    "timely": 20,
    "promote": 106,
    "competitive": 72,
    "global": 148,
    "marketplace": 24,
    "manufacture": 80,
    "frequent": 70,
    "consultation": 36,
    "affected": 108,
    "industries": 58,
    "spur": 44,
    "unprecedented": 18,
    "infrastructure": 72,
    "##hi": 142,
    "##gh": 68,
    "##ways": 18,
    "transmit": 94,
    "images": 646,
    "programming": 300,
    "role": 298,
    "consistent": 210,
    "accompanying": 34,
    "provisions": 34,
    "directive": 52,
    "acquire": 76,
    "additional": 316,
    "275": 86,
    "listen": 224,
    "smuggling": 38,
    "##yp": 634,
    "##ted": 798,
    "##her": 170,
    "obtain": 304,
    "documentation": 264,
    "entities": 60,
    "responsible": 316,
    "smug": 50,
    "##glers": 18,
    "split": 190,
    "oversee": 16,
    "readily": 88,
    "invite": 32,
    "panel": 232,
    "evaluate": 66,
    "assure": 58,
    "potential": 302,
    "decision": 340,
    "propose": 74,
    "product": 524,
    "endorsed": 40,
    "consulted": 46,
    "discussions": 192,
    "##ify": 126,
    "carry": 466,
    "review": 240,
    "brief": 122,
    "leaders": 240,
    "manufacturers": 220,
    "produces": 128,
    "programs": 994,
    "facility": 114,
    "licensed": 86,
    "buy": 908,
    "incorporating": 12,
    "unable": 174,
    "technological": 48,
    "##med": 170,
    "restrict": 106,
    "fundamental": 258,
    "broad": 104,
    "mechanism": 198,
    "convenient": 126,
    "developing": 136,
    "threatens": 22,
    "safety": 386,
    "prohibit": 88,
    "outright": 50,
    "countries": 376,
    "effectively": 156,
    "entitled": 90,
    "##break": 50,
    "created": 486,
    "assessment": 40,
    "proposition": 90,
    "concerns": 112,
    "harmon": 24,
    "##iously": 20,
    "reasoned": 40,
    "techniques": 190,
    "indicate": 156,
    "differ": 94,
    "computing": 78,
    "innovative": 30,
    "ways": 454,
    "businesses": 74,
    "compete": 98,
    "terrorism": 96,
    "lest": 24,
    "nap": 22,
    "wood": 72,
    "stove": 62,
    "ign": 22,
    "##ite": 100,
    "warm": 70,
    "cold": 264,
    "microwave": 44,
    "popular": 246,
    "metro": 24,
    "areas": 390,
    "cutting": 88,
    "generator": 80,
    "pee": 20,
    "cars": 552,
    "bloody": 72,
    "indicators": 22,
    "lamp": 58,
    "dumb": 72,
    "assume": 630,
    "braking": 60,
    "indicator": 30,
    "panic": 64,
    "snapped": 22,
    "shock": 92,
    "wait": 386,
    "till": 126,
    "settled": 66,
    "bearings": 16,
    "publish": 94,
    "periodicals": 20,
    "##vo": 242,
    "guide": 180,
    "guides": 26,
    "eternal": 310,
    "hell": 488,
    "biblical": 68,
    "theories": 92,
    "bible": 196,
    "topics": 136,
    "righteous": 110,
    "fate": 72,
    "damned": 50,
    "unpleasant": 20,
    "avoided": 60,
    "confession": 22,
    "novel": 76,
    "upgraded": 72,
    "tonight": 90,
    "night": 600,
    "pitched": 74,
    "batter": 46,
    "bal": 36,
    "scored": 172,
    "throw": 234,
    "score": 222,
    "featuring": 16,
    "batting": 64,
    "bench": 124,
    "homer": 96,
    "tied": 94,
    "fourth": 146,
    "inning": 66,
    "pitches": 22,
    "impressive": 104,
    "plays": 122,
    "plate": 122,
    "gunn": 10,
    "runner": 44,
    "steal": 82,
    "throwing": 104,
    "stray": 24,
    "spectacular": 24,
    "keeping": 244,
    "ball": 318,
    "##field": 70,
    "threw": 120,
    "sank": 38,
    "7th": 86,
    "##pen": 164,
    "lifted": 40,
    "pinch": 62,
    "hitter": 160,
    "entered": 118,
    "##lie": 50,
    "stu": 36,
    "##nk": 158,
    "innings": 72,
    "forcing": 72,
    "lived": 318,
    "gave": 532,
    "hit": 636,
    "resulted": 56,
    "scoring": 218,
    "attention": 276,
    "runners": 44,
    "knew": 450,
    "eventually": 238,
    "tagged": 12,
    "4th": 134,
    "offense": 146,
    "ninth": 44,
    "collected": 70,
    "mount": 82,
    "keeps": 140,
    "candidate": 64,
    "rookie": 92,
    "honors": 16,
    "signs": 136,
    "sophomore": 14,
    "jin": 6,
    "hits": 120,
    "performance": 524,
    "imaging": 72,
    "pe": 144,
    "##ddle": 28,
    "kinds": 202,
    "jobs": 432,
    "improved": 134,
    "grateful": 62,
    "replies": 202,
    "digital": 264,
    "camera": 132,
    "familiar": 190,
    "approx": 48,
    "capability": 174,
    "cheap": 432,
    "##gi": 70,
    "##bb": 56,
    "ny": 78,
    "latest": 340,
    "commanders": 16,
    "ships": 94,
    "landing": 84,
    "beach": 50,
    "reminds": 62,
    "##ec": 360,
    "##dote": 26,
    "mid": 222,
    "60s": 24,
    "officer": 164,
    "spectrum": 106,
    "ki": 94,
    "##att": 40,
    "broadcast": 128,
    "transmitter": 46,
    "ship": 150,
    "trans": 306,
    "##isto": 54,
    "ear": 66,
    "hitting": 134,
    "haynes": 4,
    "uc": 262,
    "##sc": 354,
    "##net": 404,
    "display": 900,
    "scientists": 160,
    "biased": 94,
    "posting": 1204,
    "##uro": 96,
    "##ist": 412,
    "##xin": 20,
    "labs": 22,
    "neurons": 26,
    "mice": 74,
    "rats": 20,
    "vitamin": 92,
    "amounts": 108,
    "words": 754,
    "khz": 2,
    "wound": 54,
    "poor": 348,
    "balls": 82,
    "quote": 366,
    "online": 90,
    "resources": 338,
    "gem": 16,
    "`": 26158,
    "volcano": 16,
    "torch": 18,
    "revolution": 78,
    "rivers": 22,
    "blood": 468,
    "homeland": 90,
    "liberated": 14,
    "sea": 136,
    "ethnic": 170,
    "cleansing": 36,
    "river": 70,
    "improvement": 134,
    "adam": 46,
    "das": 54,
    "harvard": 86,
    "grey": 94,
    "1b": 26,
    "linear": 98,
    "pixel": 198,
    "c": 1080,
    "##pina": 4,
    "##tions": 98,
    "choi": 4,
    "##ses": 134,
    "varies": 48,
    "verify": 84,
    "jumper": 250,
    "manual": 592,
    "troubles": 50,
    "reset": 96,
    "disappears": 34,
    "mac": 302,
    "ag": 212,
    "##ian": 82,
    "tis": 26,
    "lists": 340,
    "software": 1538,
    "packages": 216,
    "class": 474,
    "ti": 150,
    "acquisition": 22,
    "automation": 6,
    "analysis": 346,
    "presentation": 88,
    "catalog": 136,
    "tons": 62,
    "q": 132,
    "##ool": 34,
    "send": 1576,
    "browser": 16,
    "appears": 546,
    "buyer": 60,
    "engineer": 72,
    "subscription": 68,
    "550": 64,
    "840": 22,
    "toll": 72,
    "ordering": 64,
    "##eda": 12,
    "cn": 112,
    "u": 1150,
    "##we": 90,
    "##logy": 28,
    "scan": 132,
    "##logist": 62,
    "diagnosis": 56,
    "mig": 80,
    "##raine": 72,
    "headache": 96,
    "cluster": 46,
    "benign": 24,
    "intra": 44,
    "##tension": 8,
    "chronic": 84,
    "##ox": 68,
    "##ys": 132,
    "##mal": 16,
    "hem": 38,
    "##rani": 2,
    "syndrome": 78,
    "normal": 572,
    "convinced": 152,
    "tumors": 12,
    "pathology": 14,
    "reassure": 10,
    "patient": 148,
    "justified": 108,
    "thorough": 48,
    "detailed": 176,
    "##logic": 22,
    "examination": 60,
    "discussion": 702,
    "##ass": 42,
    "##urance": 8,
    "absolutely": 262,
    "ignored": 110,
    "tumor": 18,
    "##eur": 4,
    "bypass": 42,
    "feels": 126,
    "spent": 322,
    "examining": 38,
    "ion": 12,
    "radiation": 70,
    "brings": 114,
    "department": 124,
    "addressed": 98,
    "284": 34,
    "terminal": 166,
    "impaired": 42,
    "reissued": 4,
    "revised": 38,
    "##g": 1478,
    "##quest": 30,
    "##te": 798,
    "approximate": 24,
    "compare": 214,
    "bounced": 44,
    "street": 222,
    "bouncing": 36,
    "ends": 134,
    "park": 114,
    "pair": 160,
    "golf": 24,
    "shoes": 40,
    "shape": 184,
    "plus": 452,
    "shipping": 432,
    "ds": 214,
    "##ny": 100,
    "##der": 312,
    "falcon": 6,
    "##rl": 68,
    "##pa": 192,
    "##fb": 14,
    "mil": 242,
    "##65": 76,
    "##tra": 276,
    "flying": 102,
    "1946": 14,
    "lady": 34,
    "expressed": 104,
    "tap": 112,
    "expertise": 42,
    "cruise": 48,
    "ankle": 22,
    "##cy": 204,
    "##cl": 314,
    "screw": 182,
    "returning": 54,
    "1300": 32,
    "miles": 380,
    "broken": 232,
    "ep": 130,
    "##ling": 280,
    "messed": 16,
    "factory": 88,
    "professionally": 24,
    "ud": 52,
    "##tan": 80,
    "accuracy": 72,
    "hose": 32,
    "engine": 450,
    "ke": 64,
    "##ttering": 6,
    "y": 662,
    "distributor": 40,
    "rotor": 42,
    "guessed": 42,
    "##ple": 86,
    "##tly": 76,
    "bucks": 70,
    "vacuum": 72,
    "##vor": 22,
    "motor": 206,
    "sensors": 54,
    "magnetic": 62,
    "signal": 304,
    "kinda": 64,
    "axle": 24,
    "install": 262,
    "sensor": 88,
    "clutch": 108,
    "paying": 196,
    "wind": 108,
    "wits": 4,
    "coordinated": 22,
    "girlfriends": 2,
    "installation": 178,
    "attachment": 18,
    "steady": 36,
    "switched": 70,
    "blade": 20,
    "fuse": 94,
    "##uf": 90,
    "##at": 148,
    "##urer": 10,
    "hook": 156,
    "sensing": 86,
    "gi": 320,
    "cabin": 38,
    "miscellaneous": 18,
    "particularly": 358,
    "##aca": 14,
    "##ntly": 24,
    "cabbage": 2,
    "sorry": 280,
    "simple": 786,
    "father": 272,
    "built": 652,
    "powered": 102,
    "correctly": 250,
    "thanks": 428,
    "fashioned": 20,
    "considerations": 56,
    "married": 146,
    "fictitious": 8,
    "green": 156,
    "proposal": 264,
    "unconventional": 10,
    "wondering": 374,
    "2000": 212,
    "##60": 226,
    "shorter": 54,
    "squeeze": 42,
    "mess": 128,
    "ratio": 116,
    "manually": 48,
    "pain": 416,
    "happen": 632,
    "sent": 666,
    "bill": 322,
    "billing": 8,
    "customer": 78,
    "##ree": 16,
    "##01": 636,
    "star": 182,
    "##base": 24,
    "spd": 18,
    "louisville": 8,
    "complexity": 46,
    "writers": 72,
    "inability": 46,
    "interchange": 22,
    "environments": 50,
    "despite": 188,
    "abuse": 216,
    "chalk": 8,
    "immense": 22,
    "unnecessary": 58,
    "spec": 360,
    "emphasis": 92,
    "mine": 468,
    "expense": 86,
    "simplicity": 32,
    "specification": 86,
    "import": 110,
    "generating": 44,
    "trapped": 20,
    "agrees": 38,
    "chain": 158,
    "mesh": 28,
    "graphical": 62,
    "01": 880,
    "perennial": 8,
    "##o": 970,
    "##cia": 78,
    "cable": 472,
    "valet": 2,
    "trunk": 50,
    "enable": 120,
    "breakout": 2,
    "backing": 56,
    "puck": 240,
    "went": 1122,
    "goaltender": 70,
    "##eving": 14,
    "unfortunate": 72,
    "birthday": 36,
    "blame": 148,
    "lies": 182,
    "coaches": 26,
    "players": 722,
    "intercepted": 22,
    "lose": 276,
    "powerhouse": 2,
    "responsibility": 256,
    "slipped": 24,
    "destined": 8,
    "disappointed": 32,
    "jurisdictions": 32,
    "concerned": 318,
    "elements": 142,
    "rape": 106,
    "gender": 34,
    "neutral": 286,
    "argument": 828,
    "student": 236,
    "lawyer": 98,
    "intercourse": 24,
    "female": 100,
    "consent": 52,
    "forcibly": 14,
    "statute": 22,
    "adoption": 22,
    "legislatures": 2,
    "guilty": 192,
    "##pel": 54,
    "submit": 186,
    "imminent": 24,
    "statutes": 34,
    "1992": 766,
    "406": 20,
    "keith": 18,
    "##rix": 22,
    "gen": 60,
    "nz": 56,
    "acquaintance": 14,
    "apparently": 296,
    "##mpton": 6,
    "complaints": 94,
    "condition": 554,
    "anywhere": 260,
    "diagnostic": 56,
    "criteria": 96,
    "##olo": 38,
    "##gic": 26,
    "ph": 300,
    "##iol": 16,
    "features": 344,
    "##logists": 20,
    "##io": 154,
    "##uron": 8,
    "clinical": 94,
    "muscle": 78,
    "bio": 148,
    "##psy": 26,
    "abnormalities": 10,
    "mostly": 348,
    "ongoing": 48,
    "deterioration": 14,
    "complain": 130,
    "declining": 22,
    "strength": 128,
    "endurance": 2,
    "everyday": 46,
    "universal": 96,
    "feature": 214,
    "contributes": 14,
    "weakness": 52,
    "##rop": 104,
    "##vation": 32,
    "rein": 90,
    "giant": 42,
    "duration": 36,
    "active": 208,
    "fi": 338,
    "##bri": 34,
    "##llation": 10,
    "fiber": 48,
    "grouping": 14,
    "ang": 22,
    "##ulated": 66,
    "fibers": 14,
    "dense": 30,
    "ox": 106,
    "##ida": 54,
    "##tive": 120,
    "enzyme": 16,
    "stain": 8,
    "curiously": 6,
    "evident": 50,
    "month": 424,
    "remarkably": 26,
    "stable": 120,
    "genuine": 42,
    "survivors": 52,
    "unknown": 138,
    "virus": 76,
    "##mun": 154,
    "response": 578,
    "antigen": 4,
    "anterior": 4,
    "horn": 62,
    "ax": 44,
    "##mus": 16,
    "##cular": 8,
    "junctions": 4,
    "complaining": 50,
    "spinal": 8,
    "##vate": 14,
    "shed": 52,
    "depression": 40,
    "scales": 24,
    "##cho": 46,
    "tests": 222,
    "recovery": 70,
    "abnormal": 14,
    "loading": 78,
    "muscles": 46,
    "ligament": 2,
    "joints": 18,
    "inflammatory": 44,
    "##gen": 84,
    "##erative": 6,
    "affecting": 38,
    "##posed": 10,
    "##chang": 20,
    "progressive": 26,
    "impairment": 2,
    "severity": 8,
    "attackers": 20,
    "##sen": 56,
    "co": 606,
    "freedom": 336,
    "living": 478,
    "fault": 212,
    "harmony": 26,
    "torture": 92,
    "shorts": 28,
    "##ight": 18,
    "##bour": 12,
    "stone": 88,
    "continues": 120,
    "funeral": 12,
    "neighbours": 26,
    "##taking": 6,
    "turkish": 8,
    "planes": 110,
    "oh": 178,
    "##hh": 26,
    "forgot": 128,
    "initiating": 10,
    "oil": 370,
    "capacity": 130,
    "moment": 280,
    "ceiling": 34,
    "domestic": 78,
    "partly": 46,
    "impacts": 18,
    "industrial": 86,
    "rivals": 10,
    "proceeds": 42,
    "##ately": 22,
    "economies": 28,
    "incentive": 34,
    "falling": 60,
    "1711": 2,
    "##11": 878,
    "stall": 12,
    "recalled": 20,
    "poster": 192,
    "mis": 876,
    "##qu": 20,
    "##oted": 14,
    "reference": 472,
    "revelations": 20,
    "approaching": 50,
    "suddenly": 152,
    "heaven": 232,
    "flashed": 18,
    "fell": 140,
    "##cuting": 14,
    "whom": 320,
    "received": 466,
    "revelation": 132,
    "risen": 56,
    "cool": 144,
    "eh": 102,
    "closely": 156,
    "church": 488,
    "ministry": 68,
    "supernatural": 54,
    "authors": 198,
    "translated": 66,
    "inspired": 64,
    "literally": 114,
    "breathed": 8,
    "spoke": 156,
    "theologians": 28,
    "scholars": 100,
    "annoyed": 36,
    "dry": 112,
    "incomplete": 46,
    "verse": 116,
    "continuity": 10,
    "span": 54,
    "1500": 68,
    "walks": 40,
    "testimony": 108,
    "authorship": 8,
    "superior": 114,
    "historic": 28,
    "writings": 80,
    "century": 234,
    "earliest": 36,
    "assert": 102,
    "##thi": 24,
    "liar": 112,
    "claimed": 284,
    "regards": 68,
    "conclusion": 338,
    "logical": 220,
    "##founded": 18,
    "##eses": 36,
    "gut": 64,
    "feelings": 124,
    "##su": 312,
    "##tia": 114,
    "plead": 10,
    "entirety": 28,
    "inspire": 10,
    "reader": 106,
    "guidance": 36,
    "revealed": 126,
    "searches": 42,
    "depths": 14,
    "happiness": 40,
    "crown": 8,
    "chief": 96,
    "##est": 258,
    "hold": 504,
    "awe": 12,
    "seas": 20,
    "stricken": 18,
    "reduce": 228,
    "clip": 300,
    "##per": 382,
    "defending": 88,
    "expression": 80,
    "speech": 222,
    "express": 88,
    "desires": 40,
    "##inge": 58,
    "streams": 28,
    "##10": 646,
    "continuous": 60,
    "wave": 158,
    "##forms": 16,
    "apologies": 26,
    "acronym": 52,
    "consort": 4,
    "qualified": 80,
    "standards": 322,
    "character": 384,
    "formula": 102,
    "defenses": 36,
    "##xing": 12,
    "congress": 194,
    "##men": 222,
    "##piece": 12,
    "murder": 270,
    "slaughtered": 48,
    "declared": 64,
    "filed": 64,
    "die": 406,
    "ur": 92,
    "gift": 78,
    "belonging": 32,
    "blown": 90,
    "receives": 32,
    "ultimatum": 12,
    "honorary": 28,
    "refuses": 28,
    "consul": 30,
    "bow": 32,
    "terrorist": 122,
    "attacked": 146,
    "##hun": 22,
    "avail": 66,
    "witness": 90,
    "description": 248,
    "murderer": 48,
    "survives": 12,
    "silent": 64,
    "revolt": 52,
    "triumph": 22,
    "ego": 38,
    "boost": 72,
    "underworld": 6,
    "wall": 236,
    "##owing": 16,
    "satisfaction": 30,
    "1980": 142,
    "bodyguard": 8,
    "1986": 162,
    "pp": 480,
    "array": 66,
    "representatives": 86,
    "parties": 214,
    "party": 322,
    "joined": 60,
    "solidarity": 12,
    "voiced": 6,
    "2nd": 370,
    "judging": 62,
    "encouraging": 46,
    "abundant": 22,
    "sponsored": 72,
    "branch": 66,
    "comparatively": 16,
    "headed": 108,
    "younger": 62,
    "generations": 44,
    "openly": 44,
    "prof": 72,
    "##ess": 126,
    "armed": 226,
    "struggle": 90,
    "branches": 28,
    "loyal": 26,
    "##ties": 118,
    "goals": 310,
    "behalf": 68,
    "##edging": 4,
    "operated": 80,
    "training": 300,
    "camps": 74,
    "youth": 84,
    "answering": 68,
    "writer": 84,
    "affirmed": 22,
    "trained": 74,
    "doors": 118,
    "fighters": 40,
    "attended": 48,
    "holds": 136,
    "cabinet": 26,
    "purpose": 598,
    "attending": 30,
    "gathering": 42,
    "wings": 70,
    "assortment": 6,
    "labor": 124,
    "mayors": 4,
    "towns": 62,
    "participated": 62,
    "follow": 626,
    "##rations": 16,
    "ambassador": 10,
    "organizers": 22,
    "noted": 246,
    "radical": 56,
    "abduction": 4,
    "assassination": 14,
    "accused": 68,
    "reveal": 82,
    "realities": 24,
    "bitter": 26,
    "tragic": 44,
    "expose": 80,
    "indication": 88,
    "link": 196,
    "##ssi": 136,
    "##dent": 20,
    "supporters": 44,
    "headquarters": 40,
    "suburb": 6,
    "located": 164,
    "activity": 214,
    "scores": 112,
    "names": 380,
    "invited": 76,
    "introduce": 46,
    "comment": 378,
    "cc": 380,
    "columbia": 36,
    "##29": 70,
    "290": 50,
    "crap": 164,
    "boy": 120,
    "quotes": 172,
    "reject": 146,
    "preface": 14,
    "1923": 64,
    "respectively": 68,
    "copies": 324,
    "1924": 24,
    "murders": 70,
    "et": 318,
    "denial": 72,
    "acc": 204,
    "##uss": 34,
    "##ations": 76,
    "publication": 142,
    "quoted": 218,
    "1934": 46,
    "twisting": 14,
    "existing": 308,
    "existed": 108,
    "lying": 146,
    "proof": 340,
    "suited": 30,
    "ready": 304,
    "claiming": 164,
    "letter": 414,
    "char": 420,
    "##ach": 44,
    "publications": 66,
    "books": 600,
    "##sle": 76,
    "listing": 80,
    "supports": 396,
    "admission": 20,
    "terrible": 126,
    "biggest": 150,
    "surprise": 128,
    "disappointment": 26,
    "center": 366,
    "deserves": 68,
    "nod": 24,
    "essentially": 210,
    "possibility": 264,
    "##time": 134,
    "##rut": 24,
    "instruments": 68,
    "motivation": 86,
    "archive": 426,
    "facto": 44,
    "identified": 108,
    "trunks": 6,
    "distance": 202,
    "competitors": 26,
    "tapes": 134,
    "recording": 54,
    "##dents": 16,
    "suspected": 36,
    "noticed": 296,
    "judged": 74,
    "heavy": 254,
    "weaponry": 26,
    "steer": 50,
    "licenses": 50,
    "permits": 78,
    "placed": 202,
    "ahead": 266,
    "##mie": 8,
    "singing": 22,
    "tune": 90,
    "exercised": 20,
    "daughter": 218,
    "##scribe": 154,
    "grape": 14,
    "nsw": 6,
    "navy": 100,
    "download": 86,
    "replacement": 162,
    "forum": 124,
    "newest": 32,
    "##ware": 292,
    "compilation": 26,
    "submissions": 34,
    "utilities": 162,
    "releases": 88,
    "updated": 158,
    "searching": 86,
    "benefit": 232,
    "fingertips": 8,
    "entries": 278,
    "genre": 6,
    "registration": 136,
    "fee": 156,
    "requirements": 192,
    "contacted": 38,
    "##line": 190,
    "640": 138,
    "##48": 148,
    "forms": 156,
    "##end": 134,
    "desired": 102,
    "plain": 338,
    "paste": 50,
    "require": 506,
    "##ting": 530,
    "conventions": 28,
    "bold": 58,
    "##face": 16,
    "italics": 8,
    "font": 692,
    "##ma": 820,
    "shots": 246,
    "workings": 12,
    "rendering": 92,
    "observe": 60,
    "maximum": 172,
    "##pati": 28,
    "embedded": 34,
    "corrections": 64,
    "indicating": 48,
    "procedures": 106,
    "comments": 476,
    "suggestions": 316,
    "criticisms": 12,
    "deadline": 44,
    "subsequent": 78,
    "edition": 166,
    "editor": 218,
    "reserve": 60,
    "devoted": 66,
    "commercially": 28,
    "steps": 94,
    "limitations": 62,
    "practical": 176,
    "publishing": 28,
    "bulletin": 44,
    "boards": 202,
    "advertising": 114,
    "advertisements": 16,
    "constraints": 38,
    "devote": 20,
    "columns": 24,
    "envisioned": 14,
    "monthly": 96,
    "column": 142,
    "##tad": 12,
    "##iction": 2,
    "notes": 166,
    "04": 910,
    "opened": 144,
    "victory": 96,
    "##out": 214,
    "playoff": 130,
    "seemed": 238,
    "tense": 18,
    "opening": 122,
    "played": 382,
    "ranked": 16,
    "manager": 456,
    "forwards": 48,
    "checked": 192,
    "blue": 240,
    "##tus": 74,
    "lineup": 54,
    "suffered": 126,
    "charlie": 4,
    "horse": 74,
    "shifts": 26,
    "retiring": 10,
    "dressing": 8,
    "room": 456,
    "draw": 368,
    "crossed": 18,
    "slapped": 16,
    "zone": 192,
    "carried": 254,
    "wa": 112,
    "##cked": 18,
    "rebound": 56,
    "picked": 194,
    "circle": 112,
    "dot": 112,
    "hash": 110,
    "beating": 108,
    "legs": 100,
    "failed": 302,
    "giving": 396,
    "recorded": 90,
    "ensuing": 24,
    "skate": 74,
    "wing": 126,
    "fake": 66,
    "thor": 16,
    "##ugh": 12,
    "##ease": 58,
    "reclaimed": 2,
    "wrist": 56,
    "widened": 2,
    "diving": 12,
    "glove": 46,
    "consecutive": 28,
    "sticking": 60,
    "phrase": 152,
    "penalties": 88,
    "extended": 152,
    "sending": 238,
    "slid": 20,
    "skating": 20,
    "stepped": 22,
    "tripped": 8,
    "shovel": 16,
    "knocked": 60,
    "drawing": 204,
    "minute": 208,
    "misconduct": 24,
    "08": 330,
    "sq": 126,
    "##uan": 4,
    "strides": 8,
    "drove": 96,
    "##off": 172,
    "converted": 154,
    "seal": 42,
    "slash": 44,
    "crazy": 126,
    "double": 318,
    "minor": 244,
    "rough": 140,
    "checking": 172,
    "disciplined": 22,
    "excellent": 374,
    "minus": 54,
    "surely": 162,
    "307": 18,
    "24th": 30,
    "opposing": 48,
    "afternoon": 76,
    "regular": 354,
    "interference": 120,
    "trip": 222,
    "served": 148,
    "sh": 194,
    "##sted": 56,
    "elbow": 16,
    "boarding": 18,
    "min": 106,
    "conversions": 18,
    "denotes": 18,
    "##pm": 132,
    "willis": 14,
    "empire": 34,
    "##23": 148,
    "2020": 6,
    "404": 28,
    "2003": 20,
    "##21": 114,
    "1965": 42,
    "1600": 30,
    "1663": 4,
    "480": 80,
    "57th": 6,
    "##00": 984,
    "1755": 4,
    "282": 36,
    "##53": 88,
    "##90": 114,
    "##37": 60,
    "##36": 64,
    "2001": 46,
    "303": 86,
    "287": 38,
    "356": 28,
    "560": 48,
    "311": 30,
    "420": 20,
    "##51": 150,
    "2009": 2,
    "43rd": 2,
    "##15": 102,
    "1000": 318,
    "276": 40,
    "##22": 112,
    "350": 154,
    "4000": 90,
    "15th": 24,
    "2007": 6,
    "344": 40,
    "1717": 4,
    "##64": 38,
    "magazine": 248,
    "hears": 24,
    "prayers": 74,
    "sinn": 84,
    "saint": 10,
    "asking": 394,
    "sin": 574,
    "block": 374,
    "##ound": 50,
    "gospel": 92,
    "choose": 330,
    "prayer": 94,
    "european": 24,
    "tel": 294,
    "##ete": 136,
    "##xt": 36,
    "##am": 198,
    "functional": 44,
    "##lity": 12,
    "detect": 164,
    "exposed": 80,
    "glow": 24,
    "ava": 32,
    "##lia": 100,
    "##ble": 776,
    "sells": 116,
    "maybe": 870,
    "cord": 116,
    "speaker": 128,
    "remote": 294,
    "stereo": 172,
    "inputs": 88,
    "volume": 228,
    "ra": 346,
    "##dley": 14,
    "gibbs": 8,
    "reality": 312,
    "##ject": 100,
    "je": 70,
    "##ez": 42,
    "##lty": 40,
    "reluctant": 28,
    "##bra": 30,
    "alive": 252,
    "enjoy": 144,
    "harsh": 52,
    "follows": 268,
    "cradle": 10,
    "christian": 86,
    "selfish": 72,
    "realization": 16,
    "search": 342,
    "fear": 244,
    "vanity": 12,
    "serving": 68,
    "comprehend": 34,
    "##ism": 404,
    "##static": 22,
    "authentic": 60,
    "material": 424,
    "##istic": 204,
    "christians": 68,
    "according": 384,
    "wiring": 234,
    "regularly": 130,
    "consumers": 34,
    "senses": 80,
    "currents": 26,
    "cuts": 68,
    "connection": 296,
    "portable": 138,
    "interactive": 120,
    "vendor": 124,
    "port": 572,
    "platforms": 128,
    "sales": 288,
    "representative": 76,
    "truly": 228,
    "##lea": 172,
    "##vance": 10,
    "management": 254,
    "satisfied": 82,
    "customers": 100,
    "introduced": 100,
    "1988": 356,
    "grew": 64,
    "clock": 378,
    "sped": 4,
    "thumb": 74,
    "motorola": 10,
    "3000": 108,
    "##systems": 16,
    "architecture": 92,
    "archaic": 10,
    "platform": 88,
    "bandwidth": 100,
    "capacities": 14,
    "##pet": 116,
    "##itive": 38,
    "user": 848,
    "meets": 56,
    "upgrade": 272,
    "feasible": 70,
    "paths": 32,
    "associated": 250,
    "older": 274,
    "##rs": 562,
    "moving": 300,
    "##using": 6,
    "misunderstanding": 40,
    "attempting": 102,
    "##oy": 52,
    "##sey": 10,
    "regardless": 180,
    "schedule": 142,
    "schedules": 26,
    "counting": 58,
    "availability": 110,
    "date": 456,
    "awful": 176,
    "investors": 26,
    "financial": 90,
    "analysts": 16,
    "watch": 348,
    "carefully": 170,
    "commitments": 22,
    "processor": 216,
    "arriving": 26,
    "demanding": 40,
    "purchases": 20,
    "accept": 560,
    "##bility": 82,
    "happy": 374,
    "##59": 56,
    "bc": 68,
    "##ste": 54,
    "ca": 534,
    "boeing": 30,
    "##rre": 70,
    "brands": 46,
    "aviation": 26,
    "##tle": 30,
    "met": 238,
    "##ex": 304,
    "define": 442,
    "proved": 112,
    "moderate": 96,
    "flu": 82,
    "performs": 42,
    "subset": 48,
    "##85": 66,
    "underneath": 26,
    "approximately": 110,
    "680": 284,
    "spot": 212,
    "middle": 300,
    "logo": 70,
    "precise": 48,
    "capable": 268,
    "om": 174,
    "##pot": 66,
    "##ence": 74,
    "opt": 160,
    "##ois": 24,
    "microphone": 52,
    "signals": 144,
    "measurement": 56,
    "mic": 26,
    "pops": 50,
    "audio": 206,
    "jumping": 28,
    "dark": 188,
    "drops": 58,
    "formally": 24,
    "refers": 92,
    "joy": 142,
    "##sett": 6,
    "##hor": 30,
    "attitudes": 46,
    "abusive": 40,
    "comparison": 202,
    "recognizes": 24,
    "occupying": 30,
    "entity": 58,
    "maintain": 218,
    "consciously": 18,
    "disrupt": 24,
    "structure": 234,
    "##ier": 122,
    "inherently": 64,
    "residents": 86,
    "jewish": 38,
    "dh": 16,
    "##mi": 146,
    "protected": 174,
    "worry": 220,
    "intentions": 34,
    "secured": 12,
    "demon": 56,
    "desire": 158,
    "wright": 8,
    "hostile": 64,
    "hiring": 30,
    "opportunity": 196,
    "disagreement": 36,
    "dil": 50,
    "##igen": 38,
    "semi": 278,
    "credible": 42,
    "##ose": 64,
    "##ceptive": 18,
    "pill": 52,
    "##vu": 52,
    "nest": 16,
    "va": 252,
    "##gina": 46,
    "forces": 262,
    "##rti": 82,
    "##lz": 6,
    "##ation": 348,
    "##erine": 6,
    "pregnancy": 46,
    "fragment": 28,
    "reasonable": 432,
    "deep": 196,
    "pi": 252,
    "plane": 180,
    "contains": 422,
    "2010": 18,
    "thoughts": 146,
    "incompatible": 70,
    "divisions": 24,
    "promoted": 24,
    "worst": 196,
    "demoted": 6,
    "corporate": 54,
    "duff": 4,
    "fill": 164,
    "arena": 74,
    "1940": 32,
    "##ha": 124,
    "sports": 170,
    "division": 204,
    "centres": 16,
    "rewarded": 34,
    "loyalty": 14,
    "penal": 26,
    "dynamic": 88,
    "influx": 4,
    "newly": 66,
    "soccer": 30,
    "sucks": 36,
    "flame": 266,
    "deserve": 114,
    "sleep": 174,
    "approved": 140,
    "responding": 94,
    "selections": 24,
    "##hism": 116,
    "##icated": 32,
    "beside": 40,
    "formal": 116,
    "##ication": 30,
    "canon": 70,
    "theology": 94,
    "confusion": 86,
    "##bed": 118,
    "##ience": 66,
    "classifications": 4,
    "commands": 192,
    "meat": 76,
    "moon": 238,
    "commanded": 30,
    "thus": 440,
    "po": 202,
    "##bil": 40,
    "##ites": 24,
    "solely": 66,
    "compliance": 54,
    "refusal": 34,
    "obe": 22,
    "##die": 16,
    "comply": 40,
    "insufficient": 10,
    "label": 94,
    "rub": 34,
    "commanding": 6,
    "disagreed": 10,
    "heresy": 46,
    "weak": 212,
    "priests": 98,
    "examine": 114,
    "traditional": 158,
    "defective": 34,
    "depth": 174,
    "interviews": 48,
    "decide": 304,
    "##fall": 110,
    "straighten": 22,
    "##und": 86,
    "grave": 84,
    "wasting": 56,
    "heroic": 24,
    "badly": 100,
    "##set": 132,
    "##atics": 34,
    "##bey": 22,
    "mere": 86,
    "added": 378,
    "constitute": 52,
    "rejection": 28,
    "distinguishing": 6,
    "criterion": 18,
    "possess": 66,
    "tran": 70,
    "##gre": 98,
    "##ssion": 46,
    "superiors": 6,
    "pray": 124,
    "matters": 180,
    "boil": 24,
    "objections": 46,
    "resisting": 8,
    "finds": 72,
    "stance": 52,
    "##rio": 28,
    "definitive": 34,
    "congregation": 28,
    "episcopal": 14,
    "consecration": 38,
    "performed": 176,
    "constituted": 18,
    "imply": 150,
    "##fers": 30,
    "##fect": 24,
    "conferred": 4,
    "bishops": 32,
    "pains": 36,
    "bishop": 48,
    "##sit": 84,
    "lent": 20,
    "puzzle": 32,
    "passage": 158,
    "root": 274,
    "contradictory": 68,
    "notion": 130,
    "sufficiently": 58,
    "taught": 154,
    "apostles": 56,
    "progresses": 6,
    "insight": 52,
    "##tem": 72,
    "believers": 94,
    "ponder": 32,
    "hearts": 60,
    "intimate": 14,
    "spiritual": 150,
    "preaching": 28,
    "succession": 8,
    "##pis": 24,
    "##pate": 42,
    "opposes": 14,
    "possessed": 44,
    "faithful": 62,
    "##cles": 10,
    "entrusted": 10,
    "unity": 44,
    "simplified": 12,
    "prove": 420,
    "clarify": 54,
    "detail": 204,
    "ignore": 158,
    "puts": 108,
    "definition": 318,
    "shortly": 60,
    "healed": 28,
    "destroying": 54,
    "reform": 130,
    "papacy": 6,
    "reconciled": 18,
    "destroyed": 180,
    "discipline": 50,
    "##used": 42,
    "wrongly": 12,
    "imagination": 60,
    "acts": 186,
    "validity": 42,
    "debate": 176,
    "objected": 20,
    "sanctions": 54,
    "ignoring": 82,
    "papal": 16,
    "communion": 22,
    "firearms": 362,
    "holster": 20,
    "accidental": 56,
    "injuries": 124,
    "inflicted": 16,
    "lethal": 54,
    "settings": 156,
    "geometry": 112,
    "splits": 14,
    "318": 30,
    "rated": 88,
    "ob": 448,
    "##eni": 22,
    "calm": 70,
    "plenty": 148,
    "compound": 208,
    "stay": 340,
    "cook": 44,
    "paranoid": 66,
    "watched": 112,
    "harp": 18,
    "accusations": 36,
    "sealed": 62,
    "##vable": 64,
    "location": 204,
    "disks": 358,
    "286": 220,
    "wiped": 32,
    "technician": 26,
    "examined": 78,
    "pronounced": 20,
    "##usa": 64,
    "cylinders": 86,
    "sides": 178,
    "happily": 34,
    "blocks": 144,
    "proceed": 60,
    "successfully": 92,
    "##ised": 60,
    "##card": 52,
    "burnt": 46,
    "mirrored": 10,
    "##plex": 28,
    "requires": 406,
    "causing": 144,
    "##isation": 44,
    "request": 644,
    "widely": 176,
    "dealing": 148,
    "hoping": 126,
    "casting": 28,
    "inappropriate": 54,
    "everybody": 220,
    "desperate": 40,
    "suffering": 152,
    "arm": 216,
    "tom": 58,
    "##yme": 34,
    "bo": 106,
    "##lio": 32,
    "electro": 56,
    "##tes": 160,
    "healthy": 118,
    "shown": 292,
    "neck": 78,
    "fever": 48,
    "sick": 202,
    "##hila": 2,
    "##rdi": 20,
    "##iba": 12,
    "ch": 216,
    "hint": 70,
    "greater": 250,
    "##dom": 46,
    "##inate": 108,
    "##tic": 170,
    "tiger": 16,
    "thrown": 120,
    "ma": 80,
    "##uled": 14,
    "insane": 42,
    "relates": 50,
    "mom": 36,
    "vi": 124,
    "##ril": 42,
    "##39": 64,
    "ri": 94,
    "##ffer": 32,
    "collection": 212,
    "music": 170,
    "neat": 104,
    "artwork": 20,
    "al": 472,
    "packed": 38,
    "amazing": 106,
    "fantasy": 62,
    "mint": 52,
    "seam": 32,
    "outs": 76,
    "1979": 92,
    "1981": 102,
    "thru": 158,
    "offers": 344,
    "sm": 138,
    "born": 270,
    "regeneration": 6,
    "cult": 180,
    "dismiss": 40,
    "##ive": 368,
    "respectable": 40,
    "##ib": 152,
    "resemble": 24,
    "mistake": 206,
    "uncover": 16,
    "##mist": 64,
    "##oni": 58,
    "abortion": 126,
    "encountered": 48,
    "propaganda": 106,
    "emotion": 24,
    "missionary": 18,
    "ze": 30,
    "rhetoric": 44,
    "clerical": 10,
    "ups": 72,
    "battery": 196,
    "voltage": 218,
    "##ac": 256,
    "discharge": 52,
    "##ules": 8,
    "implies": 96,
    "sat": 168,
    "##fa": 114,
    "##ctor": 80,
    "ubiquitous": 16,
    "circuit": 324,
    "receiving": 136,
    "circuits": 130,
    "handbook": 14,
    "reacting": 20,
    "##tech": 50,
    "pc": 198,
    "##rem": 72,
    "##ental": 54,
    "contents": 128,
    "trick": 130,
    "##aint": 34,
    "generates": 52,
    "exposure": 108,
    "handled": 100,
    "displayed": 92,
    "erased": 12,
    "##cap": 68,
    "##sul": 28,
    "client": 288,
    "##yn": 128,
    "##ron": 142,
    "##ici": 144,
    "inserted": 38,
    "critical": 164,
    "agent": 154,
    "interviewed": 32,
    "reported": 386,
    "ill": 158,
    "failure": 162,
    "agenda": 98,
    "##quent": 62,
    "context": 466,
    "beneficial": 28,
    "##ual": 72,
    "requests": 270,
    "25th": 38,
    "votes": 114,
    "##turn": 22,
    "assault": 194,
    "weapon": 258,
    "ban": 186,
    "28th": 42,
    "voted": 80,
    "tight": 82,
    "vote": 256,
    "initially": 72,
    "supervisor": 20,
    "urging": 10,
    "tho": 42,
    "##ility": 22,
    "fit": 392,
    "nicely": 68,
    "exploded": 10,
    "tuned": 50,
    "660": 22,
    "pg": 78,
    "ported": 50,
    "candidates": 76,
    "violence": 132,
    "hating": 10,
    "realistic": 56,
    "declare": 50,
    "gross": 50,
    "negligence": 8,
    "random": 326,
    "shooter": 14,
    "shoots": 16,
    "bombers": 8,
    "##par": 108,
    "##dy": 50,
    "sovereign": 22,
    "pattern": 110,
    "bombing": 82,
    "probability": 70,
    "deaths": 174,
    "property": 326,
    "pay": 750,
    "caused": 324,
    "##rano": 8,
    "##lo": 190,
    "dose": 50,
    "fatigue": 24,
    "tolerate": 36,
    "beta": 88,
    "##ime": 46,
    "sera": 16,
    "##ton": 52,
    "cha": 236,
    "##sti": 234,
    "intellect": 168,
    "cad": 184,
    "pitt": 178,
    "shame": 216,
    "surrender": 200,
    "gather": 64,
    "dust": 86,
    "drop": 282,
    "sum": 276,
    "##mar": 178,
    "##izes": 64,
    "coupled": 34,
    "generation": 208,
    "##pts": 10,
    "speculation": 82,
    "evening": 124,
    "considerable": 66,
    "briefing": 66,
    "tam": 76,
    "compared": 282,
    "rounds": 70,
    "scrambling": 16,
    "modes": 218,
    "includes": 672,
    "button": 216,
    "method": 408,
    "exchange": 162,
    "##cate": 116,
    "##nated": 22,
    "programmed": 58,
    "vault": 22,
    "laptop": 58,
    "trusted": 64,
    "enters": 32,
    "seeds": 48,
    "generate": 182,
    "sequence": 158,
    "padded": 30,
    "triple": 82,
    "producing": 84,
    "computed": 42,
    "assigned": 54,
    "discarded": 40,
    "generated": 162,
    "corresponding": 92,
    "assurance": 34,
    "protocol": 164,
    "provider": 26,
    "##pt": 288,
    "identifying": 24,
    "accomplished": 82,
    "##master": 36,
    "slower": 152,
    "arbitration": 26,
    "channel": 228,
    "channels": 94,
    "fund": 156,
    "##liner": 12,
    "billion": 288,
    "mars": 6,
    "mission": 282,
    "lunar": 234,
    "orbit": 422,
    "ce": 228,
    "##tera": 48,
    "##pha": 52,
    "##vin": 38,
    "communist": 26,
    "reforms": 16,
    "forward": 370,
    "contained": 122,
    "ghetto": 42,
    "staying": 56,
    "noon": 66,
    "belong": 122,
    "studies": 286,
    "announcement": 128,
    "announce": 90,
    "rev": 222,
    "##amp": 88,
    "##page": 10,
    "intro": 72,
    "sites": 442,
    "director": 210,
    "query": 62,
    "matches": 42,
    "retrieve": 58,
    "extensively": 30,
    "tested": 196,
    "flavors": 20,
    "improvements": 46,
    "integrated": 82,
    "##load": 146,
    "resort": 100,
    "##ina": 60,
    "pseudo": 90,
    "weights": 18,
    "mono": 226,
    "supplied": 106,
    "hadn": 106,
    "rockets": 122,
    "##cala": 26,
    "tall": 60,
    "tails": 14,
    "threatened": 86,
    "treasury": 24,
    "rumors": 92,
    "violation": 114,
    "solving": 26,
    "ray": 244,
    "metallic": 30,
    "cylindrical": 10,
    "hole": 224,
    "angle": 116,
    "axis": 44,
    "centre": 56,
    "radius": 136,
    "mathematical": 114,
    "complex": 234,
    "resembling": 18,
    "el": 164,
    "##lip": 58,
    "transform": 76,
    "transformation": 22,
    "distortion": 60,
    "increases": 110,
    "compensate": 28,
    "hot": 428,
    "finger": 182,
    "blowing": 38,
    "sink": 52,
    "fiscal": 26,
    "preach": 48,
    "gloom": 10,
    "doom": 30,
    "allegedly": 36,
    "losing": 118,
    "degradation": 24,
    "plum": 8,
    "##nka": 4,
    "corners": 50,
    "inferior": 48,
    "confidence": 64,
    "wild": 102,
    "negotiations": 78,
    "wes": 10,
    "keeper": 10,
    "##uc": 392,
    "drivers": 704,
    "loop": 148,
    "ms": 338,
    "##dos": 114,
    "mm": 58,
    "##elt": 6,
    "##zer": 50,
    "examples": 232,
    "##vas": 22,
    "##tism": 32,
    "arrived": 130,
    "psychology": 60,
    "gradual": 24,
    "##fra": 42,
    "##nch": 48,
    "##ise": 130,
    "##ment": 374,
    "shuttle": 186,
    "gan": 18,
    "##dal": 46,
    "ct": 98,
    "compressed": 108,
    "manifest": 58,
    "periodically": 48,
    "removed": 204,
    "refer": 276,
    "archived": 42,
    "upcoming": 44,
    "missions": 150,
    "407": 36,
    "status": 254,
    "k": 460,
    "##je": 34,
    "gotham": 18,
    "##city": 50,
    "nasa": 262,
    "rise": 144,
    "phase": 136,
    "pad": 132,
    "tower": 118,
    "clearance": 30,
    "achieved": 74,
    "tilt": 42,
    "maneuver": 34,
    "roll": 100,
    "orient": 20,
    "alpha": 48,
    "alleviate": 34,
    "structural": 28,
    "advantages": 74,
    "gain": 182,
    "decreased": 38,
    "band": 194,
    "angles": 36,
    "crew": 106,
    "horizon": 24,
    "gaining": 32,
    "##rang": 32,
    "velocity": 78,
    "stage": 202,
    "couch": 14,
    "jar": 36,
    "interpret": 142,
    "clears": 14,
    "rolling": 28,
    "atmosphere": 118,
    "chord": 16,
    "leading": 186,
    "trailing": 8,
    "downward": 14,
    "belly": 18,
    "delicate": 16,
    "inclination": 30,
    "flight": 188,
    "execute": 94,
    "dangerous": 262,
    "maneuvers": 14,
    "improves": 14,
    "antennae": 10,
    "sight": 96,
    "helpful": 218,
    "mandatory": 60,
    "pilot": 54,
    "engines": 124,
    "vector": 54,
    "quantity": 64,
    "horizontal": 72,
    "attain": 34,
    "begs": 12,
    "oriented": 122,
    "pads": 48,
    "##overs": 8,
    "##rad": 26,
    "##dles": 2,
    "trenches": 10,
    "exhaust": 132,
    "effects": 278,
    "daytime": 10,
    "dirty": 74,
    "gray": 144,
    "garbage": 98,
    "fluffy": 6,
    "white": 460,
    "steam": 82,
    "stack": 72,
    "buddy": 30,
    "axes": 50,
    "pitch": 124,
    "tolerance": 48,
    "orbital": 108,
    "qu": 214,
    "##ater": 12,
    "##nio": 12,
    "##ad": 188,
    "concept": 288,
    "combining": 20,
    "matrices": 10,
    "element": 100,
    "satellite": 334,
    "dish": 88,
    "stationed": 22,
    "difficult": 472,
    "west": 86,
    "viewers": 52,
    "operators": 64,
    "carries": 86,
    "conferences": 46,
    "coverage": 204,
    "planetary": 72,
    "encounters": 18,
    "begun": 64,
    "secondary": 84,
    "covered": 246,
    "##bro": 26,
    "##cast": 26,
    "650": 112,
    "395": 40,
    "295": 20,
    "850": 48,
    "270": 66,
    "590": 26,
    "390": 22,
    "frequencies": 68,
    "supplying": 22,
    "555": 48,
    "##45": 84,
    "05": 428,
    "bands": 74,
    "item": 178,
    "courtesy": 82,
    "##oft": 26,
    "##70": 116,
    "percent": 260,
    "perch": 8,
    "##lor": 54,
    "catalyst": 6,
    "acid": 138,
    "##ryl": 2,
    "rubber": 100,
    "##ring": 202,
    "aluminum": 108,
    "multitude": 20,
    "sins": 144,
    "##ance": 192,
    "quarter": 80,
    "pounds": 88,
    "prize": 76,
    "warren": 24,
    "constructive": 22,
    "contributors": 22,
    "mental": 92,
    "discuss": 246,
    "cops": 138,
    "newspaper": 134,
    "afraid": 230,
    "teen": 10,
    "auto": 556,
    "fatally": 6,
    "wounded": 104,
    "injury": 162,
    "hiding": 68,
    "midnight": 36,
    "hospitalized": 12,
    "satisfactory": 34,
    "##point": 60,
    "rural": 16,
    "town": 348,
    "northwest": 8,
    "snapping": 4,
    "heck": 72,
    "##ots": 26,
    "affect": 134,
    "negatively": 6,
    "hee": 32,
    "match": 224,
    "##ups": 88,
    "forecast": 20,
    "weather": 116,
    "hays": 6,
    "ss": 80,
    "intel": 48,
    "dar": 44,
    "##pped": 36,
    "firearm": 188,
    "flipping": 14,
    "spacecraft": 180,
    "mal": 84,
    "##nction": 34,
    "cl": 364,
    "##utter": 32,
    "titled": 34,
    "water": 538,
    "research": 624,
    "progression": 20,
    "dem": 56,
    "##lina": 10,
    "nerve": 46,
    "fibre": 4,
    "impulse": 42,
    "slight": 94,
    "variation": 44,
    "previously": 180,
    "college": 150,
    "bb": 54,
    "setup": 242,
    "connect": 230,
    "##ir": 36,
    "wrap": 102,
    "revealing": 36,
    "th": 170,
    "authentication": 58,
    "useful": 536,
    "coe": 98,
    "##rce": 42,
    "assisting": 8,
    "##pment": 4,
    "##ement": 44,
    "approval": 78,
    "jim": 38,
    "basics": 20,
    "cadence": 8,
    "discussing": 146,
    "##lind": 4,
    "bt": 54,
    "originally": 186,
    "apt": 24,
    "trucks": 54,
    "test": 732,
    "lighter": 56,
    "banners": 10,
    "banning": 40,
    "warn": 58,
    "prospective": 12,
    "##sg": 36,
    "##run": 36,
    "##tled": 4,
    "apple": 168,
    "##link": 82,
    "##rin": 32,
    "marina": 4,
    "papa": 12,
    "tender": 32,
    "##izer": 56,
    "packets": 34,
    "##ings": 72,
    "diagnosed": 66,
    "skin": 140,
    "rash": 38,
    "##iac": 18,
    "joint": 88,
    "##light": 80,
    "cruz": 8,
    "santa": 10,
    "pin": 434,
    "flat": 170,
    "identical": 182,
    "lacked": 22,
    "plastic": 172,
    "removing": 100,
    "polish": 18,
    "tip": 64,
    "instrument": 86,
    "ending": 76,
    "smooth": 92,
    "shiny": 8,
    "republic": 74,
    "medal": 16,
    "sections": 148,
    "rt": 124,
    "##fm": 52,
    "xx": 130,
    "amazed": 50,
    "readers": 206,
    "notably": 28,
    "patented": 40,
    "org": 440,
    "##ff": 344,
    "patents": 72,
    "##film": 4,
    "##ographic": 122,
    "spy": 54,
    "cipher": 354,
    "impressed": 80,
    "##bber": 28,
    "##ish": 116,
    "distributed": 224,
    "systematic": 24,
    "##sy": 170,
    "##matic": 66,
    "consuming": 26,
    "literature": 164,
    "introductory": 22,
    "textbooks": 20,
    "tens": 42,
    "theoretical": 74,
    "regulated": 98,
    "offering": 74,
    "cash": 138,
    "rewards": 14,
    "##ographer": 12,
    "guarantees": 54,
    "layer": 74,
    "##plication": 18,
    "reviewed": 48,
    "procedure": 148,
    "scope": 172,
    "episodes": 16,
    "movie": 120,
    "##phones": 18,
    "##man": 346,
    "hotel": 60,
    "coup": 42,
    "guests": 22,
    "episode": 42,
    "numbering": 10,
    "boxes": 208,
    "packaging": 64,
    "##cut": 64,
    "originals": 12,
    "syndication": 2,
    "incredible": 44,
    "movies": 70,
    "swap": 218,
    "##sal": 72,
    "hobby": 50,
    "ba": 168,
    "##ud": 128,
    "controller": 608,
    "440": 36,
    "doc": 204,
    "printed": 134,
    "unlimited": 44,
    "connecting": 48,
    "umm": 6,
    "lump": 30,
    "##lat": 128,
    "discreet": 6,
    "alert": 20,
    "clue": 100,
    "sang": 10,
    "anthem": 8,
    "opener": 20,
    "upgrades": 60,
    "combined": 90,
    "##centric": 12,
    "galactic": 14,
    "##ric": 60,
    "square": 128,
    "timer": 82,
    "coa": 22,
    "##xia": 10,
    "##channel": 10,
    "bilingual": 4,
    "278": 50,
    "##orne": 6,
    "cal": 156,
    "##sta": 122,
    "fastest": 58,
    "speakers": 76,
    "deck": 72,
    "690": 20,
    "tax": 464,
    "fang": 6,
    "purdue": 42,
    "317": 24,
    "papers": 232,
    "necessarily": 306,
    "conducted": 96,
    "apps": 132,
    "curses": 14,
    "keyboard": 490,
    "##tro": 176,
    "##kes": 72,
    "feedback": 68,
    "prototypes": 6,
    "##land": 50,
    "kid": 110,
    "allocated": 60,
    "dad": 42,
    "ticket": 134,
    "abbreviation": 26,
    "rag": 14,
    "stared": 8,
    "ended": 158,
    "recognize": 236,
    "alternating": 16,
    "polite": 48,
    "rude": 38,
    "shoulder": 64,
    "##hir": 32,
    "##rr": 106,
    "reel": 20,
    "mad": 74,
    "##haus": 8,
    "355": 56,
    "##gu": 10,
    "ink": 106,
    "drying": 12,
    "##ear": 54,
    "wet": 76,
    "laser": 152,
    "kitten": 4,
    "soft": 130,
    "assuming": 266,
    "tank": 212,
    "damaged": 70,
    "automated": 46,
    "tool": 526,
    "laugh": 110,
    "prohibited": 48,
    "consumer": 76,
    "applicable": 68,
    "exploitation": 4,
    "chi": 90,
    "dig": 110,
    "promotional": 12,
    "lit": 48,
    "##fo": 188,
    "geo": 118,
    "##ok": 82,
    "##nor": 84,
    "backbone": 12,
    "representing": 44,
    "queer": 18,
    "probe": 244,
    "##piration": 22,
    "starts": 238,
    "antenna": 102,
    "consume": 36,
    "rees": 6,
    "ops": 16,
    "periods": 70,
    "forgotten": 60,
    "##pre": 132,
    "##hen": 42,
    "##sible": 54,
    "##bby": 4,
    "expected": 370,
    "bugs": 140,
    "##like": 26,
    "lift": 98,
    "grief": 30,
    "maturity": 18,
    "scandal": 16,
    "consists": 104,
    "subjective": 110,
    "refused": 104,
    "figures": 160,
    "authoritative": 24,
    "explains": 70,
    "intend": 116,
    "##ver": 136,
    "adds": 66,
    "##firm": 42,
    "repeatedly": 90,
    "1989": 268,
    "##dev": 14,
    "##nti": 38,
    "##sts": 26,
    "##tical": 88,
    "principal": 42,
    "intrinsic": 54,
    "##ally": 254,
    "ip": 68,
    "1917": 18,
    "offence": 24,
    "punished": 62,
    "illicit": 18,
    "differed": 8,
    "radically": 28,
    "##essed": 14,
    "##udi": 30,
    "govern": 34,
    "consecrated": 16,
    "apostolic": 8,
    "ensuring": 18,
    "survival": 54,
    "ordination": 4,
    "perform": 178,
    "confirmation": 46,
    "gravity": 90,
    "prima": 14,
    "##flict": 46,
    "granted": 126,
    "critics": 20,
    "foster": 18,
    "mod": 152,
    "##icum": 8,
    "##ega": 8,
    "deals": 92,
    "evidently": 24,
    "ap": 222,
    "##osta": 70,
    "offenses": 30,
    "terms": 426,
    "cited": 86,
    "##ii": 30,
    "reads": 108,
    "##crat": 18,
    "pontifical": 4,
    "##ur": 180,
    "##iae": 4,
    "reserved": 58,
    "attempts": 174,
    "charity": 42,
    "ecclesiastical": 14,
    "libel": 16,
    "massive": 102,
    "mans": 12,
    "##lau": 40,
    "##ght": 36,
    "stress": 78,
    "dubious": 32,
    "##rica": 8,
    "lawyers": 62,
    "sympathy": 32,
    "##ated": 178,
    "##uel": 22,
    "##les": 100,
    "explained": 174,
    "constitutes": 34,
    "##ral": 38,
    "pont": 6,
    "##iff": 14,
    "establishing": 46,
    "commented": 38,
    "divided": 70,
    "1976": 68,
    "##just": 38,
    "considers": 48,
    "undergoing": 14,
    "believes": 166,
    "sincerely": 24,
    "incurred": 10,
    "prelate": 4,
    "undermine": 22,
    "orthodox": 62,
    "salvation": 128,
    "souls": 56,
    "intimately": 6,
    "reconciliation": 10,
    "lifetime": 86,
    "quota": 82,
    "merits": 36,
    "miracle": 66,
    "elm": 12,
    "##inated": 24,
    "finals": 56,
    "backs": 52,
    "scalp": 22,
    "aide": 22,
    "faces": 94,
    "scratched": 16,
    "knives": 62,
    "eyes": 276,
    "##uge": 28,
    "dozens": 40,
    "corpses": 58,
    "sought": 60,
    "recover": 66,
    "1960": 62,
    "miracles": 66,
    "nuclear": 286,
    "flights": 58,
    "parent": 136,
    "##dit": 38,
    "accomplishments": 8,
    "privileged": 14,
    "stories": 184,
    "eyed": 14,
    "telescopes": 8,
    "toilet": 44,
    "seats": 94,
    "##ken": 32,
    "swell": 16,
    "ref": 294,
    "##bis": 102,
    "ballistic": 12,
    "legacy": 12,
    "continuing": 92,
    "parents": 228,
    "caught": 218,
    "enthusiasm": 6,
    "spirit": 128,
    "learned": 194,
    "achievements": 12,
    "mistakes": 124,
    "honor": 106,
    "impetus": 12,
    "fir": 10,
    "exploration": 68,
    "incorporated": 36,
    "rocket": 244,
    "advocated": 20,
    "##lessly": 28,
    "elegant": 22,
    "breakthrough": 32,
    "reminded": 36,
    "prime": 128,
    "##tine": 110,
    "##ntal": 24,
    "1920": 108,
    "aerospace": 44,
    "transportation": 44,
    "launched": 154,
    "api": 10,
    "##ece": 18,
    "signaled": 2,
    "commitment": 112,
    "##asse": 14,
    "##sco": 60,
    "bringing": 78,
    "framework": 44,
    "routine": 124,
    "affordable": 28,
    "magnificent": 6,
    "summer": 312,
    "rapidly": 70,
    "##ably": 192,
    "efficiently": 34,
    "propulsion": 70,
    "former": 332,
    "efforts": 216,
    "merge": 24,
    "mankind": 90,
    "temptation": 22,
    "leap": 70,
    "weren": 188,
    "##umb": 26,
    "dollars": 242,
    "jump": 132,
    "colleagues": 44,
    "brick": 22,
    "draft": 260,
    "##cco": 12,
    "##mbe": 2,
    "pleading": 8,
    "trades": 34,
    "brilliance": 4,
    "anchor": 16,
    "sucker": 18,
    "##weight": 10,
    "wasted": 40,
    "trigger": 96,
    "judgement": 146,
    "conviction": 72,
    "handy": 78,
    "shotgun": 74,
    "possession": 90,
    "altered": 54,
    "conceal": 40,
    "##ibility": 56,
    "##ide": 66,
    "implications": 60,
    "hearted": 18,
    "unpopular": 20,
    "##ization": 344,
    "empty": 144,
    "register": 110,
    "tops": 26,
    "bastard": 32,
    "morals": 72,
    "sunk": 20,
    "viewed": 82,
    "##md": 70,
    "handheld": 52,
    "attend": 60,
    "bread": 64,
    "butter": 10,
    "gall": 18,
    "ancient": 130,
    "travelling": 30,
    "carnival": 6,
    "##ume": 38,
    "##rating": 30,
    "felt": 242,
    "prohibition": 48,
    "galleries": 4,
    "opposition": 112,
    "ruled": 106,
    "operate": 138,
    "projectile": 34,
    "beams": 14,
    "shaft": 82,
    "permission": 168,
    "kn": 28,
    "##kle": 18,
    "pep": 6,
    "instruction": 102,
    "##cent": 68,
    "pump": 56,
    "friendly": 96,
    "neighborhood": 46,
    "##wd": 90,
    "id": 318,
    "##xx": 112,
    "obtained": 216,
    "glover": 4,
    "usable": 48,
    "newer": 146,
    "significantly": 164,
    "bothering": 16,
    "watching": 188,
    "nt": 72,
    "caution": 36,
    "unexpected": 26,
    "##ew": 156,
    "600": 286,
    "##rri": 64,
    "##num": 28,
    "##ber": 92,
    "winding": 18,
    "core": 194,
    "##ura": 52,
    "thickness": 16,
    "copper": 58,
    "analog": 124,
    "##books": 10,
    "##bal": 22,
    "nearest": 46,
    "##mpt": 48,
    "##om": 106,
    "shine": 44,
    "horizontally": 24,
    "internet": 336,
    "##44": 126,
    "##16": 102,
    "american": 44,
    "exceptional": 20,
    "personally": 244,
    "unfair": 52,
    "adolescent": 14,
    "stupid": 344,
    "contribute": 88,
    "slump": 24,
    "views": 250,
    "statements": 246,
    "obtaining": 52,
    "expects": 40,
    "sweep": 54,
    "instructions": 188,
    "##ea": 170,
    "sighted": 26,
    "talks": 196,
    "##hr": 144,
    "##ono": 80,
    "speeds": 172,
    "##vic": 28,
    "##write": 70,
    "differs": 24,
    "burst": 140,
    "bursts": 30,
    "genetic": 80,
    "##position": 20,
    "##illa": 18,
    "walls": 80,
    "brothers": 84,
    "transplant": 34,
    "thigh": 10,
    "lining": 22,
    "herb": 10,
    "experiences": 160,
    "beat": 282,
    "jug": 12,
    "##nge": 44,
    "piston": 20,
    "valve": 80,
    "loved": 78,
    "insert": 142,
    "intends": 34,
    "merely": 254,
    "substitution": 36,
    "forensic": 20,
    "speaking": 210,
    "pursuing": 54,
    "essays": 8,
    "essay": 14,
    "slalom": 4,
    "rides": 56,
    "##ele": 46,
    "mile": 222,
    "mph": 72,
    "tor": 16,
    "gear": 150,
    "rpm": 44,
    "torque": 66,
    "yeah": 122,
    "quieter": 4,
    "shafts": 22,
    "wins": 146,
    "contest": 190,
    "blow": 124,
    "crack": 142,
    "speak": 352,
    "##rence": 32,
    "highlight": 14,
    "reliability": 66,
    "comparing": 84,
    "considerably": 66,
    "succeed": 44,
    "nah": 6,
    "cares": 96,
    "asleep": 30,
    "sad": 142,
    "lightweight": 14,
    "sep": 118,
    "##erate": 108,
    "suitable": 122,
    "##backs": 56,
    "buttons": 84,
    "##back": 132,
    "routines": 222,
    "neatly": 18,
    "ease": 54,
    "coding": 58,
    "driven": 180,
    "style": 288,
    "integer": 62,
    "arithmetic": 100,
    "##ded": 106,
    "domain": 246,
    "straightforward": 40,
    "algorithms": 124,
    "distribution": 346,
    "oz": 118,
    "meant": 324,
    "marketing": 86,
    "prose": 54,
    "##cute": 32,
    "fraud": 48,
    "buyers": 28,
    "march": 34,
    "minutes": 364,
    "grinding": 18,
    "bigger": 154,
    "##utable": 106,
    "cartridges": 62,
    "physical": 404,
    "testified": 30,
    "os": 384,
    "describe": 182,
    "demand": 186,
    "revision": 82,
    "represent": 150,
    "officially": 78,
    "##lai": 120,
    "##mer": 152,
    "boom": 26,
    "resulting": 128,
    "damage": 250,
    "##led": 212,
    "hacking": 20,
    "##pack": 28,
    "##ette": 48,
    "utility": 188,
    "##uen": 174,
    "collecting": 52,
    "uploaded": 16,
    "nm": 66,
    "##dm": 194,
    "zip": 258,
    "funding": 172,
    "briefly": 46,
    "shifted": 20,
    "evaluated": 26,
    "billions": 40,
    "cocaine": 34,
    "slipping": 6,
    "cracks": 14,
    "wealthy": 30,
    "naturally": 78,
    "##ours": 24,
    "##eit": 26,
    "header": 226,
    "##not": 42,
    "mart": 8,
    "338": 28,
    "##31": 82,
    "switches": 110,
    "##stick": 86,
    "##balls": 24,
    "##ball": 58,
    "##bat": 26,
    "cheering": 14,
    "frustration": 18,
    "israeli": 46,
    "bosnian": 8,
    "inhabited": 8,
    "serbs": 6,
    "muslims": 40,
    "peaceful": 62,
    "israelis": 20,
    "lebanese": 6,
    "efficient": 80,
    "##dates": 10,
    "frames": 70,
    "320": 120,
    "##24": 172,
    "5000": 114,
    "franchise": 54,
    "explosive": 52,
    "fission": 16,
    "fusion": 44,
    "atomic": 40,
    "nuclei": 2,
    "biological": 58,
    "organisms": 34,
    "viruses": 22,
    "city": 474,
    "similarly": 54,
    "populated": 20,
    "##ev": 76,
    "##oir": 2,
    "crop": 48,
    "mustard": 8,
    "poisonous": 10,
    "individually": 34,
    "banned": 72,
    "chemicals": 48,
    "definitions": 88,
    "destruction": 124,
    "diet": 164,
    "decline": 34,
    "enthusiastic": 18,
    "lap": 22,
    "##dot": 56,
    "##mity": 210,
    "seed": 64,
    "crush": 18,
    "bruise": 16,
    "heel": 22,
    "commits": 18,
    "devil": 58,
    "grace": 156,
    "greek": 44,
    "##cha": 94,
    "##rito": 2,
    "thee": 28,
    "proto": 26,
    "evan": 28,
    "##gel": 34,
    "promise": 126,
    "savior": 18,
    "##eem": 22,
    "wil": 30,
    "conclude": 110,
    "##lessness": 10,
    "vera": 30,
    "promised": 102,
    "serpent": 24,
    "perfection": 26,
    "grasped": 2,
    "foot": 218,
    "##note": 18,
    "##ami": 26,
    "filled": 142,
    "reduced": 132,
    "conception": 38,
    "agreement": 144,
    "tradition": 156,
    "declaration": 38,
    "cancel": 26,
    "remembered": 50,
    "##eo": 38,
    "##rom": 50,
    "##oc": 228,
    "##yt": 58,
    "##cide": 30,
    "mouse": 496,
    "cell": 114,
    "##genic": 36,
    "primary": 202,
    "##vine": 6,
    "##ren": 50,
    "cortex": 2,
    "christ": 16,
    "ah": 52,
    "pathetic": 30,
    "##ote": 36,
    "chu": 30,
    "##mbo": 20,
    "appointment": 34,
    "lake": 32,
    "motorcycles": 124,
    "era": 66,
    "hardly": 174,
    "mounting": 46,
    "automobiles": 38,
    "##oot": 18,
    "wrecked": 14,
    "abused": 48,
    "garage": 82,
    "1200": 118,
    "polished": 14,
    "cam": 96,
    "adjustable": 28,
    "##rod": 36,
    "##ffle": 32,
    "##meter": 22,
    "fork": 56,
    "springs": 26,
    "seat": 158,
    "sis": 10,
    "chrome": 22,
    "brace": 6,
    "cooler": 16,
    "##rm": 128,
    "rows": 74,
    "textual": 12,
    "tracking": 74,
    "1776": 12,
    "favorable": 32,
    "scheduled": 90,
    "##dorf": 8,
    "##vert": 164,
    "affiliated": 34,
    "delicious": 2,
    "pipeline": 14,
    "##front": 8,
    "##wi": 98,
    "interview": 84,
    "qualify": 58,
    "andy": 42,
    "zones": 14,
    "leagues": 40,
    "hypothesis": 60,
    "talent": 116,
    "rushed": 40,
    "majors": 54,
    "fare": 18,
    "poorly": 56,
    "unusual": 80,
    "ages": 42,
    "struggled": 14,
    "stats": 220,
    "stocked": 6,
    "helping": 82,
    "newspapers": 86,
    "censorship": 38,
    "##ents": 50,
    "##nsor": 24,
    "honest": 160,
    "sporting": 20,
    "liquor": 6,
    "gal": 36,
    "editors": 40,
    "displeasure": 10,
    "288": 42,
    "505": 28,
    "##54": 56,
    "##50": 106,
    "385": 24,
    "##58": 50,
    "##57": 42,
    "540": 18,
    "##40": 170,
    "5th": 76,
    "750": 160,
    "topic": 220,
    "headlines": 10,
    "##ammed": 10,
    "journalism": 20,
    "journalists": 50,
    "succeeded": 50,
    "playing": 350,
    "unconstitutional": 22,
    "conquer": 20,
    "ammunition": 82,
    "hunting": 54,
    "recreational": 18,
    "##zos": 14,
    "generous": 34,
    "communists": 8,
    "communism": 20,
    "solved": 60,
    "productive": 42,
    "raises": 48,
    "embarrassing": 18,
    "slug": 42,
    "##gard": 4,
    "butcher": 34,
    "##lak": 4,
    "neighboring": 32,
    "capitalist": 44,
    "politically": 58,
    "skill": 52,
    "ambition": 4,
    "flee": 32,
    "presently": 42,
    "locking": 24,
    "barbed": 6,
    "mines": 16,
    "fleeing": 24,
    "prison": 102,
    "fiction": 68,
    "crossing": 40,
    "unarmed": 38,
    "socialists": 20,
    "sheer": 18,
    "contentious": 10,
    "choosing": 76,
    "resolved": 36,
    "ultimate": 84,
    "departure": 8,
    "hair": 118,
    "observer": 42,
    "##has": 36,
    "disagreements": 6,
    "stem": 18,
    "widespread": 88,
    "z": 384,
    "leaves": 120,
    "respects": 40,
    "shards": 6,
    "tram": 36,
    "##pled": 24,
    "hierarchy": 56,
    "shocking": 14,
    "hour": 214,
    "followed": 286,
    "##ech": 18,
    "##isms": 8,
    "inn": 42,
    "retirement": 16,
    "waited": 62,
    "recovered": 50,
    "inquired": 4,
    "absence": 72,
    "confirmed": 96,
    "retired": 56,
    "injustice": 16,
    "clergy": 10,
    "churches": 116,
    "celebrate": 38,
    "visit": 152,
    "parish": 38,
    "promptly": 34,
    "enraged": 8,
    "enlist": 6,
    "priest": 78,
    "parishes": 16,
    "legislation": 136,
    "enacted": 22,
    "obligation": 32,
    "petitions": 4,
    "kicked": 42,
    "conform": 84,
    "jointly": 38,
    "##hed": 46,
    "controversy": 28,
    "instant": 42,
    "##ister": 4,
    "##ieu": 14,
    "teachings": 126,
    "pit": 90,
    "##iful": 26,
    "rests": 16,
    "##tray": 38,
    "historically": 36,
    "honored": 18,
    "contention": 48,
    "vested": 12,
    "outcome": 84,
    "religions": 238,
    "slippery": 22,
    "diamond": 16,
    "stadium": 44,
    "marked": 88,
    "champion": 20,
    "loser": 36,
    "treat": 156,
    "##orn": 24,
    "lights": 146,
    "1975": 78,
    "##fen": 8,
    "vintage": 24,
    "enormous": 82,
    "##col": 40,
    "##oured": 12,
    "amber": 22,
    "parking": 78,
    "marker": 24,
    "lamps": 34,
    "luxury": 30,
    "aimed": 98,
    "glossy": 10,
    "bro": 60,
    "##chu": 34,
    "illuminating": 8,
    "hazards": 18,
    "pot": 62,
    "toys": 22,
    "wheels": 84,
    "anxiety": 20,
    "disorder": 36,
    "characterized": 38,
    "obsession": 20,
    "persistent": 30,
    "##rus": 36,
    "entertained": 4,
    "compulsion": 18,
    "repetitive": 28,
    "ritual": 34,
    "intense": 42,
    "psychological": 76,
    "resisted": 10,
    "##sive": 36,
    "repeated": 136,
    "accompanied": 38,
    "##urrent": 14,
    "##las": 46,
    "suppress": 50,
    "realizes": 20,
    "originate": 20,
    "##pu": 156,
    "##ls": 168,
    "constant": 154,
    "washing": 18,
    "##iating": 22,
    "distress": 20,
    "##air": 16,
    "daily": 126,
    "relationships": 32,
    "psycho": 46,
    "##therapy": 2,
    "behavioral": 4,
    "##ants": 40,
    "psychiatric": 8,
    "characters": 210,
    "##wil": 28,
    "mein": 4,
    "zu": 32,
    "wondered": 58,
    "welcome": 236,
    "kits": 50,
    "astronomy": 56,
    "wavelength": 18,
    "telescope": 46,
    "cameras": 56,
    "proportional": 28,
    "counters": 80,
    "accomplish": 74,
    "aboard": 22,
    "1997": 24,
    "assists": 44,
    "trajectory": 24,
    "arrive": 50,
    "2004": 10,
    "arrival": 30,
    "separates": 8,
    "descends": 8,
    "traverse": 6,
    "cloudy": 6,
    "surface": 336,
    "touring": 12,
    "##aj": 26,
    "##ect": 54,
    "##ories": 30,
    "targeted": 28,
    "objectives": 54,
    "##fold": 26,
    "rings": 74,
    "magnet": 44,
    "##osphere": 20,
    "intriguing": 8,
    "lakes": 12,
    "liquid": 80,
    "hydro": 20,
    "##carbon": 12,
    "photo": 154,
    "##chemical": 8,
    "processes": 100,
    "conde": 82,
    "##nse": 32,
    "rain": 78,
    "onboard": 14,
    "radar": 226,
    "peer": 46,
    "clouds": 26,
    "investigate": 62,
    "chemical": 92,
    "named": 232,
    "1625": 6,
    "1712": 2,
    "atmospheric": 42,
    "physicist": 54,
    "1629": 6,
    "1695": 2,
    "09": 264,
    "asteroid": 20,
    "##fur": 16,
    "abandoned": 50,
    "mapping": 96,
    "mapped": 44,
    "map": 178,
    "booster": 52,
    "martian": 10,
    "observing": 40,
    "observations": 126,
    "substantially": 60,
    "ocean": 34,
    "dynamics": 36,
    "transported": 10,
    "poles": 22,
    "particles": 48,
    "##ometer": 46,
    "electron": 30,
    "collectors": 20,
    "ranges": 30,
    "plasma": 26,
    "receivers": 46,
    "stole": 50,
    "planet": 162,
    "sliding": 40,
    "north": 118,
    "pole": 60,
    "##uve": 6,
    "bent": 40,
    "solar": 170,
    "tilted": 10,
    "##hel": 26,
    "surprisingly": 22,
    "##ih": 50,
    "##eli": 40,
    "##bor": 24,
    "studied": 90,
    "articles": 394,
    "contributed": 94,
    "##mada": 6,
    "jp": 224,
    "updates": 68,
    "variations": 38,
    "emission": 4,
    "dwarfs": 4,
    "##sm": 428,
    "flare": 6,
    "nearby": 94,
    "exotic": 26,
    "objects": 268,
    "isolated": 54,
    "neutron": 44,
    "gamma": 38,
    "astro": 120,
    "##physical": 6,
    "investigator": 48,
    "jj": 14,
    "lan": 20,
    "measure": 206,
    "conducts": 4,
    "scientific": 406,
    "retrieved": 20,
    "1994": 92,
    "ions": 8,
    "gases": 10,
    "surrounding": 68,
    "astronomical": 32,
    "electromagnetic": 18,
    "waves": 48,
    "1995": 42,
    "crust": 12,
    "thermal": 54,
    "construction": 108,
    "interior": 60,
    "observatory": 22,
    "mysteries": 22,
    "characteristics": 72,
    "1999": 26,
    "comets": 26,
    "primitive": 68,
    "outer": 70,
    "cosmic": 44,
    "formation": 54,
    "galaxies": 14,
    "planets": 32,
    "distant": 36,
    "infrared": 26,
    "emi": 54,
    "##tting": 20,
    "rover": 10,
    "samples": 78,
    "1996": 24,
    "2005": 8,
    "measurements": 54,
    "vapor": 32,
    "2016": 2,
    "traces": 26,
    "##ins": 56,
    "retail": 46,
    "eliminating": 28,
    "sunni": 2,
    "ja": 70,
    "##ffa": 4,
    "##ri": 220,
    "muslim": 30,
    "islam": 24,
    "hostility": 32,
    "category": 116,
    "##ending": 42,
    "precedent": 44,
    "##ith": 34,
    "ind": 298,
    "##nant": 14,
    "##sa": 268,
    "applies": 154,
    "reward": 68,
    "fat": 128,
    "##wa": 86,
    "assisted": 34,
    "encompass": 16,
    "diplomatic": 28,
    "relations": 94,
    "condemnation": 36,
    "circulation": 18,
    "preliminary": 30,
    "resolving": 12,
    "iss": 18,
    "##uance": 10,
    "blitz": 2,
    "presenting": 50,
    "lone": 34,
    "knight": 8,
    "guarding": 6,
    "sacred": 60,
    "democracy": 84,
    "mocking": 6,
    "beliefs": 356,
    "flames": 112,
    "everywhere": 114,
    "demonstrators": 10,
    "protesting": 22,
    "momentarily": 10,
    "climbed": 14,
    "issued": 130,
    "##zation": 86,
    "##ep": 136,
    "publishers": 12,
    "encompasses": 8,
    "payload": 124,
    "315": 48,
    "kg": 80,
    "launcher": 108,
    "successor": 18,
    "dia": 138,
    "##rou": 96,
    "##nd": 198,
    "loads": 50,
    "shake": 36,
    "fragile": 12,
    "integration": 68,
    "assembled": 90,
    "##tial": 12,
    "bolted": 2,
    "rail": 18,
    "erected": 6,
    "facilities": 132,
    "imported": 22,
    "worrying": 16,
    "implied": 68,
    "advocacy": 30,
    "securing": 16,
    "tapping": 32,
    "crook": 34,
    "flickering": 8,
    "tastes": 22,
    "surplus": 24,
    "worlds": 30,
    "traditions": 44,
    "meaning": 456,
    "surviving": 20,
    "disciples": 116,
    "martyr": 24,
    "het": 60,
    "##ero": 56,
    "##orth": 2,
    "##od": 108,
    "tickets": 96,
    "basketball": 30,
    "trace": 170,
    "geologist": 8,
    "existent": 48,
    "premises": 64,
    "respective": 40,
    "arise": 50,
    "directions": 62,
    "offended": 36,
    "bag": 110,
    "premise": 82,
    "peacefully": 20,
    "gonna": 98,
    "token": 24,
    "##wo": 82,
    "##of": 192,
    "mini": 142,
    "colored": 30,
    "##bm": 62,
    "##ride": 44,
    "comfort": 54,
    "charismatic": 10,
    "##iculate": 32,
    "demonstrates": 54,
    "leadership": 144,
    "qualities": 30,
    "derived": 96,
    "fish": 76,
    "ich": 12,
    "##saurus": 12,
    "dreadful": 6,
    "disputed": 32,
    "fishing": 44,
    "disputes": 14,
    "slogan": 12,
    "dispute": 74,
    "potatoes": 8,
    "option": 366,
    "transactions": 38,
    "##act": 98,
    "##table": 98,
    "fu": 124,
    "##dge": 46,
    "concerning": 180,
    "##market": 32,
    "unhappy": 40,
    "noisy": 40,
    "rich": 122,
    "cafe": 28,
    "amended": 18,
    "mei": 6,
    "scares": 16,
    "##ture": 22,
    "aka": 40,
    "houses": 162,
    "interactions": 8,
    "lessons": 28,
    "roommate": 16,
    "rode": 52,
    "cotton": 26,
    "##breaker": 12,
    "invest": 38,
    "rains": 6,
    "##torm": 6,
    "urban": 50,
    "ski": 74,
    "##dded": 2,
    "ejected": 16,
    "upward": 14,
    "##coming": 26,
    "stopped": 256,
    "someplace": 24,
    "mechanic": 40,
    "eco": 20,
    "##no": 138,
    "##ze": 188,
    "licensing": 48,
    "fees": 64,
    "maintenance": 66,
    "upstate": 2,
    "substantial": 92,
    "annual": 102,
    "noticing": 10,
    "visiting": 44,
    "##rooms": 4,
    "shopping": 46,
    "quoting": 46,
    "hence": 122,
    "superstar": 32,
    "blamed": 42,
    "cup": 106,
    "tendency": 48,
    "knife": 122,
    "semifinals": 2,
    "playoffs": 180,
    "colours": 38,
    "colour": 122,
    "palette": 74,
    "cube": 34,
    "bedroom": 54,
    "spacious": 6,
    "inquiries": 22,
    "messengers": 16,
    "accumulated": 14,
    "##ened": 44,
    "fulfillment": 40,
    "forgiveness": 34,
    "messenger": 36,
    "fears": 30,
    "pleasing": 12,
    "humble": 32,
    "mainstream": 60,
    "mock": 22,
    "##ery": 32,
    "rid": 212,
    "##ule": 36,
    "martyrs": 8,
    "saints": 22,
    "engage": 64,
    "##cker": 12,
    "arguments": 364,
    "bind": 24,
    "muster": 12,
    "saved": 246,
    "extend": 86,
    "indications": 6,
    "acknowledge": 96,
    "atheist": 612,
    "##nostic": 54,
    "remind": 70,
    "prevented": 90,
    "prayed": 14,
    "remained": 72,
    "hesitate": 18,
    "pena": 6,
    "##nce": 204,
    "fruits": 36,
    "##trust": 18,
    "insist": 110,
    "convey": 36,
    "##ss": 148,
    "##ua": 82,
    "dragon": 22,
    "angry": 76,
    "offspring": 16,
    "famine": 10,
    "blessed": 44,
    "prepared": 180,
    "renewed": 16,
    "wherever": 42,
    "shared": 216,
    "blessings": 10,
    "sharing": 78,
    "forgetting": 14,
    "preparing": 42,
    "sanctuary": 10,
    "womb": 24,
    "marries": 2,
    "bride": 8,
    "conceived": 24,
    "flock": 16,
    "greedy": 8,
    "##ari": 114,
    "worthy": 88,
    "align": 18,
    "recommendation": 26,
    "##cea": 14,
    "nur": 14,
    "##turing": 8,
    "##uber": 8,
    "renew": 22,
    "succeeds": 18,
    "enclosed": 22,
    "375": 60,
    "321": 56,
    "279": 26,
    "occurs": 210,
    "preceding": 26,
    "equation": 70,
    "equations": 48,
    "margin": 56,
    "rack": 48,
    "holder": 42,
    "accessories": 40,
    "brackets": 12,
    "fourteen": 10,
    "##ug": 60,
    "seizure": 54,
    "eating": 130,
    "seizures": 52,
    "bowl": 18,
    "frost": 6,
    "cereal": 46,
    "embarrassed": 26,
    "junk": 128,
    "pour": 32,
    "coated": 26,
    "ate": 50,
    "##gated": 22,
    "scratching": 12,
    "inmates": 6,
    "quick": 278,
    "dent": 24,
    "invaders": 10,
    "brad": 18,
    "##ski": 26,
    "##26": 92,
    "storage": 156,
    "##llis": 10,
    "##cope": 16,
    "depended": 10,
    "successive": 14,
    "ham": 78,
    "##fest": 30,
    "terminology": 38,
    "##frame": 66,
    "fiddle": 14,
    "##bla": 30,
    "##hema": 40,
    "observation": 110,
    "rotate": 48,
    "clockwise": 32,
    "northern": 48,
    "hemisphere": 14,
    "##ock": 78,
    "##wise": 40,
    "vegetation": 4,
    "classic": 78,
    "sw": 150,
    "##ast": 60,
    "##ika": 16,
    "sun": 436,
    "clocks": 24,
    "imitation": 6,
    "heavens": 36,
    "uncertainty": 14,
    "twin": 54,
    "opposite": 150,
    "visually": 16,
    "settle": 58,
    "dick": 18,
    "##ene": 28,
    "accelerator": 150,
    "wildly": 14,
    "determining": 54,
    "##iness": 38,
    "sounding": 52,
    "saving": 96,
    "##gin": 22,
    "##tors": 100,
    "sentences": 38,
    "##ti": 286,
    "##tat": 26,
    "internationally": 12,
    "hacker": 70,
    "shit": 140,
    "sized": 82,
    "shift": 156,
    "privately": 42,
    "stunt": 14,
    "silicon": 40,
    "spit": 38,
    "diplomats": 34,
    "spying": 24,
    "workers": 92,
    "astronaut": 54,
    "##ics": 88,
    "assent": 4,
    "##ap": 174,
    "sectional": 10,
    "sr": 88,
    "gallon": 20,
    "grapes": 8,
    "grown": 50,
    "yearly": 22,
    "topped": 8,
    "##dia": 68,
    "hop": 70,
    "##py": 244,
    "lame": 36,
    "##nted": 26,
    "abd": 18,
    "thoroughly": 56,
    "thank": 160,
    "keyboards": 50,
    "wires": 166,
    "cables": 96,
    "tan": 58,
    "fry": 14,
    "brave": 32,
    "##omic": 28,
    "correlation": 40,
    "connections": 108,
    "##ered": 70,
    "##bus": 12,
    "slots": 126,
    "scorer": 32,
    "awarded": 38,
    "pitcher": 116,
    "abroad": 42,
    "##edge": 10,
    "saves": 154,
    "packet": 40,
    "ole": 34,
    "guitar": 30,
    "uk": 394,
    "liv": 16,
    "flaming": 50,
    "administering": 8,
    "serum": 14,
    "##rim": 128,
    "sal": 18,
    "inca": 50,
    "##pac": 8,
    "##itate": 32,
    "protections": 22,
    "incorporate": 46,
    "hodge": 6,
    "##pod": 12,
    "wired": 46,
    "mainly": 146,
    "correction": 52,
    "chuck": 8,
    "grasp": 38,
    "frank": 22,
    "scrap": 24,
    "pittsburgh": 6,
    "sg": 54,
    "##uw": 6,
    "pa": 74,
    "usa": 20,
    "na": 108,
    "confess": 48,
    "##eme": 26,
    "##try": 36,
    "weighs": 14,
    "1100": 112,
    "fr": 180,
    "##eon": 12,
    "jets": 26,
    "pulse": 40,
    "width": 152,
    "alignment": 38,
    "eight": 166,
    "cycle": 120,
    "residual": 12,
    "angular": 8,
    "momentum": 32,
    "spin": 72,
    "stabilization": 4,
    "flip": 40,
    "liter": 54,
    "modules": 66,
    "bolt": 52,
    "magnitude": 62,
    "formats": 276,
    "twist": 52,
    "disappear": 68,
    "clues": 32,
    "secretary": 24,
    "##ram": 26,
    "##bled": 8,
    "filter": 104,
    "scheduling": 12,
    "commenting": 22,
    "withdraw": 66,
    "boots": 74,
    "tanker": 4,
    "fantasies": 20,
    "rebel": 12,
    "oppression": 30,
    "strap": 32,
    "bombs": 34,
    "##bas": 22,
    "##sies": 16,
    "##bia": 34,
    "##sed": 128,
    "observers": 36,
    "lunatic": 50,
    "possibilities": 64,
    "triad": 2,
    "fulfilling": 8,
    "##lf": 44,
    "selective": 40,
    "keepers": 6,
    "holy": 104,
    "riddle": 12,
    "twisted": 44,
    "ravi": 22,
    "fictional": 12,
    "severely": 44,
    "##ider": 38,
    "##cing": 96,
    "##qua": 74,
    "perceptions": 30,
    "##ali": 72,
    "##tative": 18,
    "quantitative": 22,
    "laps": 24,
    "versus": 94,
    "syn": 44,
    "##mous": 6,
    "mist": 54,
    "patches": 150,
    "##ars": 24,
    "expressions": 22,
    "regions": 58,
    "##ue": 88,
    "##eza": 2,
    "##ord": 62,
    "##roy": 12,
    "doctors": 160,
    "cast": 84,
    "transport": 66,
    "##ai": 76,
    "450": 94,
    "lever": 24,
    "fines": 8,
    "##ches": 40,
    "bun": 50,
    "##gee": 20,
    "resting": 16,
    "passenger": 74,
    "peg": 18,
    "##ign": 34,
    "tour": 38,
    "sessions": 40,
    "barracks": 10,
    "stairs": 18,
    "completed": 90,
    "retrieval": 20,
    "lux": 10,
    "##uri": 38,
    "collisions": 16,
    "##belt": 10,
    "##bag": 38,
    "presumably": 100,
    "plans": 158,
    "commissioned": 12,
    "valley": 24,
    "flows": 20,
    "join": 166,
    "divert": 26,
    "diversion": 10,
    "km": 164,
    "mountainous": 14,
    "inaccessible": 12,
    "wells": 24,
    "rumored": 24,
    "border": 198,
    "costly": 30,
    "overall": 170,
    "bilateral": 12,
    "##ciation": 10,
    "regional": 38,
    "withdrawal": 34,
    "##gul": 12,
    "##ets": 44,
    "implement": 124,
    "contracts": 74,
    "professionals": 60,
    "collective": 50,
    "spear": 16,
    "##head": 84,
    "gladly": 34,
    "royalties": 14,
    "implemented": 160,
    "charging": 38,
    "bunker": 20,
    "clever": 52,
    "purchased": 168,
    "##mina": 108,
    "suns": 22,
    "##lby": 2,
    "##wind": 78,
    "2500": 20,
    "##tm": 54,
    "##eter": 52,
    "outlet": 102,
    "625": 46,
    "precision": 78,
    "ideal": 114,
    "yard": 40,
    "cain": 8,
    "401": 38,
    "421": 20,
    "za": 86,
    "##pper": 10,
    "controllers": 58,
    "duck": 28,
    "hunt": 20,
    "##fire": 38,
    "handed": 154,
    "disguised": 14,
    "##door": 50,
    "bribes": 4,
    "espionage": 34,
    "connected": 266,
    "creating": 150,
    "##leg": 30,
    "weaknesses": 36,
    "grow": 90,
    "replacements": 28,
    "alternatives": 88,
    "##kit": 198,
    "abstraction": 22,
    "nickname": 30,
    "##ulator": 58,
    "leaving": 182,
    "burning": 146,
    "cleveland": 24,
    "##nc": 40,
    "arrangement": 48,
    "desk": 90,
    "fei": 12,
    "captured": 60,
    "petroleum": 6,
    "gel": 30,
    "##uted": 48,
    "inhabitants": 98,
    "accepted": 304,
    "underground": 48,
    "burned": 194,
    "catching": 18,
    "cigar": 8,
    "goat": 8,
    "##lli": 26,
    "whoever": 66,
    "rodents": 6,
    "##wr": 72,
    "##app": 40,
    "slick": 18,
    "dilemma": 18,
    "disappearing": 8,
    "profitable": 18,
    "##rgo": 18,
    "tablets": 20,
    "flushed": 12,
    "nasal": 8,
    "spray": 28,
    "varying": 36,
    "max": 190,
    "accelerated": 48,
    "corrected": 74,
    "meanings": 36,
    "dictionary": 90,
    "cruel": 88,
    "reminder": 28,
    "interpreting": 32,
    "passages": 132,
    "somehow": 234,
    "und": 294,
    "##put": 122,
    "cite": 84,
    "scripture": 110,
    "abs": 92,
    "##uti": 40,
    "interpretations": 96,
    "sponsoring": 16,
    "seminar": 46,
    "visual": 324,
    "developments": 36,
    "sol": 66,
    "presentations": 52,
    "length": 262,
    "demonstration": 86,
    "proceedings": 88,
    "##graphs": 18,
    "materials": 108,
    "reproduced": 12,
    "attendees": 30,
    "abstract": 58,
    "2008": 24,
    "##18": 86,
    "lip": 38,
    "##as": 248,
    "dt": 130,
    "affiliation": 42,
    "acceptance": 66,
    "reproduction": 26,
    "stockings": 10,
    "advisory": 24,
    "committee": 198,
    "redesign": 64,
    "academic": 128,
    "participate": 120,
    "utmost": 12,
    "diverse": 40,
    "integrity": 46,
    "independently": 42,
    "assessing": 12,
    "proposing": 40,
    "efficiency": 28,
    "clone": 106,
    "accessed": 44,
    "reacts": 10,
    "reproduce": 36,
    "colleague": 34,
    "dos": 148,
    "##wc": 10,
    "##cd": 20,
    "##drive": 42,
    "##tz": 60,
    "moi": 8,
    "##res": 142,
    "bitch": 34,
    "limitation": 40,
    "splash": 6,
    "resolutions": 56,
    "##resh": 94,
    "##reate": 14,
    "pixels": 106,
    "compute": 66,
    "styled": 8,
    "shaded": 8,
    "transfers": 64,
    "internally": 34,
    "ras": 104,
    "copied": 56,
    "vectors": 18,
    "poly": 224,
    "##ching": 54,
    "slowly": 82,
    "##mark": 58,
    "##mers": 42,
    "testing": 172,
    "blessing": 18,
    "grabs": 18,
    "##ifiers": 22,
    "mn": 34,
    "##emon": 16,
    "handler": 104,
    "lobbying": 22,
    "semantics": 18,
    "translations": 60,
    "resource": 262,
    "##around": 54,
    "descendants": 18,
    "invoked": 28,
    "##tton": 14,
    "establishes": 16,
    "whereas": 98,
    "ancestors": 30,
    "##ances": 22,
    "essence": 86,
    "upset": 96,
    "shaky": 16,
    "mix": 80,
    "##sham": 2,
    "##edly": 2,
    "narratives": 6,
    "comte": 2,
    "##ora": 60,
    "historians": 46,
    "attempt": 386,
    "humanity": 102,
    "inherent": 86,
    "absolute": 290,
    "founded": 96,
    "trooper": 2,
    "learns": 4,
    "shrug": 10,
    "commodity": 4,
    "civilized": 34,
    "mor": 98,
    "monarch": 8,
    "##rg": 68,
    "collapse": 48,
    "blaming": 32,
    "crowe": 4,
    "shining": 20,
    "cultural": 138,
    "##gled": 24,
    "surfaced": 6,
    "officers": 182,
    "handgun": 278,
    "twelve": 42,
    "teachers": 58,
    "earn": 68,
    "semester": 10,
    "intended": 366,
    "##ored": 22,
    "students": 152,
    "excited": 42,
    "learning": 172,
    "simulated": 18,
    "underwater": 10,
    "simulation": 48,
    "trips": 62,
    "instructors": 18,
    "dinner": 46,
    "banquet": 8,
    "flew": 54,
    "continental": 42,
    "breakfast": 20,
    "lunch": 72,
    "##13": 154,
    "##eti": 116,
    "gods": 124,
    "eaten": 48,
    "attained": 14,
    "wages": 34,
    "##test": 36,
    "edited": 72,
    "##ator": 24,
    "smile": 14,
    "pat": 22,
    "beg": 80,
    "##zine": 16,
    "castle": 12,
    "##dro": 14,
    "buys": 22,
    "winner": 116,
    "variant": 40,
    "encompassing": 4,
    "##ented": 82,
    "sustained": 38,
    "optimal": 28,
    "grab": 110,
    "vast": 94,
    "cd": 162,
    "rom": 56,
    "accessible": 56,
    "partition": 56,
    "connor": 8,
    "temporary": 84,
    "switching": 80,
    "bats": 28,
    "finished": 148,
    "410": 50,
    "##ulton": 2,
    "333": 126,
    "875": 34,
    "gala": 6,
    "mitchell": 2,
    "lansing": 2,
    "van": 130,
    "##wal": 4,
    "##nan": 12,
    "##dez": 2,
    "martinez": 2,
    "##well": 36,
    "hayes": 4,
    "##you": 18,
    "mill": 104,
    "##igan": 14,
    "##yk": 6,
    "##stra": 24,
    "405": 42,
    "##ine": 140,
    "plant": 124,
    "gonzalez": 4,
    "296": 42,
    "anthony": 10,
    "cole": 4,
    "sanders": 4,
    "357": 44,
    "berry": 8,
    "273": 60,
    "343": 22,
    "jeff": 22,
    "##eries": 6,
    "269": 22,
    "vans": 14,
    "312": 96,
    "490": 14,
    "butler": 4,
    "##iss": 24,
    "308": 38,
    "##wyn": 2,
    "mer": 68,
    "##ced": 26,
    "murray": 2,
    "521": 10,
    "gil": 8,
    "##key": 28,
    "bon": 28,
    "292": 86,
    "417": 38,
    "370": 36,
    "walters": 2,
    "501": 24,
    "wilson": 20,
    "323": 38,
    "weiss": 2,
    "justice": 196,
    "351": 52,
    "##mith": 26,
    "310": 54,
    "##glia": 4,
    "470": 22,
    "327": 68,
    "hu": 76,
    "##ak": 60,
    "benjamin": 2,
    "345": 66,
    "415": 140,
    "moran": 2,
    "##dini": 2,
    "360": 98,
    "##den": 46,
    "##wari": 2,
    "435": 22,
    "412": 60,
    "##laus": 4,
    "thompson": 8,
    "316": 86,
    "barber": 14,
    "267": 66,
    "sheffield": 4,
    "##rro": 30,
    "williams": 2,
    "##gr": 94,
    "##rard": 2,
    "381": 22,
    "304": 48,
    "santiago": 2,
    "clayton": 2,
    "piazza": 2,
    "larkin": 4,
    "281": 32,
    "garcia": 4,
    "319": 20,
    "326": 24,
    "coleman": 6,
    "kent": 8,
    "roberts": 2,
    "277": 50,
    "lewis": 2,
    "354": 56,
    "finley": 2,
    "clark": 4,
    "268": 62,
    "le": 106,
    "339": 26,
    "mcgee": 2,
    "335": 20,
    "334": 28,
    "oliver": 4,
    "gardner": 2,
    "332": 24,
    "reed": 16,
    "##llins": 4,
    "294": 28,
    "davis": 6,
    "325": 70,
    "pendleton": 2,
    "322": 18,
    "297": 6,
    "strawberry": 10,
    "314": 26,
    "##gio": 22,
    "##adan": 4,
    "##gno": 68,
    "##zzi": 14,
    "299": 26,
    "martin": 16,
    "##chet": 10,
    "tau": 18,
    "##ben": 36,
    "##see": 36,
    "##lick": 2,
    "pose": 42,
    "291": 30,
    "cia": 16,
    "##fr": 116,
    "johnson": 8,
    "274": 36,
    "kelly": 6,
    "nixon": 2,
    "##ford": 16,
    "olson": 10,
    "viz": 8,
    "##ino": 28,
    "sanchez": 2,
    "duncan": 2,
    "chamberlain": 2,
    "##don": 46,
    "##ado": 10,
    "felix": 4,
    "jordan": 10,
    "##hill": 6,
    "ben": 52,
    "##avi": 22,
    "##des": 92,
    "wilkins": 4,
    "cv": 70,
    "encyclopedia": 20,
    "stretch": 90,
    "farm": 60,
    "animal": 112,
    "paula": 8,
    "ko": 108,
    "##ax": 40,
    "approached": 32,
    "teenager": 8,
    "questioned": 52,
    "struck": 76,
    "flashlight": 22,
    "threatening": 64,
    "bail": 20,
    "##zan": 4,
    "complaint": 58,
    "suspended": 36,
    "pending": 32,
    "investigation": 158,
    "excessive": 80,
    "requested": 94,
    "##osing": 32,
    "afterward": 24,
    "hang": 82,
    "summoned": 14,
    "##sca": 116,
    "##thed": 2,
    "survivor": 32,
    "pool": 116,
    "complained": 30,
    "scholarly": 38,
    "##zy": 14,
    "extreme": 136,
    "hawk": 16,
    "doll": 8,
    "famous": 120,
    "bust": 26,
    "pink": 58,
    "complexion": 2,
    "##pres": 62,
    "##entation": 32,
    "queen": 14,
    "hysterical": 18,
    "blond": 4,
    "haired": 4,
    "representations": 12,
    "##our": 52,
    "beard": 4,
    "##ulo": 8,
    "negro": 6,
    "##id": 166,
    "marble": 10,
    "statues": 4,
    "prone": 52,
    "greeks": 10,
    "crosses": 8,
    "##orus": 2,
    "indian": 2,
    "subcontinent": 2,
    "racist": 96,
    "potentially": 62,
    "remark": 234,
    "identification": 104,
    "jews": 40,
    "##cot": 6,
    "medieval": 14,
    "##mit": 46,
    "thesis": 34,
    "roles": 24,
    "korean": 4,
    "racial": 74,
    "##hip": 90,
    "employees": 72,
    "unfamiliar": 20,
    "closet": 22,
    "chained": 4,
    "lets": 124,
    "producers": 12,
    "salaries": 16,
    "shaping": 12,
    "defensive": 214,
    "linked": 146,
    "lee": 50,
    "##rea": 160,
    "hopefully": 98,
    "trimmed": 12,
    "##writing": 18,
    "100th": 2,
    "evaluation": 70,
    "que": 68,
    "##ries": 74,
    "tangent": 12,
    "attributed": 48,
    "remove": 230,
    "signatures": 20,
    "institution": 44,
    "wrapping": 16,
    "terminals": 98,
    "carriage": 20,
    "index": 176,
    "##ique": 36,
    "##tte": 30,
    "orbits": 48,
    "crater": 28,
    "diameter": 64,
    "asteroids": 30,
    "projections": 32,
    "spherical": 26,
    "tri": 172,
    "##metry": 12,
    "simulations": 32,
    "##hem": 42,
    "##eri": 96,
    "dimensional": 44,
    "galaxy": 30,
    "coordinates": 34,
    "histories": 42,
    "schemes": 62,
    "sails": 20,
    "lasers": 18,
    "computation": 40,
    "##elli": 18,
    "launching": 34,
    "landings": 20,
    "composition": 26,
    "photography": 48,
    "##tec": 36,
    "astronauts": 36,
    "activist": 10,
    "specified": 146,
    "largely": 114,
    "absorbed": 16,
    "archives": 112,
    "announcements": 36,
    "managed": 180,
    "##47": 52,
    "##ima": 28,
    "ak": 18,
    "##erman": 6,
    "queens": 4,
    "##weig": 20,
    "ao": 54,
    "##ab": 92,
    "tides": 6,
    "aw": 42,
    "wat": 20,
    "##gl": 20,
    "waterloo": 16,
    "kelvin": 12,
    "rat": 42,
    "bern": 2,
    "trier": 4,
    "bros": 4,
    "arc": 122,
    "bsc": 2,
    "##hl": 28,
    "##inger": 2,
    "ns": 82,
    "##sd": 70,
    "gs": 66,
    "##fc": 64,
    "cbn": 28,
    "##nni": 14,
    "##da": 190,
    "cy": 158,
    "##ama": 38,
    "##mot": 14,
    "##lr": 22,
    "dat": 28,
    "viewing": 100,
    "dave": 60,
    "dl": 44,
    "##bre": 18,
    "usl": 10,
    "hs": 34,
    "eugene": 10,
    "introduction": 114,
    "french": 26,
    "##une": 260,
    "amateur": 56,
    "ga": 166,
    "cfa": 10,
    "grand": 74,
    "##ao": 22,
    "greer": 2,
    "uta": 18,
    "##nx": 2,
    "henry": 16,
    "zoo": 24,
    "toronto": 52,
    "higgins": 4,
    "##nal": 60,
    "##sat": 40,
    "hm": 30,
    "##sun": 38,
    "##bh": 10,
    "##28": 66,
    "ui": 216,
    "services": 268,
    "##nh": 4,
    "##ead": 16,
    "lp": 42,
    "arizona": 34,
    "scale": 258,
    "heights": 10,
    "##tti": 20,
    "##roll": 6,
    "orion": 14,
    "##la": 120,
    "##rga": 20,
    "##ury": 10,
    "marko": 2,
    "##witz": 2,
    "##gate": 56,
    "mbe": 10,
    "##llon": 2,
    "##dur": 2,
    "mcc": 12,
    "phoenix": 16,
    "careers": 26,
    "mw": 52,
    "cm": 328,
    "nick": 12,
    "sussex": 10,
    "##aina": 6,
    "ai": 96,
    "panama": 2,
    "portal": 34,
    "comet": 30,
    "paul": 24,
    "##lase": 2,
    "##js": 38,
    "plato": 2,
    "uno": 64,
    "##mah": 6,
    "rd": 36,
    "coca": 8,
    "au": 336,
    "##ja": 38,
    "phil": 66,
    "##jun": 10,
    "##gc": 116,
    "roe": 10,
    "##lle": 12,
    "##hua": 16,
    "leonardo": 2,
    "skipper": 2,
    "photos": 50,
    "##pit": 34,
    "stephen": 6,
    "gp": 18,
    "stern": 10,
    "warp": 26,
    "##ook": 38,
    "maps": 88,
    "anderson": 4,
    "terry": 8,
    "typhoon": 2,
    "atm": 14,
    "harris": 10,
    "##ik": 48,
    "##ko": 18,
    "helsinki": 6,
    "##a1": 4,
    "##oro": 38,
    "##nto": 18,
    "##mba": 20,
    "##star": 38,
    "ames": 58,
    "memo": 20,
    "##riam": 4,
    "tongues": 30,
    "problematic": 28,
    "angels": 66,
    "misleading": 56,
    "angel": 30,
    "tongue": 32,
    "testament": 20,
    "disturbing": 48,
    "verification": 52,
    "circumstances": 150,
    "fabrication": 36,
    "linguistic": 12,
    "syllable": 4,
    "##fies": 32,
    "##fle": 16,
    "##ction": 104,
    "##wang": 4,
    "depend": 134,
    "automobile": 70,
    "difficulty": 86,
    "beam": 56,
    "730": 50,
    "##30": 280,
    "ing": 172,
    "##gra": 64,
    "1701": 4,
    "1700": 12,
    "##49": 28,
    "##86": 108,
    "numbered": 30,
    "responds": 38,
    "##ost": 132,
    "wai": 70,
    "##vis": 58,
    "prevalent": 14,
    "##har": 56,
    "##int": 148,
    "##eres": 14,
    "reinstated": 4,
    "8th": 50,
    "inspirational": 2,
    "finishing": 16,
    "clicked": 12,
    "voting": 66,
    "demonstrated": 92,
    "##making": 12,
    "passes": 78,
    "club": 218,
    "albeit": 40,
    "tremendous": 58,
    "killer": 38,
    "banner": 10,
    "bothered": 72,
    "groin": 14,
    "brighter": 24,
    "clouded": 6,
    "willingness": 26,
    "wonders": 24,
    "fore": 140,
    "##che": 88,
    "##cking": 12,
    "impress": 26,
    "dispersal": 22,
    "camp": 84,
    "contender": 8,
    "supplemental": 16,
    "##ffey": 4,
    "##imated": 8,
    "shy": 22,
    "tea": 74,
    "midway": 28,
    "indicative": 20,
    "tore": 34,
    "minors": 66,
    "chances": 152,
    "bait": 42,
    "##pressed": 48,
    "projecting": 8,
    "survive": 92,
    "enforce": 66,
    "patent": 96,
    "exemption": 14,
    "copyright": 164,
    "exempt": 42,
    "experiment": 126,
    "detected": 44,
    "sued": 28,
    "eve": 26,
    "farewell": 2,
    "cleanup": 14,
    "belongings": 8,
    "flattened": 4,
    "paper": 420,
    "useless": 128,
    "unsure": 16,
    "sentence": 170,
    "targets": 94,
    "victim": 116,
    "atrocities": 62,
    "chiefly": 4,
    "winger": 32,
    "##worthy": 50,
    "predicted": 70,
    "suggests": 120,
    "intervene": 32,
    "##lov": 30,
    "##lu": 196,
    "880": 26,
    "##tics": 54,
    "receiver": 108,
    "carrier": 42,
    "chase": 38,
    "##rift": 6,
    "module": 152,
    "##balance": 28,
    "provision": 36,
    "##yr": 56,
    "separation": 86,
    "contamination": 26,
    "lid": 26,
    "mirror": 146,
    "tug": 6,
    "costing": 32,
    "cancelled": 22,
    "rifle": 60,
    "rare": 122,
    "magnum": 12,
    "##vie": 38,
    "bullets": 58,
    "whites": 96,
    "pet": 42,
    "##hc": 32,
    "connects": 36,
    "descending": 10,
    "mobility": 12,
    "rotten": 12,
    "factors": 142,
    "excel": 24,
    "dome": 6,
    "comfortably": 6,
    "football": 52,
    "snow": 110,
    "hurdles": 2,
    "##flight": 14,
    "regulars": 22,
    "##upt": 36,
    "mr": 38,
    "##kis": 6,
    "honourable": 4,
    "europeans": 8,
    "corrupt": 70,
    "pity": 28,
    "makers": 48,
    "recognizing": 24,
    "blocked": 30,
    "facilitate": 30,
    "underway": 32,
    "reuters": 2,
    "lengthy": 42,
    "reunite": 4,
    "978": 16,
    "1659": 4,
    "wong": 4,
    "pic": 72,
    "ee": 170,
    "downloaded": 52,
    "activate": 14,
    "segments": 54,
    "rao": 14,
    "maintains": 48,
    "1948": 62,
    "cease": 54,
    "shrines": 2,
    "violated": 60,
    "##do": 110,
    "##nes": 18,
    "fitness": 2,
    "centered": 20,
    "##gram": 72,
    "spite": 54,
    "estimates": 58,
    "optimistic": 22,
    "airline": 28,
    "attract": 18,
    "captures": 12,
    "##naire": 22,
    "deaf": 28,
    "pleased": 58,
    "inquiry": 52,
    "educated": 48,
    "teacher": 76,
    "posse": 16,
    "musical": 20,
    "creativity": 10,
    "musician": 8,
    "performer": 8,
    "loud": 88,
    "folk": 42,
    "songs": 14,
    "commandant": 6,
    "surge": 24,
    "damaging": 34,
    "cents": 34,
    "contemplating": 10,
    "placing": 36,
    "trash": 112,
    "stating": 86,
    "vertically": 12,
    "shaking": 16,
    "rocking": 6,
    "chair": 52,
    "guessing": 46,
    "pots": 10,
    "ignorant": 140,
    "commit": 138,
    "circles": 36,
    "##ifies": 50,
    "##bert": 16,
    "##erian": 8,
    "##rac": 96,
    "adjustment": 30,
    "adjustments": 30,
    "dear": 70,
    "camping": 22,
    "relieve": 40,
    "mastering": 24,
    "explicitly": 122,
    "slave": 146,
    "synonymous": 18,
    "expanded": 66,
    "scenario": 64,
    "grant": 182,
    "communicate": 58,
    "infinitely": 32,
    "deity": 72,
    "##hm": 68,
    "##uck": 26,
    "##cta": 102,
    "hides": 8,
    "observes": 2,
    "observed": 82,
    "mutually": 20,
    "concluding": 10,
    "absent": 36,
    "accountable": 22,
    "eng": 58,
    "synthesis": 18,
    "simultaneous": 18,
    "voices": 36,
    "tim": 30,
    "experimenting": 14,
    "adding": 122,
    "pouch": 14,
    "slides": 28,
    "##how": 22,
    "manipulate": 44,
    "mixer": 36,
    "enhance": 52,
    "sharpe": 24,
    "dub": 10,
    "##bing": 34,
    "##cor": 50,
    "unreliable": 20,
    "erratic": 8,
    "usage": 192,
    "cracked": 36,
    "pressures": 20,
    "recommended": 152,
    "psi": 22,
    "inner": 86,
    "##tub": 8,
    "sizes": 56,
    "metric": 36,
    "matching": 40,
    "lasting": 32,
    "predictable": 10,
    "rim": 24,
    "##wall": 32,
    "##vn": 26,
    "winds": 34,
    "##creen": 12,
    "##bar": 154,
    "restore": 78,
    "representation": 44,
    "bureau": 54,
    "regulator": 22,
    "duties": 46,
    "legislative": 44,
    "borders": 104,
    "##wer": 60,
    "boat": 36,
    "converts": 38,
    "contraction": 4,
    "uniform": 82,
    "stretching": 22,
    "contracting": 6,
    "uniformly": 20,
    "rotating": 30,
    "treating": 62,
    "distorted": 40,
    "projection": 32,
    "bump": 22,
    "3d": 92,
    "treatments": 54,
    "custom": 172,
    "##wire": 20,
    "sequences": 88,
    "##ifier": 40,
    "pressed": 58,
    "comfortable": 90,
    "##nging": 8,
    "##aks": 8,
    "tt": 64,
    "chunk": 34,
    "hail": 12,
    "donations": 16,
    "ideological": 34,
    "fathers": 42,
    "passion": 12,
    "constructing": 20,
    "museums": 16,
    "collections": 30,
    "educate": 30,
    "supremacy": 12,
    "skeletons": 6,
    "1942": 20,
    "520": 42,
    "anthropological": 4,
    "researches": 4,
    "prisoners": 54,
    "execution": 62,
    "1944": 28,
    "spectacle": 2,
    "libertarian": 126,
    "ideals": 26,
    "combat": 60,
    "##du": 212,
    "theo": 44,
    "##riz": 10,
    "invaded": 40,
    "utopia": 16,
    "dreams": 42,
    "confronted": 28,
    "proving": 34,
    "##ress": 190,
    "binary": 152,
    "largest": 94,
    "realized": 130,
    "##bble": 46,
    "tiles": 8,
    "spelled": 26,
    "monkey": 22,
    "moments": 44,
    "consulting": 32,
    "dir": 64,
    "##fs": 72,
    "spreads": 38,
    "##hee": 48,
    "mercy": 52,
    "##zing": 86,
    "rejected": 88,
    "1967": 78,
    "##af": 42,
    "forbidden": 22,
    "taxis": 2,
    "yellow": 62,
    "arrows": 8,
    "torn": 50,
    "arrow": 38,
    "##eger": 4,
    "##tries": 6,
    "sai": 10,
    "knights": 2,
    "meet": 256,
    "tournaments": 4,
    "distinctive": 10,
    "ringing": 18,
    "unpublished": 10,
    "picks": 48,
    "##ema": 14,
    "##rke": 14,
    "##ters": 150,
    "meaningless": 76,
    "##xi": 70,
    "##cating": 4,
    "closest": 60,
    "infectious": 32,
    "floats": 2,
    "##ists": 314,
    "emptiness": 2,
    "seek": 146,
    "oneself": 36,
    "interpreted": 84,
    "mv": 34,
    "polar": 52,
    "##ods": 8,
    "operational": 54,
    "families": 114,
    "flown": 22,
    "##isk": 16,
    "580": 40,
    "050": 26,
    "700": 242,
    "670": 22,
    "760": 14,
    "780": 16,
    "720": 40,
    "430": 38,
    "365": 28,
    "525": 34,
    "##km": 48,
    "330": 48,
    "620": 36,
    "##ptic": 12,
    "##ision": 18,
    "##cript": 152,
    "##ica": 78,
    "homes": 116,
    "jet": 36,
    "pei": 14,
    "specifications": 60,
    "##dp": 68,
    "processed": 54,
    "impatient": 4,
    "rendered": 42,
    "demo": 180,
    "insisting": 18,
    "grip": 52,
    "##name": 456,
    "highway": 66,
    "##anger": 20,
    "referred": 134,
    "obeyed": 20,
    "biography": 10,
    "occasions": 54,
    "##ulating": 30,
    "incidents": 30,
    "heroes": 14,
    "crunch": 28,
    "performing": 66,
    "lotus": 4,
    "motorsports": 2,
    "##pw": 20,
    "automotive": 32,
    "appearing": 46,
    "membership": 138,
    "administrative": 50,
    "ari": 30,
    "##osi": 24,
    "utah": 34,
    "bmw": 12,
    "##town": 22,
    "digest": 80,
    "british": 6,
    "##type": 30,
    "##vs": 12,
    "mons": 16,
    "##anto": 10,
    "boogie": 14,
    "bryan": 6,
    "pegasus": 2,
    "competition": 84,
    "vet": 20,
    "##mage": 30,
    "roads": 110,
    "stealth": 22,
    "##post": 82,
    "talon": 2,
    "ev": 46,
    "##mir": 8,
    "claremont": 14,
    "##achi": 18,
    "ford": 14,
    "pickup": 62,
    "italian": 4,
    "brown": 62,
    "rods": 22,
    "dixie": 4,
    "mazda": 4,
    "##ix": 96,
    "hc": 32,
    "mia": 6,
    "##kur": 2,
    "cas": 22,
    "##bah": 6,
    "nw": 30,
    "1973": 44,
    "mustang": 6,
    "fc": 16,
    "gt": 26,
    "gate": 94,
    "porsche": 8,
    "##phile": 14,
    "pd": 56,
    "##race": 14,
    "rally": 54,
    "cb": 68,
    "##lp": 54,
    "##hs": 32,
    "##pus": 38,
    "saturn": 10,
    "pen": 166,
    "vic": 10,
    "toyota": 12,
    "##ack": 100,
    "swedish": 12,
    "##brick": 2,
    "rochester": 12,
    "wanna": 56,
    "##bes": 12,
    "##tow": 4,
    "##ingdon": 2,
    "motif": 84,
    "##win": 64,
    "##the": 78,
    "##del": 22,
    "sprayed": 14,
    "bed": 124,
    "xi": 72,
    "liner": 38,
    "##ell": 30,
    "1720": 6,
    "bat": 124,
    "intentional": 50,
    "relied": 16,
    "failures": 46,
    "hints": 116,
    "slowed": 24,
    "germans": 10,
    "descended": 14,
    "swept": 28,
    "similarity": 26,
    "747": 20,
    "aerodynamic": 18,
    "##lets": 12,
    "70s": 30,
    "aircraft": 120,
    "ours": 66,
    "supportive": 28,
    "##nai": 2,
    "confident": 50,
    "habit": 62,
    "acquiring": 22,
    "pilots": 40,
    "fold": 44,
    "##bie": 46,
    "##vira": 4,
    "trio": 6,
    "duo": 14,
    "reputation": 58,
    "90s": 8,
    "instability": 10,
    "sonic": 8,
    "convincing": 86,
    "##non": 14,
    "##sonic": 10,
    "##wave": 30,
    "produced": 222,
    "ff": 44,
    "##rit": 74,
    "##be": 144,
    "##43": 58,
    "proud": 82,
    "imperfect": 32,
    "liable": 30,
    "##ente": 12,
    "bare": 72,
    "palm": 24,
    "reign": 26,
    "##tee": 112,
    "transition": 44,
    "kicking": 46,
    "heels": 10,
    "##wee": 20,
    "##aa": 38,
    "##ay": 50,
    "rusty": 8,
    "penn": 10,
    "insult": 60,
    "devotion": 24,
    "almighty": 12,
    "stat": 216,
    "publishes": 36,
    "quan": 116,
    "##fia": 32,
    "situations": 160,
    "matched": 40,
    "altogether": 70,
    "trumpet": 18,
    "gibson": 6,
    "##bc": 58,
    "##athi": 26,
    "##oz": 18,
    "##opsis": 6,
    "chick": 2,
    "cock": 14,
    "1968": 98,
    "swapped": 14,
    "entering": 114,
    "appoint": 22,
    "##cos": 46,
    "##orestation": 8,
    "redwood": 10,
    "applying": 56,
    "distinct": 40,
    "##ums": 42,
    "##cial": 48,
    "##kind": 30,
    "defeated": 84,
    "interfered": 16,
    "temporarily": 42,
    "circumstance": 26,
    "##lica": 28,
    "frustrated": 18,
    "willingly": 20,
    "redemption": 16,
    "utterly": 58,
    "triumphant": 6,
    "overcoming": 2,
    "enabling": 16,
    "expecting": 58,
    "proven": 174,
    "whatsoever": 90,
    "prefix": 40,
    "brains": 60,
    "humor": 70,
    "faults": 16,
    "##let": 36,
    "smoke": 250,
    "conflicting": 32,
    "consistency": 22,
    "ina": 130,
    "cone": 20,
    "admitting": 32,
    "adhere": 18,
    "##ogical": 18,
    "dog": 286,
    "ripped": 32,
    "##wt": 18,
    "pri": 60,
    "##vil": 6,
    "##ages": 16,
    "turkey": 14,
    "invisible": 42,
    "unicorn": 28,
    "shutter": 14,
    "shin": 12,
    "##gles": 10,
    "antibiotics": 34,
    "oral": 58,
    "antique": 8,
    "upright": 20,
    "pianos": 2,
    "haul": 22,
    "tuning": 30,
    "county": 26,
    "lengths": 18,
    "rumbling": 2,
    "restrain": 22,
    "rolls": 16,
    "bends": 8,
    "invites": 10,
    "reno": 34,
    "##unce": 26,
    "##bit": 240,
    "mask": 154,
    "skyline": 2,
    "bees": 10,
    "sharp": 72,
    "##kell": 38,
    "sas": 62,
    "cried": 32,
    "wolf": 4,
    "eighties": 12,
    "adult": 96,
    "comic": 44,
    "winning": 198,
    "coloured": 12,
    "paint": 138,
    "hacked": 24,
    "lovers": 14,
    "romantic": 12,
    "werewolf": 2,
    "##azi": 18,
    "chopped": 16,
    "discontinued": 8,
    "tale": 32,
    "easiest": 44,
    "eccentric": 14,
    "occurred": 142,
    "recurring": 12,
    "medication": 44,
    "chat": 14,
    "nervous": 40,
    "##ttered": 4,
    "medications": 16,
    "rap": 54,
    "insulting": 28,
    "resented": 2,
    "implication": 56,
    "apology": 24,
    "mistakenly": 18,
    "manage": 92,
    "##xie": 8,
    "##tou": 14,
    "overly": 44,
    "tough": 160,
    "marijuana": 44,
    "##ude": 74,
    "expresses": 14,
    "451": 24,
    "wills": 16,
    "energies": 14,
    "council": 32,
    "profits": 28,
    "rip": 50,
    "hydra": 4,
    "initiate": 14,
    "##enting": 18,
    "rams": 4,
    "throat": 42,
    "reveals": 28,
    "contempt": 20,
    "disclosure": 48,
    "accountability": 20,
    "howling": 20,
    "louder": 20,
    "weekly": 80,
    "rabbis": 6,
    "rebuild": 34,
    "furnishings": 2,
    "preparation": 38,
    "##nish": 20,
    "rebuilt": 38,
    "temple": 88,
    "striking": 24,
    "awaiting": 30,
    "startling": 12,
    "archeological": 2,
    "discovery": 46,
    "##ied": 54,
    "mosque": 28,
    "rebuilding": 18,
    "spark": 30,
    "##uming": 2,
    "sacrifices": 28,
    "sisters": 30,
    "batteries": 84,
    "darryl": 10,
    "tx": 74,
    "1540": 12,
    "tips": 56,
    "freely": 120,
    "reprinted": 16,
    "profit": 158,
    "ter": 46,
    "descriptions": 78,
    "##27": 62,
    "automatically": 172,
    "speeding": 48,
    "managers": 90,
    "enabled": 34,
    "estimated": 68,
    "unbelievable": 18,
    "horribly": 18,
    "countless": 22,
    "occupies": 12,
    "occasionally": 70,
    "restart": 42,
    "exiting": 18,
    "corrupted": 52,
    "vice": 132,
    "versa": 58,
    "changing": 214,
    "marginal": 58,
    "mentioning": 48,
    "stops": 102,
    "encounter": 68,
    "adjust": 78,
    "needles": 58,
    "wear": 126,
    "transferred": 44,
    "hog": 34,
    "transferring": 28,
    "##ds": 106,
    "lowered": 18,
    "archie": 86,
    "##cs": 122,
    "crashed": 40,
    "downwards": 8,
    "intentionally": 54,
    "combinations": 40,
    "starving": 4,
    "extract": 64,
    "##orted": 36,
    "disabled": 70,
    "##iva": 90,
    "fidelity": 12,
    "sampling": 68,
    "fragmentation": 6,
    "verified": 42,
    "parameter": 76,
    "mentions": 48,
    "gig": 22,
    "##aby": 16,
    "interfaces": 72,
    "##hand": 132,
    "configurations": 32,
    "##tel": 66,
    "##41": 66,
    "dev": 136,
    "##si": 186,
    "ordered": 200,
    "##tracted": 4,
    "##scu": 46,
    "drastically": 26,
    "film": 124,
    "films": 20,
    "ache": 22,
    "databases": 84,
    "simulator": 26,
    "notices": 18,
    "stepping": 20,
    "scene": 60,
    "contiguous": 12,
    "simpler": 48,
    "distracted": 8,
    "focusing": 28,
    "priority": 68,
    "fundamentally": 26,
    "texture": 36,
    "crawling": 4,
    "jagged": 8,
    "edges": 82,
    "distraction": 20,
    "immersed": 2,
    "libraries": 184,
    "developer": 46,
    "##atter": 8,
    "confined": 26,
    "randy": 20,
    "##tek": 18,
    "drink": 112,
    "##grad": 36,
    "breath": 84,
    "replaces": 26,
    "chunks": 20,
    "forbid": 54,
    "quit": 98,
    "hurling": 2,
    "##path": 54,
    "preferring": 4,
    "##tium": 10,
    "dash": 42,
    "funny": 142,
    "disadvantage": 40,
    "undercover": 14,
    "menacing": 6,
    "##neer": 10,
    "tun": 2,
    "bumper": 56,
    "gap": 30,
    "drunk": 62,
    "endemic": 16,
    "vulnerable": 48,
    "witnessed": 52,
    "participants": 76,
    "restrictive": 24,
    "##pon": 100,
    "wishes": 70,
    "##thing": 12,
    "shifting": 38,
    "wagon": 40,
    "concentrate": 56,
    "radios": 70,
    "##hearted": 20,
    "envy": 14,
    "handing": 36,
    "outlets": 124,
    "##ogan": 38,
    "##print": 236,
    "drawings": 24,
    "modify": 136,
    "analyze": 46,
    "scooped": 2,
    "##lved": 4,
    "extensive": 100,
    "sparked": 6,
    "pluto": 42,
    "##nium": 28,
    "scenarios": 16,
    "explosion": 50,
    "##plane": 24,
    "##tary": 16,
    "##cit": 50,
    "landed": 42,
    "intact": 48,
    "##enter": 8,
    "jett": 14,
    "##ison": 14,
    "corrosion": 12,
    "resistant": 36,
    "870": 22,
    "pursue": 54,
    "1987": 148,
    "reviews": 60,
    "1977": 76,
    "##35": 92,
    "remainder": 42,
    "modelling": 18,
    "organized": 202,
    "##pher": 118,
    "kilograms": 16,
    "assumes": 86,
    "variability": 6,
    "volcanic": 4,
    "influence": 102,
    "decrease": 40,
    "globally": 10,
    "averaged": 16,
    "##gli": 58,
    "##gible": 26,
    "halo": 22,
    "1858": 2,
    "1859": 2,
    "lungs": 26,
    "scuba": 2,
    "divers": 2,
    "ascending": 2,
    "##drum": 2,
    "tubes": 66,
    "explode": 26,
    "freeze": 46,
    "instantly": 20,
    "consciousness": 56,
    "##burn": 12,
    "swelling": 26,
    "underlying": 56,
    "tissue": 60,
    "oxygen": 32,
    "accumulate": 20,
    "limits": 142,
    "329": 34,
    "eds": 20,
    "buried": 72,
    "cargo": 14,
    "sensible": 38,
    "vicinity": 28,
    "specialized": 34,
    "##cise": 66,
    "humanoid": 2,
    "imagery": 30,
    "appearance": 108,
    "western": 118,
    "championed": 4,
    "artificial": 74,
    "##rest": 58,
    "##rial": 26,
    "civilization": 44,
    "##cede": 62,
    "resemblance": 10,
    "smiley": 40,
    "faced": 40,
    "lava": 10,
    "meantime": 40,
    "alt": 400,
    "alien": 50,
    "visitors": 10,
    "interdisciplinary": 4,
    "speculative": 16,
    "formations": 2,
    "1926": 26,
    "1933": 30,
    "fra": 92,
    "##mat": 70,
    "##urity": 12,
    "##top": 32,
    "##hil": 50,
    "##ates": 48,
    "norm": 32,
    "venture": 54,
    "##ffen": 4,
    "viewpoint": 80,
    "semitic": 26,
    "1930": 16,
    "militant": 10,
    "practiced": 40,
    "contributing": 30,
    "exodus": 16,
    "frightened": 18,
    "feared": 42,
    "piss": 28,
    "controlled": 200,
    "density": 76,
    "relating": 56,
    "motive": 26,
    "conserve": 12,
    "periodic": 18,
    "additions": 42,
    "##lga": 10,
    "##rd": 130,
    "javelin": 6,
    "museum": 32,
    "consensus": 74,
    "creative": 86,
    "##meric": 42,
    "lightning": 28,
    "rod": 32,
    "subtle": 62,
    "##lge": 22,
    "shares": 30,
    "bone": 68,
    "##heads": 16,
    "##nie": 18,
    "sur": 104,
    "##mounted": 2,
    "pinnacle": 6,
    "grove": 10,
    "pac": 26,
    "lang": 38,
    "##uis": 54,
    "queue": 26,
    "gasp": 14,
    "horrors": 14,
    "employers": 28,
    "##eno": 24,
    "##min": 84,
    "##ota": 24,
    "##rize": 8,
    "##athic": 6,
    "biker": 60,
    "beverages": 4,
    "fluids": 62,
    "##kla": 16,
    "##vah": 4,
    "bala": 4,
    "##ava": 12,
    "helmets": 24,
    "fog": 24,
    "spine": 50,
    "bird": 36,
    "deer": 30,
    "whistle": 18,
    "restaurants": 36,
    "racing": 46,
    "personalities": 16,
    "##dre": 20,
    "friendship": 30,
    "centers": 110,
    "university": 120,
    "wreck": 34,
    "posters": 114,
    "##odies": 4,
    "poke": 8,
    "stereotypes": 6,
    "enthusiast": 12,
    "designated": 58,
    "retro": 26,
    "##active": 26,
    "meetings": 66,
    "appealed": 14,
    "issuing": 14,
    "pins": 132,
    "donated": 18,
    "plaque": 18,
    "hangs": 52,
    "concentrations": 14,
    "barbecue": 18,
    "homecoming": 4,
    "conjunction": 18,
    "heritage": 36,
    "hub": 38,
    "##wl": 42,
    "pathways": 6,
    "wheeled": 6,
    "##ara": 14,
    "spirits": 10,
    "motto": 56,
    "insults": 24,
    "##ttal": 18,
    "clad": 14,
    "describing": 96,
    "inevitably": 46,
    "dump": 74,
    "steep": 28,
    "mystic": 14,
    "philosophers": 18,
    "locker": 22,
    "rooms": 44,
    "bays": 18,
    "halls": 8,
    "##ade": 10,
    "eternity": 48,
    "halt": 30,
    "topological": 4,
    "route": 100,
    "wished": 18,
    "wishing": 16,
    "##wart": 14,
    "##hit": 34,
    "amusement": 16,
    "##nies": 28,
    "signing": 68,
    "vision": 108,
    "yearning": 4,
    "##lt": 84,
    "##rds": 16,
    "socks": 14,
    "sneakers": 2,
    "awesome": 32,
    "ratios": 16,
    "##hes": 50,
    "volunteers": 44,
    "organize": 30,
    "albums": 4,
    "circulating": 16,
    "san": 40,
    "races": 44,
    "poker": 4,
    "participant": 10,
    "collects": 8,
    "daemon": 18,
    "##uh": 4,
    "mud": 34,
    "alike": 60,
    "##tort": 30,
    "guilt": 58,
    "hero": 34,
    "##lling": 20,
    "virtues": 18,
    "cane": 10,
    "##ka": 22,
    "reinforcements": 2,
    "gag": 18,
    "coaster": 6,
    "pere": 8,
    "##nia": 62,
    "yer": 22,
    "ain": 68,
    "##umi": 38,
    "##can": 42,
    "##hort": 10,
    "infamous": 26,
    "stir": 16,
    "##rup": 40,
    "ventral": 4,
    "chewing": 34,
    "gum": 26,
    "rider": 88,
    "zoom": 70,
    "dorsal": 2,
    "robot": 10,
    "transformers": 20,
    "rigged": 12,
    "roar": 12,
    "disciple": 24,
    "thunder": 18,
    "nothin": 2,
    "song": 48,
    "thrill": 14,
    "skies": 14,
    "roared": 2,
    "boomed": 2,
    "doomed": 18,
    "childish": 22,
    "aired": 14,
    "viewer": 114,
    "discretion": 24,
    "advised": 40,
    "sterile": 10,
    "mechanical": 82,
    "pencil": 18,
    "referring": 112,
    "cow": 20,
    "towing": 10,
    "##him": 18,
    "##sir": 4,
    "nos": 38,
    "sir": 30,
    "builds": 18,
    "deepest": 6,
    "valleys": 10,
    "##uts": 22,
    "terror": 54,
    "ladies": 24,
    "leather": 78,
    "jacket": 72,
    "fringe": 32,
    "assaulted": 10,
    "##rong": 2,
    "shower": 22,
    "nails": 18,
    "leaking": 14,
    "##mac": 44,
    "tenor": 12,
    "ry": 6,
    "eats": 22,
    "refrain": 44,
    "ck": 14,
    "bra": 42,
    "mama": 6,
    "joke": 136,
    "##ples": 8,
    "rose": 48,
    "occasion": 32,
    "replied": 100,
    "theme": 48,
    "##form": 88,
    "contributions": 86,
    "organizing": 18,
    "album": 14,
    "tours": 18,
    "vanish": 16,
    "locations": 70,
    "##wk": 14,
    "excerpts": 32,
    "##tos": 28,
    "dod": 24,
    "bruce": 26,
    "tanner": 6,
    "##cards": 4,
    "labeled": 46,
    "creations": 4,
    "consumed": 30,
    "doo": 12,
    "##dad": 10,
    "decides": 64,
    "filling": 36,
    "anarchy": 16,
    "merchandise": 22,
    "license": 296,
    "shirts": 20,
    "polo": 8,
    "buckle": 8,
    "magnus": 12,
    "ohio": 66,
    "gratitude": 10,
    "donation": 14,
    "##feld": 10,
    "governing": 24,
    "maintained": 114,
    "bob": 64,
    "pak": 4,
    "loki": 8,
    "accessory": 18,
    "excerpt": 18,
    "##val": 58,
    "gems": 8,
    "valued": 20,
    "mcgill": 46,
    "rm": 68,
    "##ain": 16,
    "template": 28,
    "script": 140,
    "tends": 128,
    "tunnel": 12,
    "dirt": 84,
    "monster": 20,
    "strokes": 14,
    "staged": 36,
    "gathers": 6,
    "blaine": 2,
    "assumed": 130,
    "virgin": 30,
    "spouse": 22,
    "girl": 76,
    "deemed": 22,
    "subjects": 108,
    "##han": 50,
    "appalachian": 2,
    "mountains": 92,
    "1800": 24,
    "1820": 6,
    "central": 114,
    "whaling": 10,
    "coincidentally": 6,
    "minerals": 14,
    "rene": 8,
    "transcript": 28,
    "recruitment": 10,
    "deported": 12,
    "kidnapping": 4,
    "refugee": 10,
    "1964": 78,
    "clerk": 8,
    "dedicated": 88,
    "jihad": 2,
    "collaborate": 10,
    "enemy": 82,
    "prey": 42,
    "cunning": 4,
    "traps": 36,
    "enemies": 70,
    "##lite": 16,
    "##rate": 56,
    "plague": 20,
    "collaboration": 56,
    "collaborators": 44,
    "##date": 48,
    "##rogate": 18,
    "lure": 12,
    "confront": 14,
    "executing": 32,
    "collaborator": 32,
    "tricked": 4,
    "##dee": 4,
    "recruited": 6,
    "imperative": 20,
    "##some": 22,
    "trap": 98,
    "blackmail": 14,
    "##qa": 8,
    "demons": 34,
    "narcotics": 4,
    "distribute": 54,
    "unbearable": 6,
    "battalions": 12,
    "seize": 26,
    "##nished": 4,
    "interrogation": 26,
    "accuse": 50,
    "##claim": 38,
    "innocence": 22,
    "ir": 172,
    "denies": 48,
    "sincere": 34,
    "confessed": 16,
    "disclosed": 22,
    "executions": 10,
    "##rogated": 8,
    "confesses": 4,
    "complied": 8,
    "hundreds": 176,
    "strangled": 6,
    "restaurant": 50,
    "tables": 90,
    "##ulous": 38,
    "squeak": 10,
    "buck": 38,
    "inflated": 36,
    "profession": 22,
    "##oting": 8,
    "reckless": 26,
    "controversial": 28,
    "magical": 24,
    "sole": 86,
    "##fus": 174,
    "##nate": 40,
    "##omp": 142,
    "##ncy": 54,
    "med": 192,
    "anal": 70,
    "psychotic": 6,
    "yeast": 94,
    "engaged": 84,
    "lac": 10,
    "##tose": 12,
    "begged": 8,
    "##ller": 44,
    "aug": 20,
    "ia": 60,
    "israel": 24,
    "diverted": 8,
    "lebanon": 2,
    "quarrel": 18,
    "gently": 20,
    "captive": 4,
    "disgrace": 14,
    "questioning": 40,
    "mothers": 36,
    "##rip": 28,
    "tu": 84,
    "##rained": 8,
    "endeavor": 14,
    "##ul": 96,
    "pleasant": 34,
    "gloss": 14,
    "mystery": 86,
    "truths": 84,
    "wrath": 20,
    "mythical": 18,
    "jazz": 14,
    "honesty": 32,
    "##sum": 64,
    "##ption": 98,
    "seeking": 78,
    "knocks": 10,
    "opens": 36,
    "folly": 12,
    "glance": 16,
    "absurd": 92,
    "comprehension": 2,
    "thirsty": 16,
    "glory": 68,
    "kings": 24,
    "draws": 34,
    "##ever": 38,
    "mocked": 4,
    "pleasure": 44,
    "##oning": 20,
    "celebrated": 10,
    "cynical": 22,
    "apostle": 22,
    "weighed": 16,
    "##ana": 58,
    "##tin": 36,
    "##bara": 28,
    "##hp": 30,
    "quicker": 30,
    "indiana": 92,
    "##ui": 22,
    "nic": 68,
    "attractive": 42,
    "studio": 18,
    "##rrow": 12,
    "##bi": 56,
    "slip": 60,
    "telling": 258,
    "ascended": 6,
    "##\u00b9": 4,
    "baptized": 14,
    "overlooked": 18,
    "verses": 102,
    "crucial": 54,
    "hideous": 16,
    "polling": 10,
    "##peed": 8,
    "##lem": 12,
    "##rove": 50,
    "eliminated": 60,
    "##rar": 30,
    "##ena": 42,
    "benz": 20,
    "knuckles": 10,
    "curves": 22,
    "surprising": 76,
    "mp": 100,
    "civic": 8,
    "markedly": 10,
    "diesel": 32,
    "gasoline": 52,
    "honda": 4,
    "accord": 32,
    "smell": 42,
    "##iest": 20,
    "offenders": 16,
    "sometime": 82,
    "##ras": 46,
    "classify": 16,
    "pioneers": 8,
    "attacks": 300,
    "##tr": 86,
    "##uth": 20,
    "backpack": 14,
    "sleeping": 36,
    "convenience": 58,
    "accidents": 84,
    "italy": 2,
    "capita": 20,
    "debt": 64,
    "perceive": 38,
    "election": 74,
    "##zia": 8,
    "referendum": 20,
    "emerge": 40,
    "dominate": 24,
    "dei": 20,
    "electoral": 2,
    "##hiff": 6,
    "secretly": 22,
    "modular": 26,
    "battered": 10,
    "killings": 34,
    "honestly": 70,
    "qui": 42,
    "attacker": 48,
    "confuse": 68,
    "detectors": 78,
    "locate": 66,
    "detector": 130,
    "thin": 72,
    "##ulus": 14,
    "intersecting": 14,
    "vo": 108,
    "determination": 40,
    "sighting": 10,
    "absorption": 14,
    "crystal": 58,
    "afi": 18,
    "##eld": 36,
    "popping": 22,
    "mainland": 16,
    "##ony": 228,
    "sadly": 24,
    "mistaken": 80,
    "duly": 10,
    "lecture": 30,
    "##ologist": 30,
    "breakup": 14,
    "shops": 32,
    "happier": 22,
    "tended": 40,
    "geese": 8,
    "##ening": 28,
    "trickle": 18,
    "piled": 6,
    "stark": 8,
    "foothills": 2,
    "##llie": 14,
    "january": 2,
    "predicting": 18,
    "grim": 8,
    "resignation": 8,
    "helicopter": 58,
    "##rrie": 4,
    "ducks": 6,
    "outlying": 2,
    "villages": 248,
    "spoken": 86,
    "az": 26,
    "defenders": 24,
    "slaughter": 108,
    "crying": 50,
    "filmed": 10,
    "##izzly": 4,
    "trail": 22,
    "forested": 4,
    "villagers": 14,
    "refuge": 34,
    "##nel": 32,
    "wandered": 6,
    "corridors": 2,
    "vent": 60,
    "fury": 6,
    "foreigners": 6,
    "##ooped": 10,
    "hills": 26,
    "scattered": 34,
    "afterwards": 48,
    "seized": 52,
    "frozen": 28,
    "squat": 18,
    "thump": 10,
    "underside": 6,
    "starboard": 4,
    "rocked": 6,
    "swung": 14,
    "deafening": 2,
    "cannon": 20,
    "tipped": 12,
    "dive": 20,
    "##tour": 42,
    "blasts": 8,
    "emerged": 18,
    "escorting": 2,
    "enclave": 20,
    "cannons": 12,
    "embarked": 4,
    "rescue": 36,
    "consisted": 30,
    "helicopters": 26,
    "nicknamed": 4,
    "crocodile": 4,
    "covering": 94,
    "##gration": 14,
    "airfield": 4,
    "heated": 16,
    "hillside": 10,
    "gunners": 12,
    "hill": 46,
    "gazed": 2,
    "limbs": 8,
    "mort": 10,
    "tragedy": 66,
    "shave": 6,
    "continents": 4,
    "1945": 18,
    "brethren": 28,
    "sentiments": 14,
    "##inging": 12,
    "##wn": 34,
    "uncommon": 32,
    "regarded": 70,
    "revolutionary": 36,
    "surgical": 24,
    "extracts": 6,
    "dated": 42,
    "journal": 62,
    "neighbors": 194,
    "remotely": 38,
    "havoc": 12,
    "proponents": 28,
    "1957": 10,
    "##virus": 18,
    "##rag": 44,
    "##iza": 12,
    "hurts": 48,
    "naive": 62,
    "firmly": 54,
    "attributes": 62,
    "unsigned": 40,
    "##mas": 52,
    "zero": 156,
    "height": 182,
    "vin": 52,
    "tad": 32,
    "accurately": 38,
    "basin": 24,
    "##sie": 8,
    "acting": 96,
    "jason": 18,
    "##nding": 10,
    "##stan": 60,
    "flawed": 38,
    "christianity": 42,
    "elephants": 4,
    "dance": 26,
    "fairy": 6,
    "##resses": 14,
    "ambitious": 16,
    "travers": 10,
    "##class": 38,
    "scroll": 60,
    "##ela": 20,
    "cpu": 50,
    "##ration": 72,
    "##trip": 14,
    "arrives": 22,
    "rags": 12,
    "bum": 22,
    "mach": 42,
    "##wash": 36,
    "##gent": 54,
    "john": 50,
    "electrical": 158,
    "cooking": 24,
    "masks": 38,
    "wholly": 24,
    "##oli": 34,
    "##gist": 34,
    "##sation": 2,
    "affair": 56,
    "senators": 34,
    "bomb": 162,
    "##arded": 10,
    "senator": 10,
    "##bill": 12,
    "stimulus": 94,
    "sworn": 16,
    "##ones": 46,
    "garner": 8,
    "hon": 38,
    "##arable": 12,
    "scenes": 46,
    "shade": 36,
    "shadows": 22,
    "reflections": 16,
    "environmental": 102,
    "advises": 4,
    "dripping": 10,
    "flexibility": 16,
    "insanity": 10,
    "dancing": 14,
    "##rting": 20,
    "guidelines": 142,
    "##words": 24,
    "##ders": 36,
    "administrator": 68,
    "spectator": 6,
    "encouraged": 78,
    "ownership": 112,
    "presumed": 18,
    "mar": 38,
    "##ques": 10,
    "avenue": 12,
    "gateway": 52,
    "modifying": 36,
    "peculiar": 24,
    "motorsport": 2,
    "misunderstood": 22,
    "chan": 24,
    "endless": 30,
    "wary": 26,
    "arts": 30,
    "##rek": 10,
    "partially": 50,
    "clapped": 2,
    "girlfriend": 54,
    "likes": 64,
    "1750": 4,
    "injection": 60,
    "pointless": 40,
    "reaches": 30,
    "parochial": 4,
    "canada": 16,
    "nj": 12,
    "##fy": 48,
    "assumptions": 102,
    "decidedly": 8,
    "lemon": 38,
    "admits": 20,
    "announcing": 20,
    "##xious": 28,
    "bald": 12,
    "stale": 6,
    "factual": 30,
    "protects": 30,
    "nationality": 38,
    "cab": 50,
    "whoa": 6,
    "deciding": 28,
    "cora": 10,
    "##phy": 50,
    "transmitting": 30,
    "certified": 34,
    "profiles": 10,
    "experimented": 6,
    "hamish": 2,
    "tenth": 40,
    "simulate": 34,
    "##nous": 24,
    "realizing": 26,
    "sockets": 66,
    "resistance": 168,
    "fancy": 100,
    "processors": 60,
    "painfully": 18,
    "democrat": 22,
    "riots": 42,
    "##night": 2,
    "trim": 58,
    "mercury": 4,
    "endowed": 12,
    "##nable": 44,
    "shortstop": 28,
    "seventy": 6,
    "forty": 42,
    "infection": 96,
    "substance": 126,
    "walled": 4,
    "drainage": 2,
    "noises": 16,
    "metal": 182,
    "layers": 30,
    "temperature": 150,
    "rises": 10,
    "seventh": 38,
    "ample": 20,
    "ounce": 22,
    "transient": 22,
    "autopsy": 4,
    "tremor": 8,
    "pal": 76,
    "##lid": 20,
    "##oto": 22,
    "dimensions": 54,
    "brakes": 82,
    "vomiting": 16,
    "poisoning": 20,
    "ingredient": 20,
    "condemning": 32,
    "ingredients": 22,
    "reacted": 14,
    "highlighted": 14,
    "##rite": 40,
    "disco": 62,
    "madness": 10,
    "engagement": 18,
    "elaborate": 52,
    "namely": 70,
    "meta": 70,
    "##physics": 16,
    "flourish": 14,
    "##ified": 98,
    "bog": 64,
    "resume": 34,
    "6th": 60,
    "305": 46,
    "desirable": 60,
    "modeling": 36,
    "declined": 42,
    "##gging": 48,
    "endured": 12,
    "recovering": 10,
    "contradiction": 142,
    "##tight": 8,
    "blank": 104,
    "stares": 2,
    "accounts": 152,
    "##dle": 14,
    "##unk": 24,
    "##ata": 26,
    "legitimacy": 10,
    "derive": 28,
    "tribe": 24,
    "rushing": 14,
    "##omo": 48,
    "gee": 38,
    "rank": 30,
    "27th": 26,
    "salary": 50,
    "designing": 66,
    "database": 210,
    "leak": 44,
    "audit": 16,
    "butt": 92,
    "presidential": 20,
    "nad": 32,
    "##lation": 22,
    "leaks": 24,
    "vt": 66,
    "stamp": 28,
    "##astic": 10,
    "measured": 82,
    "##most": 12,
    "##fusion": 40,
    "beings": 120,
    "doubts": 38,
    "convictions": 26,
    "legend": 32,
    "alarms": 28,
    "linguist": 12,
    "languages": 64,
    "shaggy": 2,
    "##fe": 72,
    "pagan": 92,
    "eggs": 46,
    "nowadays": 22,
    "rites": 22,
    "suburbs": 14,
    "prevention": 56,
    "alarmed": 8,
    "lehigh": 16,
    "hal": 56,
    "##jord": 2,
    "##phi": 98,
    "permit": 138,
    "licence": 42,
    "cary": 8,
    "aggressive": 52,
    "##ener": 28,
    "liver": 46,
    "historian": 20,
    "##ita": 86,
    "europe": 16,
    "masses": 60,
    "affects": 34,
    "candy": 16,
    "defence": 72,
    "##erated": 26,
    "##with": 22,
    "##ju": 66,
    "306": 38,
    "counterparts": 20,
    "gideon": 2,
    "declares": 10,
    "messiah": 66,
    "curse": 18,
    "##rel": 76,
    "speaks": 86,
    "tab": 84,
    "##acle": 48,
    "dwell": 10,
    "vile": 10,
    "despised": 14,
    "bribe": 16,
    "nee": 10,
    "##foot": 4,
    "milestone": 6,
    "reg": 60,
    "cassette": 40,
    "##lice": 24,
    "editing": 52,
    "lighted": 4,
    "##sw": 34,
    "##itch": 12,
    "prints": 50,
    "cue": 20,
    "brass": 18,
    "linen": 2,
    "cues": 2,
    "variables": 74,
    "##ert": 106,
    "##inal": 30,
    "allocation": 106,
    "manipulation": 108,
    "##cre": 84,
    "sigh": 26,
    "##hale": 10,
    "asthma": 24,
    "relief": 94,
    "ste": 116,
    "##roid": 14,
    "##oid": 26,
    "313": 58,
    "##33": 102,
    "441": 46,
    "invented": 68,
    "advertised": 40,
    "proposals": 74,
    "argued": 86,
    "##uously": 8,
    "proponent": 16,
    "publicity": 38,
    "independence": 46,
    "misses": 10,
    "inventions": 10,
    "nominate": 8,
    "helm": 4,
    "delegate": 10,
    "elections": 26,
    "celebrates": 4,
    "40th": 4,
    "anniversary": 28,
    "executive": 70,
    "overseas": 20,
    "chairman": 14,
    "sketches": 6,
    "##ees": 42,
    "tenure": 18,
    "colleges": 12,
    "universities": 54,
    "1954": 14,
    "1958": 44,
    "1963": 42,
    "founder": 30,
    "kevin": 20,
    "##bbled": 30,
    "##ane": 46,
    "##emy": 8,
    "sob": 12,
    "##ege": 44,
    "clause": 50,
    "owns": 66,
    "pillar": 6,
    "bleeding": 22,
    "##lok": 2,
    "rs": 98,
    "##fight": 14,
    "beacon": 22,
    "divide": 70,
    "behaviour": 104,
    "ib": 38,
    "autonomous": 10,
    "tyrant": 30,
    "##logies": 16,
    "earthly": 18,
    "earnings": 6,
    "purse": 12,
    "umpire": 26,
    "##ope": 6,
    "##xy": 4,
    "midst": 26,
    "motors": 56,
    "modulation": 30,
    "##mable": 48,
    "ceramic": 14,
    "minimum": 136,
    "tha": 28,
    "##tch": 36,
    "kawasaki": 4,
    "warmer": 4,
    "##oj": 2,
    "23rd": 6,
    "chicken": 34,
    "tomorrow": 128,
    "##rock": 20,
    "disliked": 6,
    "jing": 6,
    "casual": 44,
    "divisional": 20,
    "honour": 22,
    "additionally": 8,
    "builders": 10,
    "egg": 26,
    "unanimous": 8,
    "streak": 30,
    "pitchers": 72,
    "mantle": 10,
    "worries": 22,
    "##version": 30,
    "intelligence": 166,
    "pizza": 14,
    "compliment": 18,
    "symposium": 40,
    "sixth": 46,
    "scrolls": 16,
    "archaeological": 2,
    "artifacts": 14,
    "excavated": 2,
    "loan": 58,
    "1947": 22,
    "desert": 62,
    "scholarship": 28,
    "backgrounds": 24,
    "##spar": 22,
    "remarks": 138,
    "professor": 68,
    "emeritus": 6,
    "keynote": 4,
    "closing": 66,
    "picking": 66,
    "distinguished": 20,
    "preview": 80,
    "curator": 2,
    "shrine": 2,
    "associate": 34,
    "##vat": 6,
    "origins": 48,
    "1938": 18,
    "##mont": 18,
    "##hly": 16,
    "##week": 8,
    "english": 18,
    "##nig": 4,
    "clarkson": 18,
    "dj": 34,
    "##gp": 24,
    "##na": 102,
    "outta": 14,
    "##sr": 52,
    "mike": 56,
    "hopper": 16,
    "##alo": 22,
    "##lings": 10,
    "disgust": 18,
    "crushing": 4,
    "privy": 2,
    "babies": 54,
    "arch": 56,
    "##ivist": 34,
    "plot": 154,
    "privilege": 18,
    "lovely": 26,
    "ian": 18,
    "painting": 16,
    "canvas": 18,
    "diamonds": 2,
    "inclined": 42,
    "45th": 10,
    "##lb": 48,
    "stores": 78,
    "1974": 84,
    "democratic": 100,
    "concentration": 54,
    "vanished": 14,
    "releasing": 26,
    "clandestine": 4,
    "inception": 8,
    "imposed": 36,
    "anytime": 38,
    "mediated": 6,
    "politician": 20,
    "##ill": 46,
    "peoples": 62,
    "myth": 66,
    "custody": 18,
    "eta": 10,
    "governed": 26,
    "dude": 28,
    "tracks": 32,
    "cory": 6,
    "berkeley": 142,
    "##sio": 4,
    "ace": 36,
    "fantastic": 32,
    "dreamed": 10,
    "probable": 68,
    "hoax": 26,
    "resurrection": 120,
    "##acy": 130,
    "pottery": 2,
    "facing": 46,
    "flesh": 62,
    "knees": 28,
    "scream": 36,
    "agony": 12,
    "raw": 94,
    "malls": 8,
    "##ein": 10,
    "##utation": 36,
    "servers": 222,
    "##eed": 14,
    "puzzled": 10,
    "motions": 14,
    "drag": 122,
    "floating": 68,
    "##iso": 26,
    "adjusting": 20,
    "cod": 32,
    "shipped": 66,
    "mk": 122,
    "##bai": 16,
    "wheat": 24,
    "##esa": 10,
    "##rily": 48,
    "preached": 46,
    "##eve": 50,
    "translator": 22,
    "##guide": 12,
    "lifestyle": 50,
    "purely": 86,
    "coincide": 18,
    "nevertheless": 26,
    "delivery": 72,
    "dip": 54,
    "cans": 22,
    "spa": 84,
    "##ckle": 12,
    "mall": 48,
    "lumber": 10,
    "monsoon": 2,
    "nailed": 12,
    "bridge": 32,
    "abu": 28,
    "##tment": 14,
    "apartment": 248,
    "burger": 6,
    "fries": 4,
    "stuffed": 14,
    "##vd": 8,
    "vanilla": 24,
    "poll": 70,
    "asks": 90,
    "woke": 18,
    "remembrance": 6,
    "feast": 14,
    "meal": 46,
    "meals": 10,
    "##plify": 30,
    "wine": 32,
    "drift": 16,
    "racer": 8,
    "##boy": 10,
    "sticky": 22,
    "heal": 26,
    "horsepower": 28,
    "threads": 56,
    "broadcasts": 14,
    "ratings": 46,
    "fewer": 106,
    "affiliates": 2,
    "contributor": 16,
    "athlete": 6,
    "hurting": 22,
    "athletes": 16,
    "athletic": 8,
    "mb": 56,
    "##400": 36,
    "luigi": 8,
    "strongest": 26,
    "prevailing": 16,
    "irrelevant": 122,
    "averages": 22,
    "sooner": 54,
    "warmed": 8,
    "soap": 24,
    "bubble": 30,
    "charitable": 10,
    "platoon": 30,
    "valuable": 118,
    "##tering": 10,
    "logs": 16,
    "institutions": 64,
    "enterprise": 32,
    "fia": 20,
    "initials": 10,
    "translit": 4,
    "##ilo": 8,
    "ito": 6,
    "beast": 56,
    "##rey": 8,
    "lanes": 18,
    "asshole": 42,
    "fable": 12,
    "rr": 18,
    "thankful": 22,
    "prosecution": 46,
    "anticipating": 8,
    "shootout": 8,
    "erupted": 6,
    "sniper": 30,
    "induced": 30,
    "barrel": 60,
    "arrest": 86,
    "informant": 24,
    "indicted": 2,
    "proximity": 12,
    "confrontation": 26,
    "protests": 18,
    "courthouse": 12,
    "affiliate": 20,
    "footage": 24,
    "impromptu": 6,
    "neo": 44,
    "nazi": 18,
    "protest": 76,
    "##db": 54,
    "##its": 50,
    "flatly": 6,
    "volunteer": 58,
    "defendants": 12,
    "shoulders": 28,
    "##ount": 22,
    "monitored": 14,
    "blazing": 2,
    "peaks": 8,
    "subsequently": 26,
    "displaying": 70,
    "condo": 50,
    "begins": 102,
    "##tur": 40,
    "preceded": 18,
    "concluded": 84,
    "hasty": 8,
    "segment": 84,
    "dd": 50,
    "xp": 114,
    "forming": 38,
    "consortium": 14,
    "##mill": 28,
    "##mate": 42,
    "craft": 98,
    "designs": 78,
    "eliminate": 80,
    "canceled": 14,
    "japan": 2,
    "generals": 12,
    "detecting": 34,
    "framing": 10,
    "receipt": 22,
    "stayed": 88,
    "telecast": 18,
    "stink": 28,
    "underwear": 12,
    "prostitute": 14,
    "compelling": 30,
    "##rts": 6,
    "prostitutes": 10,
    "##mine": 32,
    "irrational": 58,
    "##hei": 370,
    "hammer": 78,
    "wrought": 10,
    "crows": 4,
    "elves": 4,
    "sway": 4,
    "boasted": 12,
    "reversed": 38,
    "mammal": 10,
    "blooded": 36,
    "mammals": 6,
    "primate": 18,
    "enduring": 14,
    "striped": 12,
    "constitution": 72,
    "prohibits": 22,
    "localities": 6,
    "rei": 40,
    "layout": 90,
    "peripheral": 46,
    "deposit": 38,
    "assigns": 6,
    "##ory": 46,
    "strained": 2,
    "favors": 10,
    "smells": 10,
    "redesigned": 10,
    "livelihood": 10,
    "trailer": 12,
    "lasts": 14,
    "loves": 56,
    "towers": 58,
[...]
